#version: 0.2
Ġ t
Ġ a
i n
h e
r e
o n
e r
Ġt he
Ġ s
a t
o r
Ġ c
o u
n d
Ġ w
e s
i t
i s
e n
Ġ p
Ġ f
Ġ o
in g
Ġ b
a l
a n
e d
Ġt o
Ġa nd
a r
Ġ m
Ġ in
Ġo f
i c
i on
Ġ d
l e
o m
a s
Ġ h
en t
Ġt h
i l
Ġ y
r o
Ġ re
c t
v e
s t
Ġ e
Ġ l
Ġy ou
Ġ n
e t
Ġ Ġ
â Ģ
Ġ is
Ġ g
Ġ T
l y
Ġf or
Ġ S
i d
Ġ I
u s
Ġb e
Ġ on
o t
c e
at ion
o l
Ġ C
o w
a y
i m
Ġ A
i g
c h
r a
it h
v er
e l
u r
u t
Ġs t
Ġw ith
a m
Ġth at
Ġp ro
a d
i r
er s
u l
Ġa n
s e
Ġ M
Ġ P
Ġa re
Ġa s
Ġ or
i f
Ġ it
at e
Ġa l
il l
Ġc on
u n
es s
g e
âĢ Ļ
Ġ 1
p p
m ent
he r
ou r
Ġw e
Ġ B
es t
Ġc om
Ġyou r
Ġ W
o o
ou t
Ġ 2
a b
t er
Ġw h
Ġ (
k e
r i
Ġh a
o re
Ġe x
Ġ -
q u
Ġ D
a c
ĠT he
or t
Ġ v
it y
Ġ F
Ġ us
ĠĠ ĠĠ
r om
is t
Ġn e
i es
Ġ he
e m
p e
u re
i ve
Ġa t
Ġ H
Ġ L
Ġ R
ig h
Ġs e
an t
Ġd e
Ġc an
ar t
u m
o c
l d
u st
n t
Ġth is
o p
a in
Ġf rom
Ġb y
Ġ E
a nd
Ġha ve
o s
0 0
Ġw ill
Ġs u
Ġ N
Ġn ot
Ġ G
Ġ r
Ġs h
t h
i v
Ġc h
u d
re s
Ġ O
e ct
i al
o d
Ġ u
p er
al l
Ġ âĢ
igh t
Ġ le
om e
p t
ar d
Ġw as
a ge
in e
id e
o st
Ġw or
re d
p l
Ġp l
ion s
Ġa d
a g
ic e
Ġal l
i e
oo k
r ou
t e
f or
Ġa b
ab le
T he
Ġcom p
it e
e ar
Ġ U
d u
Ġ our
ou ld
o g
a re
g h
i p
c c
a k
t her
at ed
a ct
Ġ en
Ġh as
i z
f f
el l
as t
a il
Ġ j
Ġw he
ic h
Ġd o
c l
im e
for m
Ġcon t
Ġc l
al ly
a ke
as e
Ġ k
in d
Ġ J
Ġ im
Ġ +
Ġ 3
ac k
s o
Ġ2 0
an ce
r y
u e
Ġm ore
ĠI n
i b
an s
ver y
Ġthe ir
Ġa pp
ul t
Ġ out
on e
ig n
ĠT h
Ġt e
er v
Ġre s
Ġ =
ation s
Ġm e
Ġwor k
Ġu p
on g
Ġs o
Ġb ut
i a
i re
b er
Ġ Y
ct ion
ou s
l l
ar y
Ġan y
a ch
am e
Ġ un
Ġm an
Ġal so
âĢ Ŀ
u b
a ce
ou nt
as s
Ġwh ich
re e
Ġon e
en ce
ve l
Ġof f
Ġthe y
Ġ qu
i le
oo d
' s
Ġo ther
Ġp er
Ġf e
p ort
ar k
a p
ic al
re at
. .
a v
r u
i ke
ĠS t
ic k
Ġp art
Ġt ime
ent s
o se
it ion
Ġab out
Ġne w
Ġd is
c k
or s
f e
ay s
e p
* *
Ġ K
Ġin t
Ġ V
Ġa cc
res s
b s
ĠĠ Ġ
Ġpro v
Ġ 4
Ġm y
Ġus e
Ġt ra
Ġa r
Ġcom m
Ġy ear
ing s
Ġne ed
c om
or y
l ow
ĠW e
Ġe v
ĠI t
Ġ 5
Ġg o
o ve
cl ud
on d
re n
Ġg et
Ġs pe
ĠâĢ ľ
en s
n ow
Ġ if
Ġwh o
Ġm ay
or d
Ġwhe n
nd er
) .
l p
ĠĠĠĠ ĠĠĠĠ
Ġs ome
il d
Ġl ike
Ġs c
in t
ĠC h
Ġp re
l ic
Ġs erv
Ġs p
ment s
Ġhe lp
ver s
Ġpro du
Ġd es
Ġthe m
Ġad d
Ġo ver
c es
Ġa g
ra m
Ġe m
Ġit s
form ation
at er
Ġbe en
Ġs a
h at
Ġ "
ro w
ĠTh is
le ct
Ġt r
Ġc ol
ic es
rou gh
is h
an g
Ġh ow
Ġthe re
Ġp r
in k
n ing
o v
Ġin clud
o y
ou nd
u al
at es
n e
j ect
o b
Ġth an
Ġ ro
re nt
ie w
c ess
Ġin d
Ġp e
Ġcon s
ir st
c ial
it ies
on s
2 0
Ġh is
Ġre c
Ġa m
Ġex per
if ic
Ġwh at
x t
Ġk now
Ġ20 1
ĠR e
ow n
ter n
Ġm ake
Ġin formation
on t
pp ort
in ess
p le
Ġthe se
Ġint o
ou gh
e nd
Ġth rough
Ġb u
p h
Ġon ly
f t
Ġm ost
at a
ol d
f ter
us e
Ġw ould
Ġwe re
f ul
il ity
k s
op le
i an
ĠY ou
Ġb et
er m
i ence
us iness
Ġc o
is e
Ġ 0
Ġu nder
w e
ers on
r ic
ĠâĢ ĵ
Ġn o
w n
Ġa ct
an y
Ġf irst
Ġre g
ur n
an ge
he d
Ġd if
er t
Ġj ust
i ous
at ing
ib le
Ġw ell
it t
Ġas s
Ġre qu
ure s
Ġ1 9
Ġ 6
T h
ĠH e
Ġt w
Ġe very
m er
I n
y st
ad e
Ġre l
Ġin v
Ġpe ople
Ġwe bs
as ed
Ġst ud
Ġl ook
e w
is s
l es
rou nd
at ive
Ġprodu ct
ation al
ust om
Ġp h
Ġbe c
s s
c ed
Ġ $
he n
Ġl oc
vel op
ra ct
Ġh ad
Ġw ant
Ġp os
o ol
c re
ol og
Ġs et
g et
Ġb l
Ġim p
pe ct
a w
Ġman y
Ġb usiness
Ġin st
al s
f ore
ot h
il y
yst em
d er
Ġsh ould
Ġre m
l ine
Ġ ke
ark et
Ġ her
it s
ri v
Ġa c
et h
ur ing
Ġse e
Ġwebs ite
t ing
ul ar
Ġprov id
Ġb est
d ay
ĠP ro
Ġsu ch
Ġ &
Ġtw o
ĠU n
h ip
ic s
u nd
i ed
Ġa v
or k
Ġyear s
ri b
Ġb ack
a use
Ġh igh
Ġp erson
Ġ ent
i ent
ĠC om
Ġ 7
ar ch
Ġc ook
Ġs m
if e
Ġf in
Ġin s
Ġ ra
id ent
al th
c y
r it
t y
t s
ĠI f
p s
ch n
en er
Ġe ff
Ġse c
Ġus ed
Ġdes ign
pt ion
oc k
it ed
a x
Ġg reat
Ġwhe re
Ġre t
Ġw ay
e c
Ġdif fe
g ram
le ase
o int
Ġd ata
1 0
Ġtr ans
ak ing
Ġp ur
Ġf ind
w ard
Ġm od
Ġin te
Ġv al
Ġ very
Ġo wn
W e
Ġde velop
) ,
b le
Ġf l
Ġa fter
ol low
Ġpl ay
Ġn um
at h
g an
Ġ1 0
v iew
Ġg u
Ġc ustom
Ġst art
W hat
y s
Ġr ight
Ġc re
Ġ 8
ow er
- -
ate g
u ch
Ġsu b
iz e
Ġv is
Ġh ome
Ġf un
n g
e f
el f
Ġg ood
2 2
ag es
Ġre ad
ul l
al ity
Ġthe n
i o
Ġpro cess
Ġsu pport
Ġm on
Ċ ĠĠĠ
he s
1 9
Ġar t
Th is
Ġat t
t t
r ing
a ir
Ġd et
ĠF or
Ġfor m
ire ct
Ġm arket
an k
Ġs ystem
ub lic
Ġm in
Ġc ar
Ġev en
Ġa ut
Ġcomm un
.. .
' t
Ġv ar
Ġs im
Ġc he
u es
Ġt ake
Ġde c
Ġc ould
Ġexper ience
Ġl ong
Ġsa id
Ġus ing
Ġm ade
Ġad v
00 0
Ġdis c
Ġpro f
ĠL et
as h
i x
Ġf am
Ġc ur
Ġav ail
Ġ ed
ch ool
Ġcomp le
Ġs he
Ġdo es
e ver
Ġn ow
ar n
Ġp res
Ġf ollow
Ġ 9
Ġwor ld
Ġd el
Ġe ach
Ġd ay
Ġte chn
Ġdiffe rent
p en
Ġte am
Ġp ol
Ġm ed
i vers
Ġbe fore
Ġm em
re st
Ġe as
in es
u p
n er
Ġcook ies
ion al
Ġhe re
ol ut
Ġt y
Ġc all
Ġpro gram
l ed
Ġre p
Ġd own
Ġre ce
iv es
u g
iz ed
v en
Ġl ist
Ġin ter
o ad
Ġprov ide
Ġsh ow
Ġwh ile
Ġd on
Ġm uch
Ġc are
Ġserv ice
Ġor der
ic t
Ġe nd
al k
a z
1 1
Ġch ar
Ġex p
Ġle ad
l and
i red
Ġc ount
ot her
at ch
we en
Ġim port
as on
Ġs ign
e e
Ġavail able
Ġha nd
Ġs ur
in ce
ĠĠĠĠ ĠĠĠ
Ġbec ause
Ġserv ices
Ġbe ing
Ġth ose
at ure
Ġcomp any
ou se
i er
ĠD e
am p
Ġl ife
al e
u ally
it al
if y
e x
re ad
ou n
od e
2 1
Ġacc ess
Ġp ay
in s
i el
Ġs er
Ġbet ween
Ġnum ber
ĠA s
ĠA l
Ġre f
olog y
d e
Ġf ree
( -
er n
Ċ ĠĠĠĠĠĠĠĠ
ĠS h
L et
Ġall ow
ĠN ew
Ġapp ro
ak es
i et
Ġwe e
Ġwith out
Ġres ult
Ġpro ject
E R
Ġhe alth
Ġf act
Ġinclud ing
st and
m s
ĠA n
ĠA nd
Ġst r
Ġc our
ĠA r
Ġg ener
p r
Ġo b
a ve
Ġoff er
Ġto p
Ġc le
Ġcl ass
i qu
Ġag ain
Ġpl ace
Ġs ame
pl oy
Ġm ain
Ġs k
iv id
Ġex t
1 2
Ġres p
S t
Ġ i
Ġspe c
Ġb oth
Ġpart ic
ĠC l
Ġon line
ra nd
o k
im es
ĠA d
el s
Ġ2 00
in ed
ru ct
w ays
Ġl ar
ent ial
Ġpl an
Ġo pt
Ġc or
u c
Ġg l
w ay
et s
Ġpos s
Ġst ate
. âĢĿ
ant s
Ġch ild
at her
Ġb o
Ġpro per
c on
5 0
Ġa round
Ġp ost
Ġbu ild
n ect
b ers
Ġsm all
n ess
in ing
ce pt
Ġor gan
ar m
Ġex am
e red
ar s
I f
us s
Ġl ast
Ġb ook
âĢ ľ
Ġr un
i pp
Ġm ust
iel d
Ġde f
Ġd uring
w w
ro ss
t on
o ver
Ġ [
Ġf ound
Ġ /
Ġmon th
âĢ ¦
w are
Ġinv est
l ess
) ;
Ġc ost
i en
Ġis s
pe nd
p os
Ġapp lic
ir d
Ġke ep
Ġproduct s
i k
Ġs ite
Ġwith in
er g
ic ally
Ġcont in
t he
Ġth ink
ort h
rou p
Ġin f
ĠE x
Ġf il
Ġd irect
am es
Ġinte rest
Ġcon f
R E
ĠS e
Ġper form
Ġo pen
Ġ '
Ġimport ant
Ġperson al
ĠW h
t en
Ġt erm
ri end
Ġ1 2
v ing
Ġin c
Ġqu est
ut e
ĠP l
Ġd ist
I N
i ents
3 0
Ġadd ition
Ġ Q
Ġpro t
ĠI nd
Ġre port
iv ing
Ġd id
Ġp at
ur al
Ġ est
v ed
Ġo per
ab ility
) /
d ition
cc ess
id er
Ġprof ess
Ġin cre
I t
1 5
Ġc ent
ĠH ow
Ġeff ect
ĠThe y
Ġret urn
c ri
is hed
Ġcur rent
Ġ1 8
Ġp ass
ist s
Ġre al
v ent
Ġp ublic
Ġg ra
ĠW hat
Ġp oint
at or
en g
fe ren
ivers ity
O N
ĠS u
Ġs om
Ġimp ro
Ġre se
Ġg row
Ġw ater
Ġth ree
Ġd ays
Ġre st
Ġl ot
Ġwork ing
mer ic
Ġfe w
a ut
Ġval ue
Ġs oc
, "
Ġw r
R e
Ġst and
ot e
Ġab le
ĠO n
Ġst ill
Ġc ert
Ġit em
= "
Ġst ore
Ġ ve
iss ion
Ġ {
Ġe qu
Ġfam ily
er y
Ġs ure
Ġ <
ater ial
ĠB ut
Ċ ĠĠĠĠĠĠĠ
ar ly
Ġal ways
ĠThe re
ro l
1 6
r id
t o
is ion
Ġl ove
as es
if ied
Ġsec ond
a h
Ġspe cial
r ation
Ġs chool
Ġle vel
Ġunder stand
o f
ĠL e
1 8
ic le
i ver
ic y
g est
Y ou
Ċ Ġ
at ures
Ġche ck
Ġbet ter
Ġt est
c o
ĠU S
m an
a j
Ġne xt
1 4
Ġind ust
a red
Ġg ive
a u
Ġha pp
w ork
A T
Ġf ull
Ġfun ction
Ġen g
Ġl ine
age ment
it es
ard s
Ġqu ality
Ġvis it
ĠA ll
Ġin tern
1 3
ĠT o
iz ation
our s
l ing
ail s
H ow
Ġex pl
Ġ ide
one y
Ġacc ount
Ġpro ble
r al
in al
Ġpur ch
t ed
ĠB e
m e
Ġm ult
o ot
Ġfe el
Ġ1 5
ate ly
ĠT e
du ct
p ro
it ions
Ġstud ents
th ing
Ġcre ate
Ġcon st
ĠA meric
, âĢĿ
le ction
Ġn ame
Ġem ploy
com m
ĠC ol
ac y
c ul
Ġre ally
Ġp ower
Ġch ange
c ent
" :
r on
i um
Ġcont act
Ġact iv
Ġb as
Ġl aw
Ġan al
Ġb en
Ġbe l
od y
h or
t ain
i or
_ _
Ġth ough
Ġp rom
Ġh im
Ġth ings
Ġcon nect
Ġare a
ir on
Ġs ince
Ġt ry
ĠI s
ĠB l
ĠS c
Ġp age
Ġp ract
p art
c ing
Ġgo ing
Ġle g
1 7
re en
Ġm aterial
Ġm ight
Ġc r
Ġb ig
s h
Ġm at
Ġcom e
Ġloc al
l ish
Ġl ink
Ġb ased
Ġv iew
or n
ĠC on
Ġspec ific
Ġch ang
Ġcont ent
eth od
oc i
en se
Ġp op
Ġprot ect
ivid ual
le t
ill ion
E S
f ect
Ġf ac
is ing
ĠThe se
Ġneed s
o or
Ġg ame
itt le
Ġe l
Ġs l
Ġinclud e
Ġ .
Ġt ri
Ġfollow ing
it ive
Ġrese arch
oc us
g in
Ġl ight
eth ing
Ġen s
Ġc ase
Ġme et
/ /
s elf
Ġsu pp
iqu e
j oy
g er
em ber
Ġf riend
b o
v es
Ġcommun ity
os s
rib ut
Ġl ess
ĠW ith
ĠS erv
p or
Ġan other
Ġcomm on
2 7
Ġre view
ent ly
Ġposs ible
ĠC an
Ġc ap
ver t
ĠM an
Ġrequ ire
a pp
r an
Ġm aking
Ġlook ing
m in
ĠS p
Ġto o
Ġde v
or ies
Ġc reat
ill s
Ġv ide
ain s
Ġan n
ĠP h
ĠR es
b e
ateg ory
m ed
Ġ z
ĠS o
ur ity
Ġa ff
Ġle arn
Ġm us
Ġpres ent
Ġeas y
ri es
ĠCom m
he re
Ġ Z
pp ose
Ġind ividual
Ġp ut
re am
Ġcomple te
ar ning
ra ph
f er
Ġ1 4
iet y
Ġsu ccess
Ġwee k
Ġ3 0
Ġsom ething
or m
our ce
en cy
Ġbu y
2 5
Ġm et
Ġn on
Ġe lect
Ġth ird
row s
Ġben ef
te nd
v iron
Ġdevelop ment
Ġem ail
out h
Ġh ard
pport un
ĠO ur
Ġs al
Ġa ir
f act
Ġev ent
Ġlar ge
pl ace
Ġus er
Ġhe ad
Ġrec ord
ie ve
is m
p ut
Ġph ot
Ġh ist
ĠO r
oo se
in ation
ver n
Ġd ig
Ġfe atures
W h
Ġl im
Ġ1 6
y m
Ġp riv
Ġd em
iv ed
Ġl ittle
ĠS he
Ġadd ress
Ġm oney
u ro
Ġf ocus
ĠUn iversity
Ċ Ċ
Ġm ov
Ġto day
A s
2 4
a pt
cess ary
comm end
âĢ Ķ
Ġs ay
Ġw in
Ġs olut
m ber
Ġ x
Ġty p
al cul
ĠâĢ ĺ
2 3
Ġimpro ve
g le
Ġed uc
Ġsoc ial
y le
an ies
as ter
ĠâĢ Ķ
9 9
Ġp a
Ġ1 3
er ing
p ar
Ġo ld
a ff
ur y
Ġ ident
in a
Ġh ig
is ed
Ġm ethod
Ġen joy
ent ion
iv en
l oad
ut ure
A N
O R
Ġas k
A R
an cial
Ġ |
Ġ20 22
our ces
ĠC ent
Ġo pportun
Ġcour se
s c
Ġgo vern
Ġpr ice
Ġb re
r ist
ne y
P ro
Ġto ol
oc u
red it
an n
Ġf ood
Ġn et
Ġle t
Ġex pect
Ġso ft
Ġac ross
Ġindust ry
ur ance
âĢ ĵ
Ġbe low
Ġty pe
us h
Ġp lease
Ġse ver
o h
I D
Ġmem bers
Ġp ack
viron ment
Ġme ans
Ġf und
Ġke y
ot t
Ġs ing
Ġchild ren
a im
Ġb ro
Ġf our
-- --
Ġcustom ers
Ġt imes
Ġper fect
Ġw rit
Ġ1 1
Ġro om
ĠE ng
ĠC ont
Ġj o
pe cial
ĠT r
are nt
Ġg roup
ĠA pp
Ġg r
Ġbe h
: //
ver age
n ers
Ġoff ers
ol ve
Ġex ce
Ġexam ple
E N
Ġre commend
Ġor ig
Ġresp ons
d ing
res ent
Ġd ri
Ġsh are
n ot
Ġdisc uss
Ġsever al
o pe
Ġto get
Ġtoget her
Ġ vers
O n
4 0
Ġt em
ur ther
s ide
A n
ord ing
Ġcons ider
Ġp ot
Ġinst all
F or
Ġp ick
E x
f ort
Ġcont rol
I T
ra p
aj or
ric t
t il
ĠA m
at t
Ġb rand
Ġrequ est
Ġal ong
Ġcomp anies
Ġof ten
6 0
con om
at s
Ġ ess
Ġ1 7
Ġ :
ip le
ur s
Ġb r
H e
Ġf uture
Ġne ver
ĠW hen
ĠHow ever
b y
o ice
Ġt reat
Ġt ax
Ġup d
ure d
ib ility
Ġcert ain
A L
Ġ }
Ġf ield
Ġcol lect
S T
Ġprofess ional
Ġagain st
Ġcom es
le v
Ġse lect
ro ll
il ities
Ġnew s
Ġsh ort
if t
pl ay
Ġl ive
at ic
Ġh ouse
Ġh um
Ġbe aut
Ġcount ry
Ġprovid ed
ĠY our
g ed
Ġ1 00
Ġwe b
l ished
i od
Ġrequ ired
Ġsp ace
ĠT ra
Ġqu ick
Ġrece ive
Ġl ow
C h
Ġd ra
ut es
it or
er r
it ing
ight s
v ious
Ġm akes
om en
Ġm ove
read y
" ,
Ġl and
Ġp ast
ĠA ss
Ġt re
Ġbec ome
ĠP ol
Ġha ving
Ġte xt
Ġb rows
Ġp ri
Ġst ep
Ġwh y
Ġtechn ology
ac es
Ġo cc
ind ow
ro om
ĠCom p
in o
( )
s w
og raph
Ġt urn
ab ly
at form
Ġr is
ĠA t
ff ic
U T
ro p
Ġun til
ward s
Ġp ain
ĠN o
Ġpartic ular
ir m
C om
ĠP r
Ġre du
8 0
led ge
y n
Ġ es
Ġvide o
un e
Ġ2 4
E D
Ġstud y
Ġcle an
an ces
id s
Ġp ar
ĠIn st
Ġm ajor
Ġk ind
r ont
Ġproper ty
Ġp ort
Ġh ours
ot s
as ing
Ġl og
Ġprovid es
Ġf ore
Ġother s
Ġr ange
c er
Ġresult s
a i
Ġquest ions
ar ing
Ġse ason
ipp ing
Ġam ount
im ate
Ġab ove
u fact
Ġd ue
ĠUn ited
Ġcomp et
le y
c hes
ol id
ob al
) *
Ġcom b
Ġaut hor
Ġd ocu
Ġal ready
ĠM ed
Ġen vironment
< /
Ġc ode
Ġoff ic
Ġvar ious
Ġcl os
ar r
ĠIn tern
I C
Ġo ption
ific ation
v al
Ġs w
Ġtra ck
Ġens ure
Ġfin ancial
ĠC o
feren ce
Ġh old
Ġl a
Ġf ile
Ġc e
Ġj ob
Ġcustom er
e ad
os p
ĠU s
Ġa way
Ġne cessary
T o
Ġch all
Ġg ot
ab or
r t
Ġmus ic
Ġun ique
cri ption
Ġcl ick
i able
Ġwork s
Ġwor d
ent al
cl us
Ġse em
b ook
S u
c i
Ġitem s
Ġstr ateg
Ġpartic ip
S h
a pe
Ġd one
Ġs ell
Ġman agement
t ime
ĠM ar
00 3
ĠTh at
il t
it her
um p
g es
id es
Ġde al
Ġs ide
W hen
The re
ĠC O
Ġb ring
Ġtra vel
Ġm ess
Ġm illion
Ġ2 5
Ġsu g
\ /
Ġper iod
er al
ĠF l
Ġme as
Ġinclud es
ĠE uro
Ġs it
Ġopt ions
A d
o pp
Ġse arch
Ġcommun ic
ĠF e
ĠM ay
is ter
Ġen c
ive ly
2 8
Ġe le
Ġpro b
ang u
Ġrem ain
Ġc ity
av or
Ġs ize
ĠP lease
ag ing
Ġiss ues
Ġ X
c rib
ip s
. "
2 6
og n
Ġch oose
Ġcall ed
Ġmed ia
Ġproble m
Ġp ub
i am
Ġd ate
Ġl o
b r
c ome
Ġm ind
Ġperform ance
Ġimp act
Ġle ast
Ġc redit
Ġv ol
Ġpurch ase
Ġen erg
ĠCh rist
or ld
Ġapplic ation
as k
Ġsec urity
' re
ĠC ar
Ġmonth s
en n
if ul
Ġpl atform
Ġass ist
Ġre ason
i very
oo gle
Ġbuild ing
Ġus ers
C T
il i
C ategory
b ack
ir t
Ġdesign ed
o id
& #
Ġgovern ment
Ġe conom
Ġpr int
Ġmult iple
Ġto t
Ġm ar
c le
Ġme an
Ġs um
ĠSt ate
Ġget ting
Ġchar act
O ur
Ġg iven
Ġpol icy
Ġg ames
Ġob ject
n ov
on es
Ġe t
Ġv ia
her s
Ġstr ong
e es
Ġexper ien
he st
Ġsub ject
3 5
for d
Ġknow n
ob ile
u ck
itt ed
Ġterm s
Ġc amp
h tt
Ġbe gin
Ġle ft
Ġaut om
I S
ĠE n
A S
ĠC ount
ĠN e
Ġrel ations
s el
Ġag ree
Ġcon d
ĊĠĠĠĠĠĠĠĠ ĠĠĠ
le ge
z e
Ġc ard
Ġf urther
Ġmin utes
Ġt alk
at ural
Ġh ot
ru ction
al f
Ġ20 21
ore d
ĠM y
Ġare as
Ġst at
il es
Ġsing le
alcul ate
Ġse nd
Ġapp ear
Ġdet ails
port s
Ġenerg y
Ġ #
ĠG u
ĠAmeric an
Ġwhe ther
an e
Ġrep resent
o ber
ĠD es
4 5
Ġon ce
op y
c hed
id d
an ks
Ġf ar
Ġtra ining
ĠD o
ib r
Ġl at
Ġc ult
Ġsim ple
Ġcon c
Ġ20 20
Ġapp ly
ul ation
Ġsign ific
Ġb ase
ic ated
Ġcl ose
r ay
. ,
l er
a f
Ġins urance
3 3
Ġd am
at ors
Ġart icle
s on
Ġin it
Ġ Â
Ġpot ential
Ġsoft ware
2 9
Ġbl og
et y
Ġen ough
Ġmod el
i res
) )
Ġp ie
Ġcol or
Ġa ud
p ly
Ġman ufact
Ġaddition al
pl es
Ġb ody
m ost
Ġe ver
Ġst ay
ra ft
ĠSt ates
Ġe arly
Ġac cept
Ġc ou
ap s
Ġstart ed
Ġf re
em ic
Ġm ach
ĠT H
g r
ro du
Ġm ot
id ence
Ġess ential
ĠEuro pe
Ġ Ð
oh n
Ġth ing
Ġst aff
Ġcons um
Ġpri or
C l
Ġde pend
Ġph ys
il ar
Ġve h
7 0
u ed
Ġevery thing
le x
Ġ5 0
p ose
Ġam ong
Ġdif f
Ġsu per
ww w
ag ed
Ġhist ory
Ġmarket ing
Ġser ies
Ġdo ing
Ġa ge
Ġdet erm
Ġchang es
ĠD is
Ġknow ledge
ct or
Ġcomp ut
Ġb it
u ation
Ġa ch
Ġp ress
3 6
ip ment
Ġbeaut iful
Ġcom pl
our n
ak en
ĠB o
ic les
Ġpop ular
ar l
Ġcl ients
ol l
ab les
Ġus es
Ġst ory
ne w
Ġquest ion
Ġh ost
ic ro
Ġsa fe
il it
ĠM e
ful ly
ĠB y
ĠN ational
Ġreg ard
Ġle arning
re ct
I ON
ĠO ne
i ans
Ġev ents
A b
ĠM in
pecial ly
Ġw ays
9 0
ĠS chool
Ġcont ain
Ġcre ated
' m
and s
Ġan sw
7 5
un ch
b all
res h
Ġsignific ant
um b
ru g
Ġc rit
Ġsystem s
Ġdoes n
Ġw on
Ġw ide
ach ing
ag er
ens ive
Ġfriend s
Ġest ab
im um
Ġc ut
a us
I s
ar get
ĠC ity
Ġcol l
u ra
g o
ĠE m
Ġnet work
Ġoff ice
Ġactiv ities
A C
Ġact ually
Ġw a
ĠP art
or g
ic ult
C on
Ġris k
Ġeff ort
au gh
um e
ĠM ore
Ġass oci
Ġcl aim
ag n
ear ch
et er
q rt
R O
Ġinv ol
Ġrelations hip
Ġdig ital
L E
Ġs elf
Ġneed ed
ĠA g
Ġex ist
Ġincre ase
Ġn ight
f ace
Ġcontin ue
ill ed
ĠN ot
m it
en e
an ced
Ġent ire
Ġm en
Ġm om
Ġyou ng
Ġf ive
ec ut
Ġcan not
Ġorig inal
Ġadd ed
Ġeng ine
Ġrece ived
4 4
Ġt able
Ġf ul
Ġcont ract
it le
Ġext ra
Ġst yle
Ġeduc ation
ĠQ u
Ġl ater
Ġbre ak
Ġallow s
ĠI m
ĠC al
te xt
Ġfe ature
Ġde b
Ġr ate
dition al
Ġaff ect
s p
g round
ur ch
Ġph one
Ġbrows er
g ing
ple ment
it ut
Ġ( -
ie f
Ġcom fort
Ġre place
g ra
b ased
Ġst ruct
Ġres pect
Ġsk ills
Ġe ither
Ġst e
Ġleg al
min ist
Ġsal es
ĠC he
Ġne ar
A l
Ġpos ition
on se
ul es
Ġt ell
Ġ ,
re g
Ġhum an
Ġanal y
9 8
y l
cri pt
Ġs ays
Ġf low
Ġprovid ing
Ġgener al
Ġy et
ĠServ ice
Ġsug gest
Ġt aking
IN G
' ve
Ġvers ion
at ory
Ġs ent
Ġcons ent
Ġrel ated
ĠS te
av ing
Ġl angu
th ough
Ġan t
Ġd er
ĠW orld
Ġpriv ate
ou d
Ġco ver
ĠG od
Ġet c
Ġa f
ĠRe g
Ġc as
Ġset t
Ġdel ivery
Ġpre vious
feren ces
m y
ad a
Ġtyp es
' ll
itt en
W ith
ar ant
ys is
Ġtot al
Ġd iv
Ġmaterial s
c ast
Ġeff ic
Ġhig her
Ġdown load
Ġd r
u x
A ll
iz ing
ct ions
Ġrec ogn
Ġdis play
Ġl iving
ĠA fter
Ġc ir
ĠSt ud
Ġper cent
Ġhe art
O T
Ġproject s
a ult
Ġex c
Ġro le
Ġb ar
Ġsim ilar
Ġiss ue
ĠB u
4 8
Ġp arent
Ġdiff icult
Ġ *
Ġcond itions
Ġwrit ing
Ġmem ber
Ġad vert
Ġn atural
Ġs at
e pend
ail y
Ġes pecially
Ġexp ress
ov ed
3 8
ĠW est
ĠâĢ ¦
Ġprodu ction
ĠJ an
Ġcurrent ly
Ġs ound
re et
e y
Ġopportun ity
Ġpart y
Ġpa per
9 5
Ġd i
Ġinf l
Ġwho le
Ġfact ors
Ġinclud ed
ĠN orth
ĠS outh
Ġmain tain
ĠY ork
U R
or age
r ight
u le
Ġacc ording
T r
g ress
Ġthrough out
Ã ©
Ġ ut
Ġcle ar
Ġvar iety
Ġw omen
Ġc ell
Ġh y
Ġoffic ial
am b
Ġhow ever
Ġcost s
Ġf avor
ĠG oogle
Ġlat est
Ġgl obal
Ġgrow th
med i
Ġlike ly
ĠP re
Ġm iss
p re
in c
Ġspe nd
Ġw alk
Ġtool s
ĠD ep
Ġhapp en
ĠA f
ĠSu ppose
il le
Ġfin al
Ġyour self
Ġab s
ĠO ct
Ġsa f
Ġe y
is es
s et
Ġloc ated
Ġf it
Ġsim ply
Ġloc ation
A M
Ġ Ċ
Ġann oun
ĠJ ohn
it ch
c ont
Ġintern ational
Ġs ol
Ġmed ical
Ġim plement
ĠA ct
6 5
op s
p ri
3 7
al se
on y
Ġproble ms
Ġread ing
ast ic
ĠO ff
Ġto ok
Ġsu bs
com ing
Ġ201 9
im al
c he
Ġevery one
Ġf ront
Ġ ...
Ġprogram s
2 00
Ġreg ular
Ġdocu ment
Ġa ction
Ġf oot
Ġacc om
Ġbenef its
Ġsome one
ĠHe alth
Ġd om
m od
Ġre d
Ġpart ners
Ġchall eng
Ġpract ice
Ġl ic
Ġpos itive
w here
a ur
m ission
un g
Ġbo x
m ing
Ġbel ieve
Ġ4 0
ĠG l
Ġse en
Ġc ame
Ð ¾
Ġw ond
E T
j ust
Ġreg ist
id ed
Su ppose
iv ity
Ġ err
o on
Ġt ru
ra in
Ġf all
ĠCount y
Ġus ually
Ġf ast
Ġstand ard
iv al
Ġp ict
d ers
Ġfor ward
l i
ou ra
sel ves
ĠServ ices
Ġrun ning
1 00
Ġh ope
he ad
ac ed
ĠF in
ess ion
os ed
ĠJ u
o x
ĠH igh
ou ch
Ġcharact er
Ġeas ily
Ġt aken
Ġbas ic
ĠA ust
Ġc ases
m l
Ġexper t
3 4
Ġb ed
c ies
Ġl ay
Ġide a
Ġim age
ĠS ome
ĠĠĠĠĠĠĠĠ ĠĠĠĠĠĠĠĠ
Ġt akes
Ġl oss
ĠA N
ove red
Ġde g
Ġout side
Ġbu ilt
Ġsolut ions
Ġread y
ir l
Ġsolut ion
u ary
ĠI N
h ib
Ġpoint s
" >
Ġlong er
Ġh om
Ġpur pose
Ġrequire ments
ĠA ut
Ġpre p
Ġ2 1
olut ion
ĠCent er
ĠRe ad
riv acy
Ġso on
Ġdirect ly
it er
Ġqu al
ĠP ark
Ġsh ipping
Ġs ites
ure r
Ġw atch
indow s
ĠP res
Ġtr ust
w h
Ġlead ers
Ġm ark
Ġexce ll
ove mber
Ġequ ipment
Ġt arget
o le
Ġres ources
C ont
Ġsaf ety
is on
or ks
h old
Ġthough t
Ġpr im
Ġf ram
ĠA b
Ġdev ice
ĠR ep
Ġv ac
u ff
ĠAss oci
Ġd ed
8 8
Ġp an
Ġf ace
Ġup on
Ġstud ent
3 9
Ġpre vent
ĠP er
Ġd ou
Ġcount ries
P h
re w
Ġent er
ect ion
Ġtreat ment
ig ation
U S
Ġinvest ment
Ġn ational
Ġlead ing
Ġel se
re me
ail ed
or ing
Ġin nov
Ġar ch
Ġappro ach
ĠA ug
Ġo il
le ased
' ,
Ġh tt
Ġtr ue
": "
ĠP e
er a
A P
ĠSe pt
Ġs ource
ce mber
" ,"
Ġins ide
Ġdiffe ren
Ġb ank
Ġsc reen
Ġsa ve
w ord
ĠĠĠĠ Ġ
y ear
Ġhe ld
w ise
Ġab ility
ĠAr t
Ġdel iver
Ġquick ly
Ġhelp s
t ies
Ġorgan ization
Ġch oice
Ġr ound
at ter
ĠI nt
Ġp ers
Ġconc ern
Ġcol lection
Ġpat ients
R es
Ġmat ter
ĠS m
Ġplay ers
Ġc opy
Ġe arn
st r
Ġo p
Ġro ad
Ġbusiness es
Ġrec ent
Ġm atch
Ġsh all
ĠC or
UT C
Ġtry ing
__ __
Ġshow s
p ress
Ġcor rect
re l
ph p
pr il
ĠComp any
5 5
Ġem b
Ġs ix
Ġemploy ees
Ġ q
um n
Ġm obile
ĠA cc
! !
Ġpay ment
l ight
ĠD r
Ġnot e
Ġdef in
Ġal most
h ing
6 6
Ġins p
Ġ201 8
ĠO ut
ust ain
Ġeffect ive
ĠE d
Ġat tend
ri ve
ĠM arch
itt ing
Ġdes crib
Ġcare er
Ġne g
ĠO f
v is
ĠG e
ĠJ une
Ġany thing
Ġpr ices
er ve
ĠInd ia
ed eral
Ġpol it
7 7
V ID
Ġwr itten
Ġhigh ly
Ġpart s
Ġc aus
Ġb ott
Ġcons ult
ri ed
ĠHe re
ro id
ĠT w
Ġse ction
an a
Ġgo al
U n
ĠV al
o es
az ing
in ary
Ġcon dition
Ġp ark
Ġdid n
ĠS oc
al es
ĠPol icy
Ab out
Ġp o
b l
it c
Ġce le
ens ion
Ġf ire
Ġt our
L L
Ġh alf
ĠWh ile
Ġex act
g u
er c
ĠC ons
Ġqu ite
Ġgu arant
row n
ch ange
O S
Ġmod ern
6 4
Ġr out
o om
Ġhapp y
S o
Ġw orth
air s
Ġdec ision
Ġs ens
Ġcomput er
Ġl ower
Ð °
c il
et imes
est s
Ġse par
ĠF rom
ĠD ay
Ġsc he
Ġc and
ist ic
Ġag o
B e
Ġint rodu
Ġanal ysis
art ment
Ġa verage
el come
el t
= =
Ð µ
pos es
Ġs le
t ers
s u
Ġw ent
Ġprom ot
Ġob tain
ĠN ovember
Ġ ver
at ives
em pt
Ġdri ve
Ġlim ited
ĠIntern ational
Ġp ath
eng th
ĠD irect
A t
A nd
Ġ2 2
rou ps
Ġstore d
Ġinter act
Ġapp l
Ġlangu age
Ġst orage
Ġb al
Ġprofess ion
ur g
Ġorgan iz
ert ain
Ġc oun
art h
Ġwh ite
ĠA ir
Ġcomm er
nd s
u ge
Ġre ach
at ur
Ġ2 3
he l
Ġspe ak
Ġh on
ĠDe cember
ĠOct ober
Ġindividual s
Ġd est
Ġfil m
ĠB usiness
olog ical
E O
ide red
Ġm ax
ĠJu ly
ĠS ec
ough t
Ġpl ans
Ġwork ed
Ġreg ul
av a
T e
Ġs ale
ren g
m ail
Ġim medi
Ġright s
Ġcreat ing
ĠSept ember
Ġfe ed
Ġcom ing
Ġmess age
Ġg round
it able
h ood
Ġ201 7
as ons
Ġ2 8
ir ing
Ġle ave
Ġd aily
ĠEng lish
Ġc am
Ġte ac
A D
Ġwee ks
Ġapplic ations
Ġhig hest
Ġder iv
cre t
Ġbl ock
Ġn orm
Ġl ab
Ġcont ribut
it ute
Ġn av
ra w
Ġenc oura
Ġveh icle
ĠPro gram
ar ies
Ġspe ed
( "
Ġd riv
m on
Ġach ieve
Ġ â
Ġbo ard
h t
Ġlevel s
6 8
e k
Ġf ix
az on
Ġansw er
i ol
ĠG roup
B y
Ġword s
Ġbl ack
a ign
Ġcent er
Ġappro pri
ĠM on
I P
M y
Ġcomm it
ĠA pril
bo ard
Ġ ill
Ġcon duct
Ġs ym
Ġdra w
Ġl ives
Ġrespons ible
Ġopportun ities
ar ter
.. ..
lev ant
ĠTH E
ist ics
7 8
Ġg en
3 2
Ġpl ant
ĠJ ust
Ġdevelop ed
un ction
Ġin j
ĠN et
Ġr ather
m a
Ġ201 6
Ġind epend
Ġind ic
Ġw all
iz es
om an
ĠW ill
Ġd ivid
Ġpur poses
ĠAmeric a
ĠO ver
ourn al
Ġav oid
Ġpub lished
Ġinst ead
Ġm or
Ġany one
D e
E C
f l
Ġexcell ent
al y
s qrt
es e
ĠB ar
B ut
il ies
ĠS w
Ġde ep
Ġra d
d ed
is c
ĠJan uary
Ġmach ine
Ġlink s
Ġide as
Ġderiv ative
Ġful ly
Ġcommer cial
D es
Ġr ates
Ġ2 6
Ġg ives
Ġmeet ing
ve y
Ġass ess
ibr ary
Ġcl ient
ict ion
Ġtechn ical
opp ing
idd le
Ġcomple x
ĠU K
P lease
Ġc y
)/ (
Ġbook s
ĠH is
Ġcons idered
Ġis n
Ġl if
Ġpr ime
i ance
Ġrec ently
Ġbeh ind
id ents
ĠAug ust
ke y
Ġm ix
Ġo bs
N o
if orn
Y our
Ġst ock
Ġs un
Ġactiv ity
ell ow
Ġa im
Ġf irm
is ions
ĠComm un
ĠN ow
Ġre nt
am ed
Ġdist ribut
) :
o ff
le ment
Ġc al
ud get
op h
a res
ill ing
ac hed
b or
ĠE l
ipp ed
ĠIn formation
her n
Ġc ause
Ġb i
pp er
Ġprob ably
4 9
Ġpre m
v est
---- ----
Ġf ig
Ġplan ning
ĠA re
N ew
itc hen
com es
ĠS ystem
Ġg e
du c
Ġem erg
ĠDep artment
Ġto wn
Ġident ify
ĠIn c
Ġen h
ar i
P S
Ġ2 7
n a
iforn ia
Ġadv ice
Ġ- -
Ġunderstand ing
w ide
n es
Ġde ath
Ġgra du
Ġwr ite
y pe
ir th
Ġfil es
Ġinvol ved
Ġcons ist
Ġt ouch
Ġexpect ed
Â ®
Ġintern et
ĠS er
4 7
st er
Ġw ood
ĠA c
ĠAf ric
Ġad minist
Ġim ages
ud e
tt ers
p d
Ġtra ditional
Ġfavor ite
Ġst reng
en ing
ĠPres ident
Ġgu id
O ne
Ġim m
Ġam azing
Ġtrans fer
Ġadv ant
Ġreplace ment
C ol
olog ies
Ġinte gr
I M
Ġpl aces
Ġpro pos
Ġwond er
Ġconst ruction
ĠFe b
d es
S e
Ġin form
ĠL aw
Ġco ol
ĠH ouse
Ġm ention
Ġre lease
are st
Ġdivid ed
Ġw ish
g y
l ike
Ġ201 5
Ġg roups
Ġk ids
Ġlo an
Ġcoll abor
c ol
Ġwant ed
ĠM arket
t r
r ast
EN T
ĠD et
Ġwe ight
m b
Ġon es
h a
Ġcomp on
Ġ6 0
Ġphys ical
E M
Ġsupp ly
Ġhe av
Ġc ash
ad es
Ġsee k
Ġst op
Ġm ass
Ġl oad
u el
Ġcir c
av es
Ġa ware
Ġex ecut
ĠAust ral
ap an
Ġgu ide
ĠP ar
ell ing
er ous
Ġchar ge
Ġatt ention
Ġsum mer
ĠD on
Ġe p
Ġb us
Ġest ate
ĠTe chn
Ġresp onse
Ġev al
Ġreg ion
Ġd at
Ġs ustain
Ġregard ing
ĠH ome
ir it
Ġf resh
Ġs ong
Ñ Ĥ
ac hes
Ġits elf
ĠM c
se qu
Ġde part
ĠS an
ĠCO VID
C O
r ange
Ġsat is
s y
Ġcom ment
ĠPro f
Ġgo als
. )
ch an
an cing
Ġac qu
ĠH er
e ed
Ġsuccess ful
over n
Ġth ous
ĠG ener
ag s
Ġinfl u
Ġdis e
ĠG erm
c are
Ġsit uation
ograph y
4 6
op t
Ġdam age
if f
Ġre levant
Ġsc ore
Ġbro ad
ub e
ĠTr ans
rid ay
ĠA P
ĠO F
ĠC ook
Ġst ates
Ġad just
Ġt as
00 00
m itted
Ġs qu
ĠF r
Ġbut ton
9 6
ĠU se
Ġs il
Ġtem per
ag ue
Ġval ues
Ġd og
rid ge
Ġown ers
3 1
Ġseem s
Ġg ain
ĠCan ada
Ġpie ce
Ġcele br
Ġext reme
ic a
et t
ĠCal ifornia
bo x
Ġn ature
Ġfam ilies
Ġmom ent
Ġne arest
olut e
A pp
Ġp red
am s
Ġrem ember
ra ck
)/ (-
Ġappropri ate
Ġplay ing
ĠG et
Ġinterest ed
ĠC oun
Ġask ed
Ġprotect ion
9 7
ĠT V
d om
Ġdev ices
Ġbeh av
U s
ĠC our
im ately
ĠD el
od es
it ation
ĠR uss
G et
Ġcon cept
Ġa ward
ĠCol lege
Ġinit ial
ord er
I m
Ġcour t
it ect
Ġb ad
Ġfor mer
Ġg ift
Ġadvert ising
ĠB ro
Ġmethod s
Ġs ense
Ġmeas ure
Ġpro gress
ic ation
P l
Ġl ate
Ġtrans port
o e
o ke
Ġcon vers
Ġincre asing
ĠP a
Ġpa id
Ġfl oor
Ġex tend
Ġcamp aign
Ġlook s
Ġp ages
A fter
ron ic
Ġal tern
ru ary
Ġfact or
Ġcar ry
Ġact ive
t ty
Ġfe es
ic ip
Ġref er
y ond
Ġm ount
Ġdem and
ĠCh ina
Ġoff ered
ĠD ata
du le
ig ate
ĠAm azon
Ġstart ing
Ġthem selves
Ġto ld
Ġsub st
Ġsk in
Ġref lect
Ġfre qu
E L
Ġpre c
Ġwebs ites
ash ing
ar ily
Ġhist or
Ġt al
A B
Ġcou ple
om in
m as
ur b
Ġdeg ree
d own
ce ed
Ġch ance
Ġs we
Ġs old
Ġsm art
Ġinc ome
Ġbenef it
ĠK e
Ġ201 4
Ġt en
Ġexist ing
o oth
Ġerr or
Ġnot ice
Ġassoci ated
Ġdifferen ce
ish ing
Ġcontin u
Ġ @
und red
Ġredu ce
Ġpat tern
al t
ĠR ed
Ġser ve
Ġre v
Ġg iving
re t
ĠEurope an
Ġbas is
Ġs am
tern al
Ġg old
for ce
Ġst ream
Ġto wards
Ġrest aur
re ci
Ġgrow ing
ĠDes ign
8 5
ist ry
Ġde cl
arr ant
our ney
Ġeconom ic
Ġinst itut
ĠT O
ac ity
ĠDe velop
âĢ¦ ]
Ġcomplete ly
Ġh ous
C alculate
Ġc ry
Ġback ground
ĠF irst
ar a
od ay
Ġreport ed
Ġb udget
Ġb all
on us
Ġv irt
at ically
Ġc apt
Ġaf ford
Ġbec ame
ri al
S im
nd ed
I L
d d
Ġsec ure
ĠS ub
t ics
Ġg reen
Ġdiscuss ion
now n
Ġstrateg y
rib ute
ĠF ace
Ġresp ond
ĠB est
Ġoffer ing
h ouse
Ġteam s
Ġcommunic ation
Ġstep s
/ (-
Ġle tters
id ing
por ate
ident ial
ĠBl ack
Ġre leased
Ð ¸
ĠS im
Ġh olid
Ġc ross
Ġexpl ain
Ġatt ract
Ġst ress
en ge
Ġorganiz ations
it ter
Ġover all
ĠM us
Ġd ry
ĠS k
Ġlar gest
Ġre pl
Ġeas ier
0 1
Ġv iol
h am
id a
Ġh osp
Ġn ice
w ood
" .
Ġparent s
d iv
Ġhelp ing
Ġtri p
Ġm ag
Ġapp e
v ille
Ġmod els
ĠW ork
al ing
ĠA M
ĊĠĠĠĠĠĠĠĠ ĠĠĠĠĠĠĠ
Ġbe gan
Ġex clus
Ġcas ino
ak er
Ġreview s
ĠP ort
nd ing
Ġor ders
ã ģ
Ġcand id
Ġs ources
s es
Ġro ll
Ġcult ure
htt ps
Ġut il
Ġpriv acy
oc al
u k
ent y
Ġh uge
ond on
Ġval id
ĠJ apan
Ġhe at
hen s
Ġmov ing
ce ll
E n
Ġl ost
ite ly
Ġ2 9
te e
Ġt ick
Ġas pect
ad d
Ġprofession als
Ġnot hing
Ġset ting
i pe
er ia
ĠAl so
Ġt itle
Ġs ports
m ore
in ter
Ġde le
Ġcom ments
Ġnum bers
Ġdo or
ĠF ree
Ġgreat er
Ġ[ âĢ¦]
i ation
Ġpro ced
Ġinst ruct
Ġass ign
Ġst ra
Ġcl in
z z
en ior
Ġfunction al
ĠD ist
Ġco verage
Ġatt empt
Ġm ill
est er
6 7
ic ies
r is
Ġaff ili
ĠAn y
Ġparticular ly
Ġl ed
( '
b it
oc ks
V iew
Ġsett ings
Ġconnect ion
Ġchalleng es
Ġst ories
Ġexper ts
ĠK ing
Ġd en
hip s
S S
Ġincre ased
ard en
Ġexp and
am ic
ĠE duc
ce l
Ġupd ate
am a
Ġbig gest
ĠM od
Ġstruct ure
Ġs n
Ġjo in
ten ance
Ġinterest ing
Ġpre tty
Ġ201 3
Ġeffic ient
ven ue
ĠIn s
Ġphot os
D o
Ġhand s
Ġf air
Ġuse ful
Ġh undred
Ġtra de
id th
Ġpart ies
Ġf ine
ĠM r
Ġcomple ted
âĢ ĭ
ter m
Ġpart ner
i ant
b on
ĠA ng
Ġs low
ĠFeb ruary
act ion
ĠThe n
Ġgo es
ens es
ĠAN D
Ġman age
ĠI T
Ġelect ric
Ġapp reci
ĠInd ian
n ame
âĢĿ .
C H
ĊĠĠĠĠĠĠĠĠ ĠĠĠĠĠĠĠĠ
ĠM ost
Ġabs olute
ar c
re p
in clud
Ġstat us
Ġpick ed
Ġ201 2
Ġw arm
oc ol
Ġcon ven
um ber
Ġprocess ing
Ġmon itor
Ġinter view
Ġexperien ced
ĠF riday
Ġstate ment
ĠE very
Ġschool s
Ġc at
Ġha ir
Ġhealth y
Ġf ail
Ġse lection
Ġrequ ires
Ġsh own
Ġne igh
Ġannoun ced
Tr ue
ain t
Ġk itchen
ĠNew s
ĠBo ard
Ġdeterm ine
ĠB rit
ilit ary
Ġc ateg
Ġatt ack
The se
ult s
ĠH ar
use um
Ġocc ur
Ġapp oint
im ent
4 3
Ġlist ed
Ġex erc
Ġplay er
Ġcap ital
Ġestab lished
âĢ ¢
en cies
Ġexpl ore
ib ly
0 5
Ġprim ary
Ġf ab
ond ay
ra g
] ,
ĠP ost
ur ning
ĠWe b
ru it
ĠP at
ĠPl ay
Ġbe yond
Ġmanufact urer
Ġ/ /
ed ding
Ġmean ing
Ġele ments
Ġstud ies
ĠL a
Ġcommun ities
Ġpre fer
ĠAssoci ation
Ġun it
O r
ĠL ist
Ġu nd
Ġd ream
Ġar riv
m at
ec ause
Ġimmedi ately
Ġass um
Ġcol lege
sy ch
ren ch
Ġout d
Ġ ult
4 2
Ġj ourney
pr ise
ĠWh ich
ĠW ar
Ġoper ations
Ġhom es
Ġsh ip
Ġo pp
Ġref und
cl ass
I V
ĠD av
Ġsc ience
Ġacc ur
ur ation
iss ions
Ġpack age
Ġexperien ces
Ġg as
l im
Ġded icated
Ġcomp os
ĠY ear
ph one
and emic
ĠMan agement
L C
N ame
Ġb atter
Ġs ort
ash ion
ab y
I G
ir us
Q u
he ther
rough t
Ġdec ided
Ġser ious
Ġdem on
ĠG overn
ĠB ook
Ġac ad
m et
Ġsh ared
ĠC ustom
Ġsom etimes
ĠM ich
N ot
Ġst age
Ġann ual
Ġb irth
un t
ĠFace book
Ġs us
Ġm id
Ġser ver
Ġcrit ical
Ġr ules
Ġw ar
Ġf lex
Ġmor ning
l ist
Ġh our
Ġm ission
Ġlim it
Ġsle ep
l in
ĠG ra
Ġbegin ning
att le
ĠS T
b u
Ġexact ly
ĠA nt
Ġrep air
ab ase
Ġl ines
A r
Ġselect ed
L ist
ĠL ondon
Ġre asons
ut h
Ġg irl
ĠE ach
He re
Ġh it
g en
Ġpress ure
Ġop in
ch ol
Ġreport s
us ed
C C
Ġcomfort able
Ġsur face
Ġret ail
Ġpat ient
Ċ ĊĠĠĠ
ĠP M
U N
Ġc ategory
Ġch ann
ant ly
h ome
re m
Ġrem ove
Ġ3 1
Ġproper ties
ĠIntern et
5 8
Ġide al
Ġfe e
Ġs ession
( );
Ġallow ed
ind ing
5 7
ĠRes earch
und ay
Ġs av
ĠPl an
Ġgl ass
f ree
F alse
Ġst ri
Ġproper ly
Ġpolit ical
Ġother wise
Ġeffect s
Ġwr ong
Ġb ath
ous ly
M S
Ġpol icies
ĠB ank
Ġsupp l
Ġme chan
so ft
ien cy
erv ed
erson al
t alk
Ġmult i
Ġimp ress
Ġestab lish
ic ing
Ġsh op
5 6
Ġeffort s
Ġorig in
en ces
Ġl ength
Ġpract ices
Ġ201 0
se c
Ġan im
Ġstand ards
Ġun its
Ġsa w
ur rent
os ure
Ġcont ains
Ġart icles
rap y
Ġ >
p ite
ĠF ound
oc ation
Ġbott om
am ing
** (-
Ġform at
ĠG reat
Ġ| |
Ġre ve
Ġbro k
Ġinit i
pl ate
Ġen able
ht ml
Ġe arl
Ġse qu
o ices
i ability
pp ed
Ġt ips
Ġey e
Ġown er
il s
Ġcook ie
5 00
Ġindepend ent
4 1
Ġdisc ount
ĠP ay
Ġro ck
Ġc ards
Ġpass ion
ĠO ther
Â ł
Ġsc ient
ĠI I
ĠL ear
Ġa w
Ġwe ather
Ġfun ctions
R A
ific ations
Ġadv ance
Ġcomp ared
Ġdig it
ĠOff ice
pl ify
an cy
Ġfund s
Wh ile
Ġc ru
or ge
Ġn ation
Ġnorm al
ĠR et
ou l
stand ing
ĠC alculate
ĠM any
it ors
ed ia
ĠPh il
ĠCoun cil
Ġsp ot
Ġde pos
h aps
er o
Ġthink ing
Ġvisit ors
am ily
Ġcl ub
ab ilities
t op
Ġchang ed
f ield
Ġf arm
Ñ ģ
Ġdefin itely
Ð¾ Ð
Ġest im
Ġprodu ce
Ġget s
Ċ ĠĠĠĠĠ
ol f
Ġhot el
Ġj ud
ĠI D
ĠB ra
Ġ201 1
ĠC are
p a
Ġprovid er
Ġgra ph
n et
ly ing
ĠE ast
Ġb illion
iqu es
Ġdr ink
âĢĿ ,
Ġhe ar
ĠOn ce
atur day
Ġm icro
) ?
ĠC r
Ġplay ed
st ate
Ġsp read
Ġl oved
\ \
b and
oo s
iver se
Ġf urn
g g
Ġtechn ologies
Ġcont roll
Ġtest ing
Ġw arrant
7 6
Ġh or
p on
Ġcreat ive
Ġp ool
ĠG r
w orks
Ġt er
Ġn ames
i ra
ĠT ex
por ary
F rom
L e
Ġp andemic
part y
ĠAd d
Ġt im
w ith
Ġtra ffic
iv il
O L
se e
ff ee
Ġphot o
ĠC le
Ġf ederal
Ġhtt ps
Ġex change
Ġcap acity
Ġinc or
Re ad
Ġp le
Ġa part
Ġc overed
Ġm other
Ġact ual
m ark
Ġd oll
Ġsur round
Ġb onus
ĠI S
Ġopt im
B l
Ġdocu ments
Ġhand le
Ġar ray
land s
Ġw ww
ĠB r
Ġsche dule
Ġextreme ly
ĠV is
Ġpl aced
Ġrecord s
ĠW indows
N e
Ġpro s
Ġsmall er
ke nd
Ġview s
it iz
ĠEduc ation
Ġ19 8
ĠSt reet
ac ing
Ġwe ar
o ly
P A
ĠChrist mas
ĠR em
Ġtri ed
Ġform s
20 22
ang ing
Ġs y
p x
Ġpower ful
pect ive
Ġf ill
b um
Ġdou ble
ĠS pe
Ġl ack
Ġcol ors
Ġdise ase
ĠCl ass
ative ly
ĠT erm
i os
Ġsh opping
9 4
Ġprocess es
Ġst y
r or
ic o
Ġtrans l
Wh y
Ġserv ed
Ġw indow
ĠFl or
Ġsp ent
Ġupd ated
Ġadv anced
Ġhelp ed
ĠDirect or
Ġadvant age
Ġwa it
ĠRe c
ĠIn ter
g age
Ġcertain ly
Ġthous ands
Ġp et
or ial
Ġmain tenance
ĠB el
ĠA S
Ġtru ly
m m
Ġpict ure
ual ity
Ġclass es
f it
ic on
Ġ ing
Ġdevelop ing
D I
Ġl iter
htt p
ĠPro duct
D A
im in
Ġgener ally
Ñ Ģ
am ent
Ġfin ish
Ġdec or
ĠO pen
t d
ĠP rivacy
Ġlar ger
Ġc raft
Ġp ow
Ġn amed
ĠR E
Ġjo bs
ĠRe view
9 3
Ġsu ff
re hens
Ġv ary
ashing ton
ot o
ed s
Ġn ut
Ġpie ces
Ġwonder ful
Ġbl ood
Ġem ot
Ġsp irit
ĠDevelop ment
Ġf a
Ġd rug
it ude
Ġarch itect
AT ION
Ġconf ig
A G
Ġ3 5
ĠS ince
ĠP ublic
Ġse ctor
ĠG old
ol es
Ġs em
ĠGener al
oy al
Ġwork ers
ag ram
qu e
Ġm er
n y
ĠO R
un te
Ġne arly
Ð ½
T H
Ġcon text
ur t
Ġgr ant
al d
ĠS ee
Ġguarant ee
ĠM icro
Ġd ark
ruct ure
S p
ĠOn line
Ġrel iable
Ġg ar
Ġdisc over
Ġb rought
Ġprodu ced
ic ed
)* (
Ġc alcul
Ġvide os
Ġp en
b ody
in ner
res p
erv ation
0 8
Ġocc as
Ġinte nded
O W
ĠM onday
ĠChe ck
Ġinstall ation
re qu
ĠM em
ĠE ven
ĠM et
or row
Ġspecific ally
Ġappro x
ĠH ot
Ġev idence
ĠAr ch
Ġex hib
Ġclos ed
Ġde ad
ĠT ime
Ġassist ance
Ġ ri
ap ter
ĠInst itute
ĠA v
ĠG reen
Ġb le
it ure
Ġautom atically
Ġf ight
is l
Ġprovid ers
ĠTex as
Ġchall enge
Ġadd ing
ĠP C
Ġstreng th
Ġv ot
p m
ru pt
Ġbuy ing
ĠS unday
I nd
Ġdriv ing
Ġoper ating
Ġhelp ful
ar ge
Ġbel ie
al ed
Ġsh aring
Ġin put
Ġgreat est
pl oad
un k
Ġdemon str
m p
B C
Ġ200 8
Ġtra in
ran ch
Ġb and
et ers
u ps
d em
re f
Ġstra ight
Ġreturn ed
Ġpop ulation
ord in
Ġpresent ed
ĠG o
Ġ8 0
Ġagree ment
Ġeval u
Ġcl oud
oo p
ire ction
ell ig
: :
Ġm is
Ġ9 0
Ġmin imum
Ġtemper ature
ive red
ak ers
Ġfe et
b ol
g al
pr int
Ġinc red
ĠM ac
as c
o very
Ġt ask
Ġent ertain
ic ations
Ġc ore
Ġcour ses
Ġla unch
Ġche m
Ġbl ue
Ġde fe
S E
w p
ĠSu per
ov ing
Ġfab ric
Ġim ag
Ġremain der
Ġaccur ate
Ġfac ilities
C an
p ublic
Ġmax imum
Ġaud ience
Ġte aching
ĠW ord
Ġa head
> <
ĠCour t
ĠJ o
ĠPro ject
Ġbal ance
ĠB en
Ġthere fore
Ġexce ption
ul a
S te
Ġ< /
l ook
Ġreturn s
Ġrespons ibility
Ġg ave
Ġthan k
ĠL ife
Ġpl us
ð Ł
Ġm aster
an c
Ġdec isions
5 9
Ġv ict
N ow
Ġfind ing
Ġvis ual
Ġ200 9
C E
augh t
Ġregist ered
Ġel ig
y er
or ney
Ġmot or
Ġm ort
Ġs olid
Ġdepend ing
Ġd rop
ĠS ing
Ġpain t
Ġearl ier
Ġstrateg ies
0 7
c raft
A cc
Ġvis ion
Ġcl imate
Ġw ind
O M
el ines
Ġal one
0 4
a el
Ġw ild
il ing
ri ef
Ġdet ail
Ġr ank
he t
Ġqu arter
Ġj ournal
Ġst ring
as y
Ġp ull
ĠF rench
rou d
ĠUS A
Ġmy self
ĠEng ine
ĠAustral ia
Ġb ra
Ġele ment
k nown
Ġconnect ed
ĠS a
Ġd ress
Ġlot s
Ġupd ates
Ġvar iable
Ġmention ed
Ġw elcome
se mb
Ġlaw s
Ġnum erous
Ġout put
ĠTh anks
M L
Ġfeel ing
ĠS ite
ĠW ashington
ĠH ist
Ġclean ing
Ġra ce
Ġchang ing
ĠP ower
I nt
Ġmeas ures
Ġres idents
ver se
Ġsm ooth
ĠD em
Ġoper ation
Ġbrand s
ĠL ink
ri e
ĠM ake
6 9
Ġpre par
he nt
Ġde cre
ĠS aturday
Ġcomm itted
ag o
Ġprotect ed
Ġm ap
Ġpost s
Ġth reat
P r
Ġpol ice
ot a
W arning
ren e
Ġcomp rehens
Ġmarket s
Ġdis cl
ĠH el
ĠComm ission
Ġv ill
Ġ \
Ġsepar ate
ĠG ood
ust r
A A
ic ine
ĠS l
7 9
5 4
Ġ id
bs ite
Ġd yn
qu ality
Ġfocus ed
Ġopen ing
Ġappl ied
Ġtyp ically
Ġqu ant
Ġloc ations
0 2
I d
Ġapplic able
Ġro of
S olve
Ġw edding
Ġcam era
Ġpe ace
urs day
ĠSc ience
Ġb orn
Ġrel ax
Ġfor ce
Ġr at
Ġent ry
Ġleaders hip
Ġcall s
Ġag ency
Ġthan ks
Ġde p
Ġmem ory
ed nes
ĠI P
Ġres ist
ĠS olve
Ġconf irm
Ġad apt
Ġdri ver
Ġwh ose
ĠF ore
Ĥ ¬
Ġh arm
Ġenh ance
is ation
ab led
Ġsh ape
ĠH all
ĠPro v
on a
I F
clus ion
com p
Ġse ven
Ġlead er
ĠG ive
ound s
re ed
oth ing
ce ption
Ġcent ury
Ġdel ivered
ĠFlor ida
Ġs on
Ġpl ants
s k
et ic
Ġfollow ed
ĠCl ub
n ed
th is
m ar
Ġre ference
ĠRe al
Ġd ro
0 3
ues day
ĠF ind
Ġmov ed
Ġdat abase
ess ions
0 6
Ġb oo
P re
ĠJ e
Ġexpert ise
Ġst rug
Ġgu ests
p oint
Ġtru ck
Ġeconom y
Ġvirt ual
em s
Ġloc k
y d
ify ing
Ġlet ter
ate ver
Ġvac c
Ġm ilitary
Ġfriend ly
em y
f ol
go ing
om s
D F
y ing
Ġsur v
ap ers
S c
Ġre pe
ines e
ad o
ĠM or
Ġrem ote
oo per
ĠP al
Ġabsolute ly
Ġdescrib ed
Ġacad emic
T hat
Ġpar am
Ġrecommend ed
ĠCommun ity
Ġdet ailed
ĠSoc ial
O ver
Ġcomb ination
ĠC ap
Ġtechn iques
ic ious
ĠS um
Ġro b
amp ions
ĠProf ess
ig ital
Ġholid ay
ĠWh ite
im b
Ġf elt
oc r
Ġsc ale
Ġrec ip
Ġsc hed
ĠW ater
en ed
Ġprof ile
C he
y p
re es
D is
ĠBrit ish
Ġmen u
ĠApp le
Wh ich
Ġdirect or
Ġm iddle
Ġcent ral
m en
ĠY O
Ġcol d
ĠAfric a
g a
f riend
Ġrelationship s
S ome
Ġst ation
ĠR iver
Ġf ashion
Ġheav y
Ġlic ense
Ġconsum ers
Ġmove ment
Ġcompon ents
Ġsc en
ednes day
ien ces
ĠS ur
Ġfund ing
in y
Ġal bum
ov es
Ġcol umn
7 2
Ġsatis f
ib er
ĠFound ation
i j
Ġup gra
ro te
t ra
Ġsell ing
' d
b ut
st on
Ġtrans form
Ġgood s
Ġst ick
Ġinstall ed
Ph one
ĠCh urch
Ġg rand
Ġres ource
s ub
9 1
ĠT op
Ġpl ug
* (
ĠR el
Ġcontin ued
y th
Ġprep ared
Ġkeep ing
est ival
s hip
Ġveh icles
Ġencoura ge
ent ure
ĠM ag
Ġso le
Ġbehav ior
5 3
Ġsit u
B A
ĠCh ar
z a
" )
Ġm ail
rel ated
S ub
u able
Ġchar ges
Ġtop ics
ct ors
Ġpay ments
ĠPro t
A re
ĠN OT
Sim plify
Ġdi agn
Ġnav igate
Ġwin ter
Ġinf o
F irst
Ġpict ures
Ġafford able
ĠTh ank
Ġste el
Ġaccom mod
Ġfield s
9 2
Ġsl ight
Ġlo ans
Ġass ets
Ġm ental
Ġdec ide
] .
Ġc red
ĠW ell
Ġanaly ze
ĠTe am
Ġch urch
Ġk n
Ġart ist
An y
ĠJ es
Ġeduc ational
Ġwant s
ffic ient
Ġappro ved
Ġe ight
Ġl ik
Ġco ffee
Ġim pl
rast ructure
Ġar range
Ġfac ility
Ġmet al
Ġt ree
il er
h ol
Ġing red
el ine
Ġcontin ues
own load
Ġla un
Ġf old
Ġm iles
Ġal though
Ġfin ished
Ġfin ally
- >
Ġrest rict
7 3
Ġadv is
ĠF ran
Ġdef ault
6 3
B u
f low
I R
ĠD ec
Ġtra ding
Ġclaim s
Ġinst ance
Ġconcern s
Ġf ant
Ġdesign s
Ġenvironment al
Ġwee kend
Ġp sych
ĠÂ £
Ġp roud
P rivacy
. <
ĠCh ild
Ġh op
Ġst ar
Ġcomp ar
us her
Ġcompet ition
ĠU p
dition ally
M e
ĠEx per
F e
M an
ang es
Ġfeed back
Ġb ill
ĠSt and
Y es
Ġsu itable
Ġ200 7
Ġf ans
Ġdou b
Ġun less
Ġact ions
Ġinnov ative
5 2
Ġare n
Ġcomm and
Ġb ur
Ġold er
Ġte le
ew ork
â Ħ
T S
Ġtop ic
ĠRep ublic
z y
os ing
Ġsupport ed
ro s
Ġpre ferences
Ġhe ard
augh ter
ush ing
Ġland sc
\ "
Ġv oice
ĠAn n
room s
Ġmanufact uring
ac he
Ġfore ign
ĠB ay
ĠDist rict
Ġf ather
Ġ4 8
ren cy
Ġaccount s
Ġman ager
Ġturn ed
ĠS pecial
Ġmov ie
Ġpass ed
Ġc ab
Ġprem ium
if ts
Ġey es
vent ion
Ġcr is
The y
N A
Ġem p
5 1
Ġart ists
Ġemploy ee
Ġrem ains
Ġs and
) ).
Ġd irection
Ġaltern ative
Ġstore s
ĠWill iam
Ġr ich
Ġsay ing
ant a
Ġfam ous
Ġb ag
Ġw at
ĠJ ack
um an
un ately
M P
ĠM ain
re ak
7 4
** **
ĠO b
v in
Ġcirc um
i ers
Ġe th
Ġc ast
Ġed itor
act ions
Ġprevious ly
l a
Ġl ux
Ġbr ings
Ġbeaut y
Ġach ie
ĠComm it
Ġcell s
Ġcomprehens ive
Ġse x
Ġexerc ise
Ġb ul
Ġm agn
Ġinst ru
Ġmonth ly
Ġfram e
Ġcharact ers
um in
Ġbatter y
D ata
as ure
cre te
Ġavail ability
sh op
Ġhtt p
om a
Ad d
Ġbe g
ĠM al
ĠR oad
am in
p id
Ġ7 0
Ġcaus ed
Ġconst ruct
Ġdepart ment
y a
chol ars
erv ice
is hes
Ġfoot ball
s pe
h i
Ġt rou
ĠLe ad
Ġsw itch
ent ed
r ical
Ġapp s
r d
k a
Ġelect ronic
Ġst uff
Ġvol unte
g ment
Ġreg ister
f o
r ig
Ġl ibrary
Ġlic ens
Ġbe coming
Â Ń
ve re
ĠE v
Ġfig ure
ro ad
Ġprom ote
ĠE lect
ĠMed ia
Ġallow ing
Ġun c
Ġdist ance
Ġparticip ants
ĠB et
Ġimport ance
Ġcoun ter
Ġsh oot
O C
qu est
ĠTerm s
n o
Ġd ut
Ġoutd oor
Ġ4 5
in ct
V al
Ġclass ic
Ġfunctional ities
ĠCl ick
Ġsoc iety
S P
ĠM ount
l og
Ġsub mit
ay er
Ġaspect s
Ġpres ident
0 9
ĠC amp
ĠL ake
ĠN ame
D on
Ġexp ensive
Ġpost ed
Ġad s
ond s
Ġcon ference
Ġmod e
rib e
l ig
ĠS al
âĦ ¢
am m
Ġsur vey
Ġro ot
n el
ĠBu ild
Ġno vel
est ic
Ġb aby
ĠT oday
Ġf ra
ur ies
ĠAl though
Ġmed ium
ĠGovern ment
Ġbr ight
Ġpan el
un ning
ĠSec urity
Ġbrows ing
Ġintern al
j ag
ĠAc ad
Ġex cept
Ġw rote
Ġn or
Ġroom s
Ġcan cer
Ġcar s
ĠO N
C L
l ife
Ġw ife
ul ed
Ġfl u
b ase
Ġrel ig
Ġcry pt
ĠIs land
Ġpl enty
ĠD an
ĠIn vest
ĠDav id
cont ent
ĠC ode
Ġserv ing
out hern
Ġpres ence
ide o
Ġcollect ed
Ġcor porate
Ġth us
Ġsp ring
F ind
Ġd u
Ġc ities
Ġe at
ic ian
Ġpurch ased
Ġsee ing
il k
ĠCh inese
Ġlearn ed
8 6
ĠS ch
Ġbe comes
az ine
____ ____
How ever
Ġc itiz
Ġconsum er
ĠTechn ology
Ġdistribut ion
ĠPe ople
ĠSt r
Ġg arden
Ġthem e
Ġwor ry
Ġemerg ency
ob e
Ġclick ing
ĠAng el
or ation
d ata
Ġopen ed
ĠCont in
Ġinstruct ions
Ġswe et
Ġhosp ital
Ġfa ith
Ġplatform s
ĠC all
lic ation
ou nder
Ġvar i
ĠL LC
M ore
o ors
Ġmajor ity
Ġw ine
Ġwas te
Ġeffic iency
p an
ad ian
Ġ3 2
Ġinj ury
Ġb reat
ir gin
Ġch art
Ġep is
Ġvol ume
ra b
d is
let ter
ar io
Ġinterest s
i us
Ġgener ation
ic ians
ĠCent ral
Ġspend ing
ow s
ĠBl ue
ib ilities
T ra
Ġhealth care
ens ions
rep rene
Ġteac hers
ĠM ary
Ġnot es
Ġcommunic ations
Ġprep are
ĠV e
Ġw oman
all ery
ĠS am
ĠC ong
Ġregist ration
Ġdom ain
ĠA tt
ff ect
re y
ow l
ĠU nder
Ġind ex
Ġb rain
pp ing
Ġexc iting
Ġs enior
ult ure
ĠU N
ĠB ecause
Ġtas ks
ark s
ul ated
ĠEng land
Ġperform ed
Ġd ura
r s
ĠAnd roid
ĠL im
ĠTh ursday
Ġl abor
a e
Ġcol le
w est
ĠF ire
er ies
Ġhapp ens
Ġrun s
Ġpro ceed
Ġsqu are
Ġexc ited
Ġ ir
oos ing
Ġre venue
Ġmess ages
Ġs qrt
f ast
ar ian
idd en
8 4
ili ar
Ġman ner
Ġset s
mer ce
ĠC ert
ĠF und
Ġ )
B S
w in
Ġappear s
g l
ĠJes us
Ġpropos ed
Ġacc ident
Ġcomb ined
Ġb oy
ĠPa ul
p ack
ess age
ĠD uring
Ġinvest ors
ĠL ou
Ġclin ical
ĠM at
ot al
Ġdes k
ĠâĢ ¢
Ġch ain
ock et
Des cription
Ġf aster
ĠUn ion
Ġte nd
Sh are
Ġst ated
Ġmiss ing
ef ined
Ġelig ible
Ġcircum st
Ġ5 00
os en
Pro duct
Ġc art
Ġworld wide
h ab
ind er
Ġmay be
Ġra re
ĠS un
ĠMan ager
Ġany where
ĠC EO
Ġapprox imately
ĠSu pport
ific ate
Ġman aged
Ġdet ect
ĠCol or
m ary
ĠT uesday
Ġdeb t
Ġwas n
i est
Ġp oor
ri pt
Ġcommit ment
ĠM ex
Ġdepos it
ĠF ood
Ġindust rial
Ġg ather
ĠMus ic
at in
Ġre ality
ĠIt s
Cl ick
h and
Ġhundred s
Ġhe ight
Ġar gu
ĠCon st
Ġon to
ĠCommit tee
Com p
Ġal ign
ag ers
ck now
Ġm and
ĠMicro soft
Ġdef ined
Ġcompet itive
e qu
re ate
Ġleg isl
In st
Ġneg ative
om b
Ġper haps
Ġw ire
all s
ĠC ard
i i
Ġspe ct
ĠThe ir
ic ate
ĠSt ar
Ġf uel
Ġsequ ence
et te
Ġrece iving
m es
ail able
Ġlead s
Ġinf rastructure
Ġh us
av our
Ġshow ing
in n
v an
Ġsc ript
ĠSt art
ĠD iv
Ġke pt
ĠĠĠĠ ĠĠ
st ract
C A
Ġsym bol
Ã ¡
Ġpro te
ree k
Ġsupport ing
Ġcomp ens
Ġcult ural
Ġag ent
6 2
ĠV ol
i xt
Ġs pl
Ġ= >
d raw
c an
Ġtrack ing
Ġ ice
w o
Ġsol ar
od cast
8 7
Ġrestaur ant
Ġse a
ult y
Ġst one
ĠT ur
ort hern
Re g
Ġful f
ĠTw itter
Ġd ang
h ost
Ġra pid
ri an
ing er
ĠJ ames
ĠAd v
ĠW ednesday
Ġread ers
ĠW hether
c ount
Ġs port
w ell
Ġaccess ible
Ġ ?
Ġequ al
Ġm ist
ĠInd ust
Ġsupport s
cl es
Ġhigh light
Ġrese arc
Ġrep ut
Ġfix ed
ĠA ward
Ġun iversity
Ġconf idence
I A
ce an
Ġteac her
Ġex ternal
ĠR ich
Ġf em
Ġval uable
O P
Ġpract ical
ĠS en
Ġsign ed
Ġto ward
ĠOr gan
Ġes c
Ġaut o
Ġpred ict
Ġp air
pect ed
M A
Ġf an
Ġsur pr
ĠF OR
Ġconven ient
cl aim
Ġstart s
Ġjo ined
ĠP ri
R ec
ĠWe bsite
Ġm o
Ġme ant
ir ation
Ġe c
ĠCook ies
ER S
u it
Ġsustain able
w ater
Ġiss ued
Ġsp ons
ty pe
z er
Ġs now
Ġlab el
Ġb ound
Ġhim self
Ġde als
ner gy
ĠGl obal
ick s
Ġt it
Ġs essions
et ime
ĠB ack
Ġaut hent
Ġboo st
ĠO ffic
ul ate
ĊĠ ĊĠ
ĠB ig
Ġpr inc
ĠCont act
Ġhy d
S he
co in
Ġadminist r
Ġext ensive
ĠM aster
ill a
M od
wh ich
ĠT est
ĠCar ol
Ġlaun ched
Ġ %
ĠF amily
ĠM iss
Ġwa iting
Ġk new
Ġch oices
ĠP ersonal
{ "
ri p
Ġaud io
Ġre new
in st
em porary
Ġseek ing
Ġingred ients
g s
ĠEn ter
ant ic
Ġinvest ig
ĠNet work
Ġneigh bor
Ġdis p
Ġf ear
Ġrem oved
ĠHe ad
Ġtri al
Ġown ed
Ġpass word
Ġc atch
d ate
ĠV iew
Ġinnov ation
ĠM art
ĠLe ague
Ġsmall est
ore s
ĠH ol
Ġco vers
ES T
per ty
Ġhous ing
Ġw indows
Ġengine ering
Ġs outh
Ġ3 6
S A
ĠO per
Ġ icon
/ (
ĠS il
Ġr ule
Ġd iet
Ġparticip ate
Ġpl astic
f rom
Ġf at
e ch
Ġbe ach
el ess
os is
ĠGerm an
on ym
f unction
Ġinflu ence
Ġ Ã
Ġinte g
it ness
Ġannoun ce
f ig
Ġregul ations
ul ations
l ines
On line
Ġv s
i pl
Ġfl at
Ġcon cent
h ow
ra d
Ġtalk ing
N ote
Ġpub lish
Ġemploy ment
Ġsignificant ly
7 1
og rap
Ġimplement ation
Â °
Ġwr t
ura cy
ĠCon nect
Ġs izes
Ġtre es
Ġ200 6
Ġeffect ively
Ġtest s
d en
E very
is her
Ġdo ctor
ĠC D
U L
Ġmach ines
A Y
P R
Ġsh ares
est yle
al a
Ġw est
E W
or ough
Ġj oint
Ġe arth
Ġto w
ir ms
Ġfurn iture
ĠF il
Ġwrit er
ĠM er
ĠSer ies
ĠChrist ian
Ġexam ples
we ight
ĠAut hor
Ġl ose
F A
Ġne cess
ĠFr ance
b ar
Ġfor get
Ġfl ight
Ġthough ts
us ion
ĠAcc ording
v ar
Ġant i
ĠS et
Res p
Ġd iverse
Ġhus band
ĠF ort
Ġa cknow
ĠAcc ount
ĠVal ley
re c
On ce
pro duct
iven ess
Ġaccom pl
Ġwin ning
as er
Ġn orth
Ġint ellig
Ġha ven
k y
Ġsam ple
Ġan c
g reg
Ġu pload
P ress
as te
Ġinstitut ions
P ost
qu ot
} ,
Ġmot iv
ĠG rand
ic ago
ĠM ark
ĠR ob
Ġanaly tics
ist an
ĠBe ach
d y
ĠUs er
O D
Ġguid ance
Ġj ew
out s
Ġwh atever
Ġcle arly
le g
resp ond
n ight
Ġyou th
ĠGerm any
ĠP RO
Ġdes cription
b ed
ĠQ uality
ĠT or
Ġdec ades
Ġle aving
Ġr ise
Ġaccept ed
Ġc ivil
Ġch at
Ġcomm ission
Ġm ent
Ġf ish
Ġra in
Ġspec ies
ic it
ri er
l or
in ations
il ed
Ġfac ilit
ĠA ccess
lev ision
Ġeven ing
ĠL ight
Ġdist rict
ĠE qu
ĠM useum
Ġsp aces
Ġcandid ates
on om
Ġris ks
Ġcre ation
== ==
ĠSoc iety
F T
Ġad ults
Ġh ab
Ġtas te
Ġcircumst ances
S ince
in os
Ġbuild ings
AT E
ĠQ ue
Ġt ab
ol ic
A m
Ġrec overy
h ors
Ġd ial
Ġfil ter
Ġexclus ive
fol io
Ġed ge
f ile
RE E
Ġanim als
ĠD ef
C ustom
Ġcare fully
Ġcompl iance
Ġob vious
Ġobject s
Ġpick ing
Ġw el
Ġchem ical
6 1
P er
ĠE U
Ġtax es
ĠFor m
Ġcor ner
Ġsuccess fully
8 9
Ġvisit ing
Ġintrodu ced
** (
S ee
Ġident ified
Ġh ar
ĠS ign
Ġlook ed
Ġadminist ration
" ]
c ustom
Ġcollabor ation
ĠM ot
le vel
Ġmin or
Ġens ures
Ġb rief
Ġpo ly
por ation
Ġra ised
ik i
ang ed
Ġre ached
S C
ã Ģ
Ġimpro ved
Ġshow ed
Ġsh ot
Ġg one
Ġatt orney
Ġtre nds
ĠC ond
Ġproced ures
ĠV irgin
Ð° Ð
Ġopin ion
Ġpartners hip
ĠL ord
Ġp al
so le
a it
ĠMed ical
ĠThere fore
ĠA T
uck y
Ġd ram
Ġansw ers
R el
Ġst reet
ĠAd minist
Ġwill ing
ĠCan adian
Ġl iqu
I I
s m
F ree
pl ug
Ġag encies
Ġexp enses
Ġf illed
A ut
al og
Ġtrans ition
O ther
ĠTh om
Ġle aves
semb ly
Ġassess ment
o in
Ġf ol
ĠSc ot
ĠL og
Ex p
Ġdri vers
Ġd im
opt ion
Ġdis app
pro fit
Ġc op
y ou
C D
ĠT om
c her
Ġsc r
Ġmost ly
Ġro t
r ition
Ġguid elines
ĠR ock
Ġsl ot
L ast
Ġdeterm ined
Ġthe rapy
ph as
c ious
ĠC as
Ġbel ong
Ġt ail
ĠK ore
Ġse cret
ĠP ress
l ink
Ġslight ly
Ġbring ing
Ġfollow s
Ġqu ot
us er
Ġfam iliar
Ġconf lic
Ġt ut
ĠL ong
Ġgener ate
fort unately
Ġinsp ired
or ter
Ġocc up
Ġeng age
Ġa id
rom e
Ġchann el
Ġreason able
end ar
ĠD igital
ĠT ake
ĠO h
ĠL and
Ġra nd
Ġun ivers
sc ribe
Ġflow ers
Ġco ast
Ġreport ing
Ġident ity
Ġregular ly
Ġcont ents
Ġrad io
al ian
Ġinv ent
i ate
Ġlist en
Ġth ick
ĠA D
ĠM ont
Th ank
Ġwarrant y
Ġpay ing
P L
Ġch osen
Ġshe l
Ġrequest s
ĠS om
Ġprom pt
ĠC A
ĠAr ts
an ish
Ġd iam
r ite
Ġd ied
Ġdele te
in ci
Ġhistor ical
Acc ording
Ġcamp us
ri age
ĠPr ice
B ook
ĠL ove
ĠR ober
ĠAs ia
um s
Ġacc uracy
urb an
ploy ment
ĠPart y
ĠT em
Ġhouse hold
Ġsign s
b urg
ĠN or
ĠM ill
in i
Ġdisplay ed
ĠL ike
ĠInt e
Ġoper ate
Ġmin ute
ĠIns urance
en a
ã Ĥ
Ġt ag
ĠP ack
Ġpurch asing
ĠC y
ĠN ov
p arent
8 3
Ġassum ing
Ġtr uth
ĠOver view
Ġkind s
Ġn urs
ig r
Ġb ird
ĠM ass
Ġper man
Ġrec ipe
Ġinter pre
at uring
âĢ ĺ
Ġdest ination
Ġpark ing
Ġve get
F L
ot hes
u a
Che ck
Th anks
ĠW ood
Ġfant astic
h all
Ġj oy
hold ers
E mail
Ġconduct ed
W ork
le ts
ĠMich ael
Ġphot ograph
Ġcateg or
ĠTr ump
Ġcris is
g n
Ġr ide
Ġacc ord
id ers
Ġte ch
y e
Ġd aughter
ĠR ad
ĠU k
ĊĠĠĠĠĠĠĠĠĠĠĠĠĠĠĠĠ ĠĠĠ
ab el
Ġsug ar
ad s
ĠFran c
Ġmort gage
og a
ire ment
Ġinter face
Ġredu ced
ĠC up
Ġrecogn ized
ĠB er
ap es
Ġ ur
T ype
ĠRe port
ĠÂ ·
Ġgu est
RE CT
ĠW omen
ow nt
> >
Ġaffect ed
ĠF ederal
Q L
Ġte ach
ĠH am
ber t
Ġent reprene
ik ip
ĠP an
ig an
ĠL o
os h
i at
ĠS ol
Ġappreci ate
ĠSh ow
Ġl it
Ġt on
ber g
ĠOn ly
h us
l ock
Ġchalleng ing
ĠWh y
Ġinter ior
Ġsubs crib
c a
Ġbro ther
Ġobtain ed
Ġreg ional
Ġrand om
T C
ĠAt l
ĠL ook
Ġche ap
Ġbig ger
ce ler
ĠM ad
Ġask ing
Ġscient ific
ĠA lex
Ġsecond s
Ġcert ified
Ġfour th
ĠT re
Ġnet works
Ġcar bon
Ġpack aging
er ation
b our
Ġcopy right
K e
Ġcall ing
Ġst rict
Ġand roid
ĠFin ancial
Ġlog o
St ring
Ġend ed
p age
om et
Ġhon est
ric s
Ġ3 3
Ġcompon ent
ĠRuss ian
ĠC ON
Ġcould n
ĠN on
g or
Ġnot ed
)* (-
ĠC am
Cont act
Ġon going
ĠInst agram
Ġis land
Ġcru cial
Ġsym pt
Ġco ordin
ir med
Ġlay er
Ġrequest ed
Ġem ails
Ġhappen ed
Ġclos est
Ġqual ified
Ġextend ed
ĠR est
Ġrestaur ants
Ġappoint ment
form ance
Ġpattern s
A c
Ġdoll ars
Ġput ting
ĠAfric an
d o
Ġf if
Ġc up
Ġsh ipped
Ġch air
Ġhost ing
y ers
ĠPl us
Ġrecord ed
Ġmat ters
Ġpos itions
m issions
U se
Ġoccas ion
P art
Ġsc ene
Ġhe aring
Ġp m
ĠC H
amb ling
Ġe lection
Ġstate ments
Ġappear ance
E d
riv ate
ic ial
20 21
ĠLear n
ĠE conom
Ġdes ire
ĠE arth
ple te
Ġch oosing
T A
Ġf ailed
Ġpol l
T ube
ĠN av
Ġconsider ing
P C
Ġd ates
Ġra ise
Ġeng agement
ĠCh icago
ĠTh rough
ĠS af
ord s
wh ile
M ost
Ġco ach
p o
Ġcateg ories
and er
t ion
Ġ2 000
Ġrout e
Ġus age
Ġindust ries
Ġmonitor ing
Ċ ĠĠ
} }
Ġcor respond
k ing
Ġdes pite
Ġfore st
Ġse at
Ġrent al
Ġcre am
ult ural
erv es
Ġtre nd
Ġc ooper
Ġsh ut
ĠLou is
Ġdiv ide
ĠTw o
Ġbus y
Ġintegr ated
ĠP et
ĠT own
Ġr ating
Ste p
Ġel imin
ĠN Y
ĠO pt
ĠMin ister
Ġc row
u nder
ĠKe ep
Ġth r
Ġ20 23
ĠAb out
Ġofficial s
T ime
Ġcitiz ens
ĠSo ft
Ġneighbor hood
Ġcol our
G B
bu ild
olut ions
M any
Ġs olve
ĠM ach
ĊĠĠĠĠĠĠĠĠ ĠĠĠĠĠĠĠĠĠĠĠĠĠĠĠĠ
Ġfrequ ently
ĠA ud
it a
R I
Ġour selves
Ġhold s
ert s
Ġcut ting
i ors
es ome
ĠCont rol
ac hel
Ġcon ver
ĠJapan ese
Ġaffili ate
8 1
ĠCent re
Ġam b
Ġph il
ikip edia
Ġsub mitted
de red
cre en
ecut ive
ĠRuss ia
Ġserv es
ĠE r
Ġret ain
Ġtransport ation
Ġm ut
ĠH osp
i as
Ġwalk ing
Ġpers pective
Ġdel ay
ĠHist ory
Ġb ought
Ġknow s
ĠP ass
Ġfre ed
Ġgra de
Ġexpect ations
ĠCong ress
Ġincred ible
ig ration
Ġpain ting
p erson
fact ion
Ġcook ing
ĠUS D
Ġcontinu ing
J ust
Ġentertain ment
Ġflex ible
Ġve ter
L S
Ġ3 00
friend ly
is co
Ġsong s
Ġfound ed
im inal
Ġenjoy ed
Ġadv oc
Ġstrateg ic
erm ine
ĠL os
3 00
w hat
Ġve nd
inci ples
Ġfunction ality
Ġchar ged
Ġv en
ĠWest ern
Ġp ush
ĠE nergy
ĠSe cret
Ġcab in
at ible
Ġ row
Ġfound ation
ĠB as
Ġat h
Ġperfect ly
ĠI ll
ĠH ill
Ġcar ried
m osp
Ġsu it
ĠH ave
act ive
Ġsw im
l ights
V E
ers ey
ã ĥ
Te xt
Ġres idential
Ġfeature d
Ġem phas
ĠI d
ĠT imes
in er
ĠAcad emy
p ost
Ġdo ors
[ "
te red
Ġsound s
u ction
ĠJ ava
ĠN ote
Ġlink ed
Ġprof it
sp an
ĠF urther
ĠAss ist
Ġimprove ment
Ġsim pl
ĠDo es
m ade
Ġimpro ving
yth on
Ġ200 5
d f
Ġinform ed
Ġun able
i pt
ĠMarket ing
Ġpro of
Ġtest ed
Ġsitu ations
Ġ3 4
Ġaware ness
Ġexpress ion
ac c
Ġpresent ation
Ġlight s
Ġcon sequ
E E
od ies
Ġan g
Ġv ote
Ġman ual
Ġproced ure
ĠUs ing
Ġinv olve
P e
im ize
r c
d ef
Ġmer ch
Ġs an
Ġg aming
-------- --------
Ġed it
Ġsur g
Ġknow ing
Ġresearc hers
x y
ĠHot el
z en
8 2
Ġtick ets
ial ly
res ents
Ġh ire
Ġag ents
Ġfin ance
Ġconvers ation
re ens
Ġdist inct
ra el
rit ing
st ar
ĠG ame
ĠS y
ĠTr ust
Ġw al
at us
ĠJ ew
Ġth read
Ġstrug g
opp ed
Ġcon crete
Ġremain ing
U M
Ġwith draw
Ġexecut ive
p et
Ġill ustr
ĠC ost
het ic
ĠB oth
Ġtrans action
Ġb ike
D r
p g
co hol
Ġdel icious
ram e
Ġv ital
uc le
ĠH uman
Ġmeet ings
Ġst ars
Ġph ase
Ġtem plate
j ava
Ġhard ware
g ers
ell o
Ġposs ibly
ĠF act
Ġsty les
Ġn ative
f ront
Ġout standing
Ġi Phone
et her
ol ved
Ġerr ors
Ġs cholars
Ġwh om
Ġe ase
Ġappro val
U P
ĠF ull
ans ion
e en
W elcome
Ġwatch ing
Ġtra dem
e al
Ġport folio
includ ing
u ce
ick en
Ġper mission
Ġlist ing
Ġcandid ate
Ġcy cle
Ġpr icing
Ġth orough
Ġcontain ed
Ġrecommend ations
ĠA R
Ġf r
Ġlux ury
Ġaut hors
Ġb an
Ġl iability
Ġj ump
ing u
Ġlandsc ape
qu ir
ĠM ult
Ġc odes
A meric
Ġgener ated
F in
Ġconsist ent
Ġdepend s
c ode
Ġinte ger
Ġ ign
Ġcent re
Ġf alse
O ut
Ġd inner
Ġlight ing
c hest
Ġround ed
ĠB ill
Ġ er
Ġcreat es
Ġess ay
' )
val ue
ĠCarol ina
ĠT our
Ġvers ions
Ġbas k
os ition
ĠDe v
Ġres olution
Ġlicens ed
Ġlif estyle
Ġcont ribute
% .
Ġestim ated
ĠOr der
ĠCh ief
Ġconst antly
ocol ate
ĠGe orge
ri a
j s
ĠL ibrary
clud ed
Ġhold ing
Ġt ables
P E
Ġp ump
c ific
Ġv irus
f in
w idth
Ġaccord ance
Ġgirl s
re land
Ġup coming
Ġun s
Ġth row
ed y
er ry
if ies
Ġcaus es
ro y
Ġr ing
Ġman aging
ĠC at
Tr ans
Ġst ake
ĠT ax
it age
du ate
ĠBe fore
Ġcompos ite
Ġfor ces
Ġf irms
ĠS H
Ġsur f
Ġrep resents
Ġevent ually
are n
ĠGu ide
e per
Ġte eth
ĠD ownload
Ġan imal
Ġdyn amic
ĠWe ek
Ġsy nt
S earch
Ġfail ure
Ġpl ays
Ġsubst ant
im age
s ite
Ġfram ework
Ġneg ot
Ġsurround ing
Ġs ides
ign ed
AR T
ĠQu est
ĠP DF
Ġf ellow
Ġdisc overed
ens ity
Â ·
Ġexpress ed
20 20
b an
Ġed ition
ĠI r
Ġsuppl ies
Ġopt ing
or a
ĠH and
Ġgu ess
Ġhous es
Ġd ining
ĠAngel es
Ġst ret
Ġcrit eria
ĠL ive
O b
Ġstud io
ograph ic
ĠE nd
E X
am ple
Ġg ear
ĠSm ith
ĠB it
ac ific
us ing
iz er
ĠPre m
h an
Ġevery day
ve ll
A ct
Ġe gg
Ġprint ed
Ġen ables
gor ith
Ġens uring
Ġtrans actions
ĠStud ents
Ġkeep s
et ary
ĠYou Tube
ĠJ ournal
Ġemb ed
and a
+ +
ĠO ld
d a
D ate
al le
Ġauthor ity
Ã Ń
app ing
Ġd ental
ast ing
DI RECT
Ġp u
ĠPh ot
Ġtick et
Ġ ;
ĠD en
Ġ7 5
W here
Ġvis its
Ġf ruit
Ġass ume
Ġthe ory
Ġweek ly
Ġ3 7
Ġ3 8
el ry
ak s
Ġtr ig
ĠM a
v a
Ġan x
Ġdevelop ers
Ġepis ode
ĠA C
ĠMex ico
Ġcompens ation
S ec
à ¸
Ð »
Ġele g
ĠVirgin ia
c ase
ES S
Ġmanufacturer s
t est
r um
Ġperson ally
ĠT ype
Ġdeg rees
ĠH y
Ġmembers hip
Ġdifferen ces
ot ton
Cl ass
V ER
an o
ad y
t hen
Ġclose ly
az z
clus ive
Resp onse
Ġat mosp
Ġsympt oms
Ġt un
Ġsav ings
S m
p at
H T
ĠCustom er
ĠIt alian
Ġsk ill
s l
pa per
ĠA I
Ġbeg ins
Ġmod ify
Ġre b
Ġdam aged
Ġent ered
ov al
S pe
Ñ ĥ
ar p
ur ities
Ġs yn
b i
ĠK ey
Ġwhe el
Ġpurch ases
Ġte levision
ĠS and
ry pt
Ġmill ions
Ġresult ing
ĠR oyal
ip al
ĠP enn
An other
cl ing
Ġst ain
ĠCh ampions
err or
ree ment
Col lect
ĠSu pp
as p
G u
Ġcategor ized
C ons
Ġar m
ĠS ales
C ook
a fe
M ake
Ġincre ases
ĠP oint
" );
Ġf avour
Ġport ion
ot ic
Ġb order
ĠB i
ok er
ĠV er
Ġgradu ate
Ġorgan ic
Se lect
ĠSt ore
Ġp ed
Ġrel atively
ĠE xt
Ġ !
T op
Ġsearch ing
Ġtyp ical
re al
Ġp ure
ĠK now
ord ers
ĠW H
Ġplan ned
Ġcap abilities
Ġcr usher
ĠS EO
Ġcomp are
Ġdom estic
Ġfil ms
F i
ĠH T
ĠM ax
ĠGe org
ĠN umber
Ġsched uled
Ġprogram ming
ru ck
th at
M on
Ġdra ft
Ġhand ling
Ġt ight
ĠContin ue
all ed
p ass
Ġmain ly
ĠT im
ur se
Ġtal ent
) )/(
ĠA ff
Ġen roll
Ġad op
ĠSc ott
ĠM o
Ġfe els
Ġen force
li ers
Ġins ights
Ġorgan ized
le te
Ġmod ule
r ate
Ġp apers
Ġlow est
Ġent hus
Ġcommunic ate
Ġar ts
os es
Ġprior ity
O f
Ġdes ired
igh ter
Ġwide ly
Ġw idth
Ġse vere
Ġappe ared
ĠC reat
Ġte a
K ey
Ġme al
or se
l ay
ĠAd ditionally
im s
Ġconf irmed
Ġfac ulty
Ġrec y
Ġwall s
ĠF ollow
pt y
Ġvill age
Ġcontroll ed
Ġmov ies
ra ce
Ġf le
Ġfac ing
Ġpublic ation
ĠU l
Ġr ub
ĠSp ring
Ġbo at
Ġ ðŁ
T wo
Ġtra ined
8 00
Ġprocess ed
ab et
à ¤
ol a
mer cial
ĠM el
Ġar rive
Ġd ating
ocu ment
ĠC redit
ĠEx ecutive
Ġout comes
R S
Ġrestrict ions
at re
Ġdep th
ĠG al
F F
b b
ĠD ub
Ġcont emporary
G ener
k en
Ġv an
Ġwould n
D S
Ġpro p
im port
ers hip
e v
Ġra il
Ġcl ar
Ġne ck
ĠE nt
Ġinc hes
E ng
ĠU nd
Ġd ance
Ċ ĊĠĠĠĠĠĠĠ
Ġconst ant
t es
u ct
ĠCl oud
ind s
P T
Ġlangu ages
col or
Ġqu iet
Ġcelebr ate
Ġmar ried
ĠI reland
ĠPar is
Ġdiscuss ed
ge nd
a per
Ġj ack
# #
Ġarchitect ure
Ġearn ed
r im
Ġqu ote
Ġb urn
ĠS ports
Ġreg ions
ĠSec ond
m itting
F ollow
Ġgrow n
Ġsend ing
ell er
ĠB rand
Ġdoub t
as tern
Ġad ult
Ġequ ipped
os oph
Ġg un
Ġentire ly
ĠSp anish
R em
k in
oc ated
ĠL ab
l ong
ĠScot land
ĠY es
St ud
ĠL td
Ġwe alth
Ġ urban
Ġdef ense
ĠH aw
Ġchann els
ap ed
Ġa p
Ġguarant eed
ĠDem ocr
um er
us hed
ĠB rown
ĠAP I
ĠW all
Ġh ref
ĠHel p
Ġtot ally
Ġp ip
ĠS E
Ġopin ions
ĠIt aly
Ġ1 50
ĠM en
Ġg ambling
A rt
ĠEx pl
ic ity
che ck
ĠW ay
angu age
n am
st one
Ġdis h
Ġrecogn ize
ĠL ast
Ġrequire ment
Ġfreed om
Ġliqu id
sequ ent
ĠV ict
ĠIs rael
Ġbe at
Ġex cess
ĠD ou
ĠG en
IT Y
Ġaccess ories
Ġre ward
Ġso il
Ġph arm
aly tics
Ġe lev
Ġvac ation
Ġauthor ities
Ġfor t
Ġcont rast
Ġmark ed
ra ine
Ġb anks
Ġpack ages
Ġsil ver
b rid
od ing
Ġpers ons
ĠTra vel
F C
Ġcons ists
Ġb attle
Ã ³
B est
Ġbuy ers
ĠCont ent
if fe
Ġbrok en
Ġbeh alf
Ġg ifts
Ġro les
St ate
c ure
ĠB ur
ĠAre a
un ting
ĠD ate
Ġl ived
Ġex port
Ġinvest ments
ov id
s uch
Ġprote in
Ġdura ble
R et
v as
in ated
ĠBl og
Ġbook ing
c ons
Ġreal ize
ER E
Ġbath room
Ġz ero
Ġcapt ure
RE DIRECT
if ier
Ġf ly
ĠPro cess
be ing
â Ĥ¬
M ay
Ġpercent age
Ġoff ices
D oes
Ġv ul
ĠW al
st ream
L ook
Ġprint ing
Ġden omin
ial s
Ġrefer red
Ġm useum
Ġemot ional
Ġh idden
Ġn ine
Ġext ension
Ġconcern ed
Ġag es
Ġcre w
Ġmin ing
it ar
is k
ul um
ĠF ed
N S
Ġe ating
Ġless ons
ĠP ut
Ġpr inciples
ĠH D
ĠPl ace
Ġaddress es
Ġ iron
Ġcan cell
Ġprogram me
Ġshe et
Ġleg it
Ġl apt
Ġpur su
Ġexce ed
Ġrout ine
ĠE state
g ar
c ers
Ġequ ival
Ġspe aking
mon th
Ġexp osure
Ġag reed
Ġdeb ate
ĠS qu
Ġac celer
ĠYO U
Ġtre ated
ĠL ED
ĠD i
ne ys
Ġinvest igation
Ġt ough
Ġconf ident
Ġ200 4
st e
Ġb orrow
ĠDet ermine
ĠG ames
Ġc ro
Ġdel ight
Ġprim arily
an ing
M E
Ġspec ified
Ġenter prise
Ġal gorith
Ġconnect ions
r as
app y
at i
Ġcount y
Ġfit ness
Ġtra il
ĠCon ference
Ġdirect ory
y an
ag ues
Ġp odcast
Ġsatis faction
L ear
b al
Ġag ric
Ġmass ive
Ġexplain ed
ĠL u
Ġprec ise
ĠP H
Ġfore cast
Ġcert ificate
' '
Ġpass eng
E ach
ak ed
ĠTra ining
Ġass et
P M
D uring
Ġfe aturing
ĠChild ren
Ġtechn ique
or al
ĠNe xt
ar row
ĠEngine ering
sec ut
Ġbet ting
Ġbed room
T oday
ĠB al
Ġend s
Ġsubs cription
Ġtrust ed
Ġbut ter
Ġdocument ation
Ġaim s
( $
M ar
â ĺ
s ize
Ġposs ibility
Ġp il
Ġdesign er
âĢĶ âĢĶ
Ġmount ain
Ġri ver
r ance
Ġt aught
Ġins ight
C R
Ġacqu is
in ar
Ġstand s
Ġinstru ment
og ether
ud d
ĠAustral ian
Ġ _
Ġconsider ation
Ġreput ation
Ġaw esome
Ġn one
Ġelect rical
we et
Ġu pper
en ced
Ġam end
Ġs oul
Ġdiv is
AN T
Ġimmedi ate
s he
S et
tern oon
Ġaward ed
un icip
ĠFr ank
Ġarriv ed
a id
ad ing
Ġcon vert
ĠF estival
Ġatt ribut
ĠU pd
ast s
Ġ5 5
Ġhosp it
ĠS earch
H igh
Ġcoun sel
Ġoffic er
Ġdis s
Ġv ast
Ġtw ice
c m
Ġmed icine
Ġexception al
ly mp
Ġadd s
ĠA LL
ĠRober t
b ur
p ons
Ġnews letter
L Y
Ġstruct ures
Ġsh ift
Ġhon or
ĠAmeric ans
ĠM S
Ġext ent
ĠRe v
Ġqu ery
Ġbask et
ch ar
n s
Ġorgan is
t able
Ġv oid
ĠW orks
m aking
ast ers
ĠProt ection
l o
ĠP ract
Ġair port
Exp and
Ġdec ade
Ġclos er
Ġresist ance
Ġprepar ation
j pg
ĠM A
Ġeval uation
Ġl unch
Ġch ief
Ġfem ale
Ġcap able
Ġk id
? âĢĿ
Ġmot ion
ĠDes cription
ap ore
n ab
ĠW ild
Ġst unning
Ġmo ist
Ġpl ate
A ss
Ġinj uries
st yle
Ġorigin ally
r m
ĠF air
oss ible
ist ical
ĠE X
ost on
at o
ĠProfess ional
ĠC ath
Ġret irement
ĠDis c
ĠB E
] ;
vis or
b iz
Ġse ctions
Ġgu ys
Ġperform ing
Ġstand ing
Ġk m
Ġexclus ively
Ġsu fficient
Ġext ract
St art
Ġinteg ration
Ġr ough
Ġincor por
ĠWord Press
Ġtrans mission
S ign
Ġbel ief
Ġcorrect ly
ĠInst ead
Ġc able
Ġsign al
um es
Ġatt ached
Ġor dered
in ch
S H
u ine
Ġm al
ĠCh air
p ath
ĠM id
Ġmat ches
Ġadvant ages
r un
Ċ ĊĠ
Ġbrok er
ĠSh ipping
Ġant icip
ĠDet ails
Ġachie ved
Ġcert ification
Ġ= =
I ST
ĠJ ose
ĠMich igan
ab ling
Val ue
Ġbreak fast
cript ions
h ire
Ġan onym
ĠF arm
ĠProduct s
du ction
1 50
Ġform ed
ĠSm art
R L
ĠKing dom
Ġj u
t itle
Ġn ull
pe ction
Ġsal t
Al so
Ġr an
Ġ4 2
Ġob lig
ĠL ine
Ġ6 5
S ource
Ġdog s
nov ation
Ġv it
Ġ( (
Ġsu c
Ġinvol ves
L ike
D et
w ing
Ġhistor ic
Ġwrit ers
ĠS P
Ġadv enture
ĠAg reement
Ġw itness
ch ain
Ġregard less
ur is
ĠP rom
Ġrecord ing
ĠThom as
Ġlove ly
ĠDis ney
Ġ rom
itut ion
C o
c ar
press ion
Ġsatisf ied
Ġnear by
1 20
Ġman agers
Ġprefer red
Ġequ ity
Ġg olf
Ġo k
lim ited
Ġembed ded
Ġanc ient
I B
b orn
Ġ3 9
ĠC ur
Ġmaintain ing
C S
Ġb owl
Ġd ent
Ġo dd
ownt own
Ġprot ocol
r ich
4 00
Ġde ck
ĠC B
ok en
ĠW here
es ides
Ġconcept s
Ġreve aled
el lect
Ġde let
Ġinsp iration
Ġfood s
ĠS ett
int s
x x
Ġpub l
ĠM iddle
Ġapply ing
> </
H i
Ġfocus es
ack s
ĠV ideo
Ġrespect ive
Ġprov en
Ġre ly
Ġge nder
um ps
Ġsc ope
an i
ĠA rab
aw ay
roll er
ĠEn vironment
Ġp leased
Ġm el
Ġfl ood
Ġpersonal ized
g as
Ġoffic ers
Ġdisc ipl
we b
ĠO l
ĠL ic
ĠL in
Ġcharacter istics
Ġmom ents
AN D
ĠSte p
Ġar r
ĠCol umb
Ġform al
ĠM il
Ġath let
Ġset up
Al though
ri z
L A
urrent ly
ĊĠĠĠĠĠĠĠĠ Ġ
Ġdenomin ator
Ġredu cing
Ġperman ent
Ġf o
Ġhappen ing
Ġeng aged
Ġlist s
Ġadvert ise
ans as
ob by
ĠJ ersey
Ġvis ible
ĠOh io
Ã ¢
Ġnorm ally
Ġlim its
Ġ( (-
Ġmar riage
ĠP eter
Ġsuc ceed
ĠHosp ital
os it
Ġvul ner
em ail
tr ans
Ġappro aches
Ġdescrib e
ool s
ĠR oman
Ġmus ical
ul ing
ĠC e
ĠC ross
on av
Ġa st
Ġar rest
ĠW atch
() :
Ġrepl aced
Ġrel ief
ĠEm ail
w orth
Ġres ort
c ut
Ġcheck ing
Ġle ather
ren ce
ik ing
int age
Ġsl ots
Ġcommit tee
ĠJ ul
is er
Ġnav igation
Ġimpress ive
Ġcr iminal
ce nding
Ġb ond
Ġrecogn ition
Ġmand atory
H S
iffe rent
Ġwin ner
Ġar g
Ġfor g
Ġbirth day
Ã ¼
ĠC ir
Ġa wards
Ġg ro
l aw
t a
ĠCo ast
L ink
Ġc rack
ĠG ram
Ġindic ate
ĠN ig
Ġintellig ence
ĠB re
Ġmin i
ï ¼
" ;
Ġst able
Ġclos ing
ian a
includ es
Ġinvent ory
Ġfor th
ĠW orth
Wh o
i ary
Ġpass ing
ĠSp ace
ĠJ un
Ġrece ipt
ĠRe f
Ġinvest ing
ĠR ound
ĠSh op
Ġfin ancing
at he
ric ulum
Ġcommon ly
Ġk ick
ne cessary
Ġmix ed
Ġlaw yer
Ġpros pect
Ġvis ited
ĠUnd efined
ot he
Ġt ourn
20 19
Ġredu ction
Ġflex ibility
Ġwhen ever
Ġaf ternoon
Be fore
Ġ} ,
custom ers
r at
Ġupgra de
ut ch
ik es
Ġs itting
ol it
ter ior
row se
H ave
ĠP R
Ġrepresent ative
Ġ4 4
Ġbox es
Ġtrou ble
Ġmat t
Ġs aving
Ġm ilk
Ġsam ples
Ġphot ograp
Ġatmosp here
cer ning
u ate
ĠF REE
Ġnut rition
Ġun like
Ġra w
Ġy ield
Ġemploy er
Ġappe al
Ġy ellow
Ġsp r
Ġf ishing
ĠBo x
D ef
al ysis
ĠF A
E m
Ġal cohol
c d
Ġrat io
Ġamount s
Ġind icated
Ġbroad cast
\\ \\
Im age
Ġc ra
Ġre le
Ġter rit
Ĩ Ĵ
ĠAir port
in ent
ĠK en
ĠAn other
Ġm ine
ust er
oc s
Ġl oop
urn s
y ard
le ments
Ġparticip ation
he m
Ġcontrol s
ri ers
ig en
Ġcal endar
Ġest imate
T ER
ĠGeorg ia
st ring
htt pd
Ġread er
ĠD u
Ġsuggest ions
Ġdeal ing
Ġphot ography
ĠM obile
Ġrelig ious
Ġor d
oun ter
ĠSystem s
ĠR oom
q l
ĠAdminist ration
Ġpr ay
Ġdis ability
Ġcent ers
Ġcomp r
onav irus
Ġwe ak
d s
Ġalong side
ĠDiv ision
ĠWh o
ĠLear ning
Ġb read
Ġde ploy
F act
Ġd iversity
ir ty
Ġconsum ption
Ġen abled
Ġ ~
ĠS outhern
Ġfig ures
% )
p y
ĠO lymp
Ġevalu ate
Ġconflic t
Ġdivis or
ĠF ile
Ġcover ing
Ġcompl ain
Ġ4 00
b les
Ġsh oes
Ġconven ience
Ġinf ect
ĠW il
j a
ear s
IT H
Ġgl ad
f s
Ġus ual
Ġover w
k es
claim er
Ġwas h
ot ive
ĠT able
Ġcl othing
ic he
Ġl oves
Ġpen al
ĠL ocal
Ġobject ive
Ġd ie
Ġ( $
Ġcur rency
b a
Ġappl ies
Ġbl ess
Ġmag azine
Ġsuggest ed
Ġnecess arily
ĠColor ado
Ġcon v
ĠPol ice
Ġb rown
Ġdeliver ing
T ag
Ġapart ment
Ġcontribut ions
Ġv ibr
ĠD O
ĠCons ult
Ġem pty
Ġequival ent
Ġs ac
D ep
Ġg rew
Ġins ert
B O
Ġz one
ĠV ill
ĠSe lect
ress ion
F O
ie ce
Ġdirect ed
B I
ens us
Ġsc an
Ġh iring
ĠP acific
G o
Ġimplement ed
m arket
ann el
Ġgar age
Ġf its
Ġexp ansion
ic an
) **
Ġassign ed
ĠSoft ware
RO M
Ġholid ays
ĠR ight
ĠW in
Ġinstitut ion
Ġ1 20
Ġbl ank
Ġk it
Ġjo ining
Ġfact s
[ '
Ġcas inos
pl ates
pen se
Ġun f
Ġdelet ion
ĠC R
rodu ction
Ġgu ard
ĠJ ud
ĠM ember
Ġill ness
pro of
l ib
Ġfil ed
in te
er ver
Ġp un
Ġme at
Ġdefin ition
Ġspe ech
z il
Ġt ack
Ġwork shop
Ġcompar ison
Ġn ucle
ĠSaf ety
og ue
Ġno ise
ig inal
Ġsav ed
Ġelectric ity
ĠLim ited
ĠM O
Ġk ing
Ġrecip es
Ġf ont
Ġjust ice
co pe
Ġparam eters
Ġdef ect
Ġunder t
Ġjew elry
Ġexper im
av en
ĠS ar
Ġincreasing ly
Ġrel ating
ĠM att
Ġbelie ved
Ġpres ents
G l
se m
ĠW i
Ġfind ings
Ġwe ap
oc ur
ĠAr my
Ġturn s
ester day
P U
âĢĻ .
1 10
Ġassoci ation
ĠStr ateg
ĠO k
or ia
m ond
ri x
Ġpotential ly
Ġmatt ress
ian o
Ġf ro
Ġeng aging
Ġdef ine
Ġviol ence
S cript
Ġhost ed
atur ally
U ST
Ġsens itive
Ġwe aring
Ġ3 98
Ġaccount ing
ĠAg ency
Ġinteract ion
Ċ ĠĠĠĠ
S L
Ġ6 4
Ġinteract ive
M M
ĠH en
C ar
Ġ vert
g ener
P O
art ers
Ġoper ated
am ental
Ġy es
Ġb id
Ġsupp liers
Ġair craft
ell a
nab is
Ġlay out
Ġm ac
ĠTh ose
o ch
ro ph
Ġconsult ation
U nder
Ġdevelop er
ixt ure
Ġdeb ut
ep ing
m un
Us er
ĠReg ist
ĠB oston
Ġmark s
Ġcomple tion
book s
re ets
IC E
Ġlist ening
Ġst im
Ġle ts
ĠF ac
It em
Ġhy p
ang er
st ep
Ġconfig uration
Ġfact ory
E r
ĠD C
Ġspirit ual
Ġpro hib
Ġre ject
ĠCook ie
ĠSm all
Ġfor ced
Ġsubject s
Ġme als
ak istan
ific ial
u ing
l s
Ġbe ar
Ġtravel ing
Ġinst ruction
Ġdraw ing
ĠSing apore
Ġc os
k ins
Ġmin imal
ĠH om
v ision
Ġcontain er
Ġbuy er
ol ving
Bu ild
M ed
Ġhe ating
in em
less ly
G A
Ġr ig
Ġcarry ing
! )
Ġlegisl ation
Ġiniti ative
ĠAut o
Ġch ocolate
ĠSt ring
Ġ `
ĠB ang
ĠC ast
ĠA wards
ont o
ĠP ub
Ġk illed
Q U
z ing
F ile
ĠW alk
Ð º
yl van
ĠMin istry
at ile
P ay
Ġ4 3
Ġdut y
Ġauthor ized
Ġre in
Ġnew ly
ĠP age
uris d
Ġutil ize
k i
Ġprodu cing
se ar
Ġthous and
Ġ- >
Ġgen uine
Ġexper iment
Ġsurg ery
oc ial
ĠOffic er
Ġabs or
et ch
Ġaccompl ish
Ġver ify
% ,
Ġclass room
Ġobject ives
ivers ary
t ical
viron ments
ĠS ection
Ġr id
F l
ĠStud ies
ĠL ib
B ack
Ġm outh
ĠLe vel
ok es
ĠE p
Ġ200 3
ph ones
Ġsign ature
ĠSecret ary
ĠMem bers
Ġrepe at
M arket
Ġult imately
Ġl osing
Ġl ib
Ġinst ant
O K
ĠCh arl
Ġfra ud
Ġint ent
Ġattract ive
Ġregul atory
Ġcon cerning
ĠSe a
ĠSh ould
ellect ual
Ġfl avor
Ġent ering
Ġw et
Ġpur s
Ġc ake
Ġme ets
pos ition
product s
Ġattend ed
ĠCap ital
it led
Ġult imate
ĠF ar
Ġcontain ing
nd ers
it i
Ġplan et
Ġis ol
clud e
Ġc m
ul f
Ġtell s
Ġex ch
ĠPart ners
es h
el ing
Ġd ust
irt ual
Ġtrans formation
k er
ĠMe et
T P
os ystem
um a
Ġret urning
ĠTe xt
O pen
Ġt urning
Ġw ra
ĠProfess or
âĺ ħ
Ġ4 9
Ġhor se
Ġobs erved
Ġintrodu ction
Ġanx iety
ian ces
Rel ated
Ġspecial ist
vent ional
M C
Re view
ĠS enior
Ġimprove ments
d ep
ĠRe qu
ĠS ale
Ġpassion ate
ĠPr ime
ĠBuild ing
ĠE st
Ġgraph ics
Ġspl it
Ġunc ertain
T E
ĠTh us
er ate
ch o
V is
ĠFranc isco
Ġprov ision
Ġout come
ĠS olutions
Ġrel ative
m ap
achel or
he mat
Ġprom ise
Ġor g
Ġparticip ating
Ġstat istics
ap ing
ffect ive
iam ent
Ġimag ine
Ġm ob
ĠH on
Ġt ank
The n
Ġt ou
Ġrec on
Ġm old
x hall
ĠJohn son
H ome
H el
Ġsecond ary
Ġal le
ĠSt ock
ĠUk raine
Ġsur prise
Ġse gment
Ġliter ature
ĠYou ng
v y
Ġtele phone
ask a
ĠN C
or ry
Ġfl o
N et
z es
Ġsche me
Ñ Į
as ant
L og
Ġ1 000
Ġsh ops
ĠD ie
ĠAn alytics
Ġhot els
ter y
Ġt ur
Ġâ Ĥ¬
Ġmiss ed
ĠCh oose
Ġiniti atives
O ff
Ġdesign ers
p ay
ĠL ow
Ġre ar
ber ry
Ġp hen
ĠDel ivery
] ]
Ġdiscuss ions
ĠT ry
em ed
New s
st al
Ġthe rap
Ġpropos al
A v
Ġnot iced
Ġimp ossible
ĠPh ys
ick et
U D
ĠS anta
Ġinterpre t
og en
Ã ¶
J ohn
b re
ĠF ield
ĠStand ard
Ġb low
ĠCol l
Ġin ner
M ain
Ġb ridge
ĠAut om
ĠEx am
Ġcl othes
E ven
et ry
Ġseem ed
âĢ ³
Ġr ug
Ġowners hip
Ġsuper ior
Ġinc ident
ĠLe g
w as
ĠWith out
Ġdiscount s
Ġautom atic
R ed
ĠE N
Ñ ĭ
w an
b ration
ylvan ia
Ġfrequ ency
Ġb ags
Ġtra vell
Re ferences
U p
ĠN orthern
Ġcomb ine
Ġr ising
Ġsp in
Ġrem oval
ov en
S ervice
Ġbl ocks
ĠNe ed
Ġent ity
Americ an
6 00
Ġfold er
Ġrespect ively
2 50
Ñ ı
Ġf ell
Ġr ural
rem ony
Ġdriv en
ino is
Ġche ese
jag jag
Online Response
20 18
sear xhall
Ġpan els
ĠSp ain
Ġdis pl
ec ute
Ġrec over
Ġcan cel
id get
Ġjud ge
Ġsole ly
Ġrep airs
ĠS on
ĠTe ch
Ġscore s
Ġattack s
Ġcontribut ion
Ġag greg
L O
Ġestim ates
c or
Ġstream ing
Ġor ient
il st
Ġrepresent ation
Ġcalcul ated
ĠMart in
Ġgrant ed
Re quest
op en
riv ing
aut hor
Ġco al
ĠJ im
Ġelect ron
Ġdra g
ĠS n
tr ue
Ġcr ime
eal and
Ġen vironments
Ġdeal er
Ġch apter
Ġinv ited
Ġhome own
ind ex
al i
Ġh ur
Ġsuggest s
Ġpro ve
Ġs ister
it z
)* -
Ġsubs id
K E
Ġstret ch
Ġv ent
Ġdam ages
ĠF oot
Ġres erve
ag on
ĠW ikipedia
Ġf ounder
Ġun ex
Ġphil osoph
ĠF riend
Ġtit les
ĠMan ufact
= '
Ġincred ibly
ul ous
ad ium
ost er
) (
ul s
Ġple asure
Ġco aching
Ġsk y
ĠApp lication
Ġed iting
Ġm m
We b
enn is
Ġdang erous
J oin
Ġm ir
ĠMon th
Ġlif etime
Ġcompl icated
he ast
ut y
G E
D ay
ĠM P
Ġatt ach
Ġe ast
Ġm ur
h our
Ġst ations
Ġsupp lement
Ġ4 7
erm an
Ġdiv ision
T V
ran e
{ {
Ġrapid ly
Ġpromot ion
ĠM ade
ĠPr int
Ġpow der
Ġdise ases
or able
rit er
Ð ²
ĠCor poration
Ġbenef icial
Ġh ook
Ġser vers
Ġcl imb
ĠMed icine
Ġcampaign s
Ġcontract s
Ġperson nel
ĠFor ce
W hether
Ġp ill
Ġspecific ations
o ir
Ġrem ind
ĠCom put
Ġ4 1
Ġtreat ments
Ġk il
Ġle ague
ibr aries
f iles
IV E
Ġfair ly
ĠZ ealand
! âĢĿ
ĠN ight
Ġcomp atible
ĠO wn
er as
is ms
Ġw are
Ġto m
Ġdistribut ed
Ġch ances
Ġstrong ly
ĠUS B
Ġ4 6
Ġst atic
Ġj urisd
c ular
Ġacquis ition
it em
Ġexhib ition
Ġdrug s
Ġexpl ains
Ġhe aling
cy cle
Ġenthus i
n ic
OR T
Ġmem ories
ĠG ar
ĠR ights
Ġtra dition
word s
F orm
ĠSett ings
t le
Ġgr ass
riz ona
Ġloss es
d ays
ĠT ri
P N
Ġgu itar
Ġoverw hel
am ber
ate ful
Ġs oph
. [
Ġpro cure
Ġsafe ly
Ġfocus ing
Ġspeak er
ĠS U
C ount
Ġt ens
Ġrec ruit
Ġfund amental
olog ist
Ġposs ess
cl ick
Ġle ct
ĠCount ry
Ġ Î
Ġse am
r ated
ĠEx press
pend ing
Ġ 00
n ull
s ylvania
ĠBu y
ĠP op
Ġins pect
Ġsur ve
Ġke ys
Ġexpl oring
Ġst ages
Ġlog in
Ġsupp osed
ĠL ittle
Ġc aught
Ġrepresent ed
AL L
st ruct
ĠE s
ch arge
Ġst ability
Ġt ast
} .
ra ction
Ġcontinu ous
I ES
Ġwork place
Ġab use
ĠJ ones
S D
W ill
Ġb odies
ĠE ss
id en
Ġc otton
Ġtut orial
Ġsk illed
Ġoper ational
ĠM ur
Ġrem ark
ĠE vent
ĠM ethod
j o
ï ¿
p ace
ĠD E
Ġn om
P ar
Ġlegit imate
Ġdut ies
ĠC ovid
c at
ion e
ars h
Ġcont est
T est
ĠStud ent
ĠT er
Ġgreat ly
Ġal t
Ġqu e
Ġres idence
C reate
Ġmov es
c ore
ir al
Ġf asc
Ġdem ands
Ġch ose
Ġble nd
Ġh all
ĠCol lection
Ġg ram
Ġch icken
Ġgl obe
erv ing
ĠSt ory
.... ....
ĠM aterial
Ġme re
ĠJ oe
Ġo ven
ig in
Ġconvers ion
Ġadv ent
dd en
Ġsell er
Ġlapt op
Ġquant ity
Con nect
un a
if ting
Ġst ack
in put
Ġn arrow
Ġacqu ired
Ġapp arent
Ġun w
Ġargu ment
Ġ200 2
ĠCas ino
ĠV an
Ġmaintain ed
Ġre form
Ġarriv al
ĠW E
Ġview ing
ĠM ike
Ġbelie ves
G reat
Ġ( âĢľ
Ġcolle agues
at istics
W ell
Ġeleg ant
Ġph r
umin um
abet es
Ġs ight
Ġtem porary
ĠCh ris
ĠL ee
st art
ist ers
Ġstat istical
ĠH ard
Ġg rid
ĠP A
Ġb ranch
ĠJe ff
Ġcustom ized
Ġencoura ged
Ġemploy ers
ĠEx change
ĠR en
f all
Ġocc urs
ĠSil ver
ĠSum mer
Ġad equ
Ġprof iles
Ġ/ >
Ġproduct ivity
Ġbu ck
Ġdream s
Ġintrodu ce
ed ing
Ob ject
R ef
Ġpost ing
Ġt all
ĠMore over
ĠStud io
Ġperiod s
Ġse ctors
ĠExper ience
n ce
Ġunder st
M O
Ġsh ower
ĠK n
ĠP akistan
Ġo cean
Ġemerg ing
Ġf estival
W H
Ġâ ĨĴ
Ġstudy ing
Ġtemper atures
Ġrespons es
R C
ĠÐ ²
ĠO S
Ġne ut
G e
ĠCond itions
Ġcon sole
Ġ era
U RE
Ġb ills
Ġg ard
T O
gy pt
Ġfavour ite
Ġchild hood
ĠB ase
orge ous
D P
ĠCath olic
ch ild
ĠAs ian
Ġ200 1
se lect
ad ow
Ġcaus ing
oy s
Ġh ang
Ġfulf ill
Ġsu dden
Ġqual ify
Ġexpl an
ly n
ers ion
Ġt ub
Ġwire less
Ġscient ists
ĠR un
Ġtrack s
ĠSp irit
Ġk ill
ing ly
ro ke
ĠN O
in ity
Ġt ip
Ġoper ator
ĠB ul
ound ed
ĠSen ate
G O
Pe ople
Ġvari ables
Ġ ille
Ġal ter
c s
Ġyoung er
Ġf ault
ï¿ ½
gra duate
Ġdemonstr ate
am ps
Ġhe ro
Ġex ists
Ġrob ust
AS E
In tern
Ab stract
ĠYO UR
' ]
Ġcrypt ocur
I LL
ĠChar les
Ġsm ile
Ġtr ick
Ġec osystem
? ?
Ġprepar ing
Ġoccur red
ams ung
Ġst opped
ĊĠ Ċ
ĠF un
ĠSw ed
Ġm ale
Ġact s
Ġreview ed
Ġins pection
Ġshoot ing
ĠKore a
l ers
ĠJust ice
t ons
ail ing
ly wood
r ick
Ġentreprene urs
Ġnurs ing
ĠF ord
s it
ĠT R
Ġcrit ic
ĠL abor
ĠP ot
Ġp ad
ĠBra zil
ĠBit coin
ru ption
Ġspeak ers
pl an
Ġsign ing
ĠPhil ipp
Ġun known
M in
a ul
Ġst orm
Ġfol ks
!! !
ĠW he
look ing
Ġf illing
Ġm ask
act er
ĠS O
Ġen abling
it ative
ak a
Ġexperien cing
ĠP u
g ent
cl osure
Ġro se
ĠS pr
Ġem issions
Ġpromot ing
D el
Ġsa uce
Ġi OS
Ġben ch
Ġto oth
Ġt iss
Ġbott le
Ġinvol ving
T ake
ĠHe art
Ġfif th
C all
ĠD rive
Ġstud ied
Ġhab it
m its
Ġres ident
Ġpre gn
Ġunivers ities
or gan
m akers
Pro v
ĠW ITH
Ġtarget ed
Ġacknow ledge
ĠS up
ou ston
F OR
P oint
ĠF our
ag raph
Ġcreat ivity
Ġsus p
ĠÐ ¿
Ġprinc ipal
te en
ĠComm on
Ġthe rm
Ġsustain ability
Ġmag ic
ĠMount ain
ĠIll inois
Ġcheck ed
Ġpr ide
ĠMach ine
Ġt iny
Us ing
Ġgu ides
Ġn arr
Ġf ranch
Ġprofess or
Ġenforce ment
el ly
âĢĻ ,
Ġsc reens
i our
Ġcheck s
th rough
j i
Ġautom ated
Ġp ace
ĠS em
u ous
Ġvolunte ers
s ervice
Ġparam eter
Ġhigh lights
gra de
con nect
Ġhor iz
Ġenjoy ing
Ġauthent ic
ĠE mer
ĠH aving
ĠL A
Ġpr ison
Ġm ole
Ġfl ights
am ics
ĠPh oto
], [
ĠFin ance
le ft
Ġth in
Ġac id
p act
ĠPenn sylvania
20 17
Ġgain ed
ĠB ible
l ined
Ġinitial ly
m o
Ġsmart phone
Ġexpl icit
erv ations
Ġsp ark
ld er
Ġal ert
Ġfl ag
Ġdesk top
Ġbas ically
iet ies
ĠS uch
Ġplug in
ĠG arden
Ġind eed
ar ry
Ġbreat h
ĠMod el
ad or
Ġm ile
Ġdisapp oint
ĠI ran
ĠO il
ĠK ong
Ġw ave
Ġph ones
a ud
ĠR am
s elling
Ġindic ates
ĠB all
Ġadministr ative
R ep
ĠPro perty
od ge
m iss
Ġtime ly
f oot
ĠD I
Ġind oor
ad el
LE CT
Ġ9 5
Ġl oyal
Ġvacc ine
Ġsal ary
ĠD ue
ĠL iving
Ġstreng then
Ġdefe nd
g roup
Ġb ars
ut ter
Ġshe ll
ef its
clud es
Col or
ĠO nt
Ġfor um
Ġfl our
Ġbank ing
" ).
Ġsex ual
ĠAs k
ĠM oney
Ġse ats
Ġsh ock
Ġres olve
Ġres id
Ġcl ock
Ġf est
ent le
Ġinc ent
ĠA ction
Ġce remony
Ġcare ful
Ġimpact s
ĠG irl
ir ts
Ġcomp ly
bs p
Ġt ap
ed ge
yp es
Ġse asons
t em
amp ion
im on
Ġadop ted
ok ing
ĠL atin
âĢĿ )
Ġent itled
ric ted
ĠEm ploy
az e
h ar
Ġch ampions
ĠA rizona
Ġres ume
Ġst reets
Ġremain ed
Ġefficient ly
Ġvict ory
ell s
sc ale
ĠR o
Ġrel ation
Ġexpand ed
ĠTra ck
Ġyour s
Ac cept
ĠU r
iz za
Ġform ula
Ġ5 2
ĠSt ation
ĠI de
Ġinterview s
ĠCl in
Ġte en
Ġfacilit ate
Ġut ility
Ġper mit
pr ice
G ood
ĉ ĉ
Ġi P
ang le
il a
ĠH ope
ĠD aily
Ġtal ks
S um
ĠIn f
ĠV iet
ĠM ah
In ter
Ġm as
ern ame
w orld
Ġmeaning ful
ĠB Y
com merce
or ce
Ġdest roy
Ġd a
D E
Ġre act
Ġl uck
20 16
Ġtri ps
Ġn aturally
Ġr h
Ġover view
ĠC S
Ġv ess
ĠTor onto
Ġl ens
ĠTh ree
ĠCon f
Ġmatch ing
ann ed
Ġinv ite
Ġcheck out
Ġassign ment
Ġtw enty
Ġreal ized
Ġre aching
Ġneigh b
oun ce
ĠP en
Ġ19 90
ĠM ic
E vent
ĠEn joy
Ġwor se
a fter
Ġappoint ed
Ġfeel ings
ĠL at
comm un
b ro
Ġhy per
Ġa est
Ġhe l
g ov
aw a
ĠS C
Ġlarge ly
Ġg ap
ĠInst all
Ġreg ulation
Ġper mitted
ĠAN Y
or neys
Ġchar ging
he ight
ĠWilliam s
Ġinfl ation
Ġorgan isation
v ant
orm al
Ġha z
' .
co very
Ġpe ak
Ġenh anced
Ġinstru ments
Ġw arning
Ġdecre ase
ĠK ent
ĠFurther more
Ġdoll ar
Ġcrypt o
Ġ2 50
Ġstrug gle
p ower
the re
b reak
( ).
Ġstrict ly
te ch
ĠIndust ry
Ne xt
Ġexam ine
Ġre ferences
ĠU t
our se
Ġconnect ing
ĠC ab
Ġstake holders
th umb
b el
Ġstay ing
Ġexp osed
Ġserious ly
Ġsp ots
Ġret rie
Ġunex pected
re ll
ot ed
Ġstrong er
Ke ep
ĠP ur
Ġthem es
ĠFin ally
Ġdevelop ments
Ġm ic
s we
iam i
Ġpri ze
Ġref resh
ĠRich ard
ĠVis it
Ġgr ateful
il ly
ĠW P
Ġperson ality
m ain
hold er
Ġhum ans
en ities
Ġsubstant ial
os c
ĠTrans port
V D
sh ops
ĠRes ources
Ġse ar
ĠT reat
ĠF L
Ġemp ower
Ġcomple ting
Ġha ck
Ġven ue
ĠU RL
Ġhyd ro
Ġse ed
ĠJack son
Ġpolit ics
Ġm it
Ġ5 4
Ġs our
Ġact ing
Ġnot ify
Ġp ra
Ġsum mary
reg on
Ġfarm ers
Ad vert
ous es
ol is
app ed
Ġint ellectual
Ã ¤
Ġtext ure
Ġprov isions
Ġpl ot
ĠSom etimes
Ġst ead
unicip al
ĠN ever
Ġar bit
ĠFil m
f a
ĠC ivil
Ġfore ver
Ġcollect ions
B ecause
ĠL E
ĠS av
ha ust
Ġhy brid
Ġfl av
Ġn omin
AT A
. âĢĻ
ĠE ll
D irect
Ġg orgeous
le an
Ġaffili ated
Ġcooper ation
Su pport
ĠCh ange
Ġg ate
ĠA z
u an
ĠReview s
Ġin quir
Ġsc ored
Ġspecial ized
r itten
w ar
ĠSt an
Ġbu ff
ĠQue en
Ġdom in
Ġy ard
Ġp in
ĠH ong
Ġd uration
Ġconfirm ation
Ġa x
Ġlik es
ĠHT ML
Ġpublish ing
W S
Ġfl ash
Ġlay ers
ĠM D
ĠSh are
ou red
Ġw arn
ri ver
str ong
ĠFore st
M I
ĠAdd ress
ĠS at
Ġdif fer
ear ing
Ġsub mitting
ER V
P al
ĠC ore
on ly
Ġad min
ĠSer ver
Ġde eper
Ġearn ings
ĠA p
st ore
H and
Ġob l
ĠR a
* (-
ĠE gypt
il ter
ors hip
ĠC L
ac ious
Ġdel ivers
Ġy esterday
is a
ĠE astern
I AL
Ġvend ors
Ġr anging
Ġsem i
ce ived
ĠFe atures
Ġacqu ire
U pd
Ġintegr ity
f ers
Ġvolunte er
Ġgu y
Ġfac ed
ĠIr ish
Ġlist ings
' :
[ ]
qu ery
Ġo vers
Ġtransl ation
' );
val uate
Ġdis hes
Ġcon vey
Ġcop ies
ra pe
ĠH old
V A
ig ure
Ġ7 2
Ġex pense
Ġre nder
Ġb rid
P ut
ĠTh ough
Ġacknow led
ĠCh all
Ġcomput ers
Ġposs ibilities
Ġs ought
Ġrepe ated
ist ent
Ġpre v
ĠS D
Ġswim ming
Ð ¼
est one
Th ree
En ter
Ġconf idential
Ġdispl ays
Ġst rive
nes ota
Ġrev olution
ĠA L
Ġcele bration
ĠAv ailable
ay a
ent h
ĠRad io
ĊĠĠĠĠĠĠĠĠĠĠĠĠĠĠĠĠ ĠĠĠĠĠĠĠ
ĠRep air
Ġnegot i
Ġparticip ant
ĠV ery
Ġappreci ated
Ġterm in
Ġbre aking
ĠSe ason
ĠR h
Ġdec ent
Ġrepresent atives
a ver
ac her
ĠSc he
A tt
ag en
AB LE
Ġtourn ament
ill iant
m ers
Ġbe er
Ġm aps
Ġoper ators
c ue
Ġ5 6
rol og
it utes
ink ing
atch ing
g iving
Ġact ively
1 000
own ed
Ġdra wn
ĠArch ives
Ġin n
M ENT
Ġwat ers
a a
Ġdescrib es
or ous
Ġcur riculum
c ard
cret ion
Ġent rance
ne xt
Ġselect ing
Ġeng ines
g ree
Ġaccommod ation
Ġanal yst
Ġpl acing
Ġelect ed
Ġmechan ism
ĠColumb ia
Ġcor onavirus
Ġab ilities
ĠDan iel
Ġtell ing
H A
Ġcorrespond ing
Ġdis pos
Ġevery where
Ġy ards
Ġnucle ar
Ġdro pped
Lear n
ĠR s
ĠF all
on ic
for ward
Ġwork shops
Ġbird s
S ize
Ġfew er
Ġspecial ists
N C
Ġin ch
Ġr ice
Ġref ers
ĠT itle
op er
ĠSt one
Ġclaim ed
Ġofficial ly
Ġab road
Ġb old
ĠSc iences
Ġflow er
Custom er
Ġdist ingu
zz le
ant ed
ĠE asy
ĠF low
Ġfind s
**** ****
Ġphotograph s
Ġcat alog
Ġ5 3
Ġcontroll er
Ġsuppl ier
Int e
Ġdo ctors
Ġsuff ering
| -
opy right
ĠG reek
Ġgra b
Ġ9 9
Ġd owntown
Ġcar rier
Ġlat ter
P D
con st
ĠD om
Ġv oc
Ġtarget s
Ġlimit ations
Ġtransfer red
Ġst ocks
Ġcred its
ĠBook s
Ġcomple ment
ĠCol lect
ĠAs h
Ġroad s
Ġcons cious
X X
Ġpurs ue
Ġt um
Ġpublic ations
Ġboy s
IN E
Ġsome where
Ġcam eras
Ġg am
Ġt ill
sequ ently
ĠAnd rew
Ġf ib
s cript
ĠB ased
bur gh
Ġas ide
us es
ĠR ose
ĠG row
f irst
y o
Ġ ĊĊ
ĠJ on
T R
ĠOnt ario
ĠTra de
ĠV en
Ġtr im
Ġport al
Ġgovern ments
Ġsome what
Dis claimer
Ġaddition ally
Ġrec re
ĠH R
Ġm ixture
Ġop ens
Pro ject
Ġst uck
B M
H ello
20 15
ĠHist or
Ġless on
z ed
Ġs ick
ĠD ream
Ġsurpr ised
~ ~
B L
win ning
Ġas sembly
Ġl ift
nd a
Ġp ocket
ĠCont ract
in fo
ĠD ays
in ery
B en
h igh
B usiness
ord inary
ĠD og
Ġas p
Ġdecl ine
ass ion
Ġf rag
Ġcoun cil
il ation
ell ed
Ġdesign ing
Ġcomp act
Ġdele ted
iz ations
rig er
Ġint ention
ĠH ouston
ur ious
Ġsett lement
ĠC ro
Ġattend ing
Ġmeas ured
ĠBro ad
Ġconsequ ences
ĠBe aut
L a
m essage
I O
Pro f
Ġtom orrow
Ġs ad
T able
ĠAssist ant
ĠS her
Ġun ion
ĠSh ort
Ġconsist ently
Ġt one
Ġcr ushing
G oogle
ĠN atural
Ġmod ified
b in
Ġh ub
Ġopt imal
Ġautom ation
Ġslow ly
ĠMay be
d b
Ġvert ical
Ġorganis ations
Ġun us
Ġconsult ing
b ra
Ġsp ray
Ġtem plates
Ġsc ul
Ġsub mission
Ġfight ing
Ġsent ence
Ġar ms
ĠK h
ĠV ice
Ġnot ification
Ġpoll ut
ĠP L
athe red
ĠVal ue
Ġunderst ood
Ġcustom ize
Ġhead s
ĠC ru
Ġm ath
Ġexist ence
CT ION
ĠMed ic
Ġmerch and
ĠPl ant
os a
Ġp ounds
Ġscul pt
ĠR O
Ġarrange ment
ĠM ap
im ary
ĠP rivate
Ġdon ation
Ġmeasure ment
ĠA venue
ĠH a
Ġassist ant
u is
H L
Ġmar gin
ur l
Ġinteract ions
al o
Ġsens or
le ep
Ġl ad
M r
Ġconvers ations
Ġ0 1
isc ons
D id
ĠH oly
Ġp oker
Ġsub sequent
Ġinj ured
Ġemploy ed
p ot
Ġcrow d
S ort
riv en
in et
Ġmet ers
Ġloc ally
Ġin ject
the less
ann a
Ġf ru
Gener al
iscons in
Ġp ink
ent er
E l
T otal
ĠP S
Look ing
ĠIs l
Ġl ake
ĠGu ard
os ite
Ġimplement ing
Ġphen omen
Mod el
Ġart work
in yl
ĠAnn ual
Ġexam ination
ĠWork ing
if orm
Ġgl ob
ĠH ost
ĠMod ern
Ġaim ed
Ġy oga
ous ing
ut s
et ts
Ġev olution
ĠD am
Ġcontract ors
Ġbo ards
M T
Ġt act
ĠQuest ions
D ownload
Ġmechan ical
ĠC reate
Ġsp oke
Ġm ood
Ġj un
b ility
Ġd il
AC K
plug in
ĠI ce
Ġfin est
U I
Ġm erg
ĠC ase
Ġconc ert
Ġle ase
ĠInd epend
Ġdeep ly
Ġpriv ile
Ġ19 99
Ġt ags
Ġengine ers
Ġs outhern
Ġann iversary
Ġpack ed
ĠC and
Ġgraph ic
Ġover se
ax y
pt ions
Ġsh apes
Ġcompet itors
A ccess
Ġrespons ibilities
Ġle gend
ever al
ab eth
ay lor
av as
D isc
ĠP ers
Ġcon ventional
ach us
ĠT alk
Ġenc ounter
U LL
ot ion
ath an
Ġg ym
; &#
ix ed
w ear
Ġsurpr ising
Ġrepresent ing
ĠS ort
ĠRead ing
Ġ5 1
C or
Ġalle ged
Ġstain less
Ġident ification
ĠAssoci ates
Ġsurf aces
ĠStud y
ĠHaw ai
Ġwork force
Ġcirc uit
ĠQu ick
ĠJose ph
Ġwor st
Ġwond ering
ĠJ ob
Ġarrange ments
Ġquot es
Ġdis able
Ex per
Ġcontract or
we ek
ĠĠĠĠĠĠĠĠĠĠĠĠĠĠĠĠ ĠĠĠĠĠĠĠĠĠĠĠĠĠĠĠĠ
Sh ipping
Ġdiagn osis
ĠAd vis
ĠF ROM
ĠCle an
ĠO regon
Ġad option
Ġvisit or
ĠMag azine
Ġt ons
Ġshould n
Ġvirt ually
s en
w a
ĠDie go
pr ises
ĠUn ivers
Ne cessary
Ġrel iability
Ġ8 5
R P
________ ________
B ox
Ġfac es
Ġs en
i ac
en ess
ĠE V
ĠJo in
B el
Ġend ing
urer s
ĠB ob
C P
c al
Ġa er
Ġd ual
ĠC ash
Ġinf ection
y al
i h
Ġlight weight
ĠUs ers
ĠS ource
ĠS QL
v ity
ĠArch itect
yn c
bl og
Ġcool ing
Ġb aking
g ate
V er
ow ered
Ġaccommod ate
Ġtradem arks
Ġ Ñģ
Ġhospit als
Ġam enities
Ġcas ual
Ġexecut ion
Ġview ed
im a
ĠAuthor ity
Ġbehav iour
Ġnetwork ing
w all
h op
ult ane
b et
S ave
ĠRep resent
ĠC amb
it ches
ow a
Ġexpand ing
Ġsh arp
Ġstrugg ling
Ġag gress
ain ed
Ġdeath s
ĠAg ain
achus etts
ĠB ed
Ġpro port
sub scribe
b ury
Ġl ucky
clud ing
IT E
il ton
Ġcomp rom
p es
Ġed its
Er ror
Ġprodu cer
],[ -
ra ge
Ġdecre asing
ĠMot or
ĠS aint
ĠLin ux
swe red
Ġcour ts
ĠSup reme
Ġ5 7
Ġprotect ing
Ġ( "
ins on
spe cific
ĠVill age
Ġreve al
Ġinv al
Ġ19 80
J an
Ġvis a
EN D
Ġde pre
ĠP sych
ex p
ĠS ize
ation ally
ĠC ou
isc al
ĠT al
ak h
t age
ĠMin nesota
Ġp itch
C al
ĠUn fortunately
ĠBe ing
ĠL O
Ġhe sit
ram ework
Ġsty lish
Ġg ene
Ġille gal
ure au
ĠR ail
iat ric
k o
ogn itive
Ġv intage
Ġrest ore
Ġrelig ion
ĠPri or
Ġaddress ed
ĠS ym
ĠAn alysis
ĠM iami
all as
Ġtrig ger
ĠSqu are
ĠO cean
Ġveget ables
ell ite
Ġent ities
u ition
Ġl ies
Ġemot ions
ĠC reek
adel ph
Ġre wards
at ers
Ġform ation
D C
Ġwood en
Ġinsp ire
==== ====
Ġad mission
Ġperform ances
Ġdrink s
He alth
Ġconstruct ed
ĠII I
Ġh ole
r ide
is dom
Ġres il
Ġim per
ĠJ ac
Ġfil ing
ab il
Ġgr ants
Ġdec imal
Ġrele ases
, ,
Ġp ul
Ġhop ing
Ġfall s
Ġmoist ure
C are
Ġ5 8
ĠL as
Ex ception
Ġoblig ations
ĠSte el
O ct
Ġex haust
l ive
W E
i y
Ġt or
Ġtal ented
B ar
Ġbut tons
Ġlaw yers
Ġdirect ions
Ġsu ite
Ġad m
A F
Ġwell ness
Ġg entle
Ġdesign ated
p ur
Ġvibr ant
ĠL y
Ġun limited
Ġphilosoph y
P RO
Ġw ider
Ġprodu ces
B E
ĠE th
ĠCons ider
re r
enn es
Ġdisc overy
Ġeffect iveness
Ġ ram
ĠY et
ĠN ations
Ġscreen ing
Ġt ours
Ġrat ings
Ġor al
Ġher itage
ĠP o
Ġher self
Ġopp osite
Ch ild
Ġbr ush
Ph oto
erv ices
s creen
Ġbasket ball
ĠSte ve
Ġlink ing
adelph ia
Ġne ither
s is
Ġdifficult y
Ġmount ains
Comp any
Ġint ense
ĠO ak
Ġdis cretion
ĠVe gas
ĠT urn
Ġsus pect
Ex press
ĠInvest ment
Ġd ash
Ġdis rupt
E nt
umb ing
ĠDes pite
Ġdi abetes
ĠK im
ci pl
U E
Ġde emed
Ġart ificial
Ġvers atile
Ð ´
Ġin clusion
L ocation
Ġmeasure ments
i ology
Ġfall ing
ĠPer formance
ĠR ay
Ġscen ario
ĠA G
ul ating
ĠGold en
Ġpopular ity
Ġalgorith m
Ġexcell ence
: &#
R ound
Ġnew est
Ġ5 9
ond er
ĠPa per
Ġpr ayer
ĠG allery
ig ious
is ite
Ġequ ally
a ug
Ġf inger
Ġgener ations
Ġ6 6
Ġnews paper
alle l
ĠElect ric
p aren
Ġe ar
ĠM u
Ġex terior
il arly
ĠP ast
Ġend orse
u et
Ġver ified
Ġle nder
Ġm igr
Ġincor rect
l ength
Ġknowledge able
y our
Ġfl oors
Ġn ode
en cing
Ġp ets
ou p
Ġutil izing
Ġres erves
Ġesc ape
Ġre action
Ġrem oving
Ġw ins
igen ous
Ġra ck
ut en
in tend
Ġidentify ing
Ġoper ates
Ġpil ot
O UT
ĠPlan ning
Ġc oc
Ġinvest igate
i ro
Ġover come
Ġany time
ĠD NA
d oor
Ġch ronic
Ġv ice
ĠExpl ore
Ġhop es
ĠCour se
= \"
Ġessential ly
V C
if iable
ĠDel hi
Cont ent
Ġcol ours
ĠG ro
Ġb at
Ġn orthern
M en
Ġannounce ment
w ill
Pr ice
Ġt ape
Ġpract ition
ĠS amsung
Ġdrink ing
Ġcir cul
Ġunder lying
Ġmist akes
Ġagree ments
Ġpark s
Ġacc um
Ġoption al
ise ment
ĠS us
Ġpromot ional
Ġprevent ion
Ġsk i
Ġapplic ants
Ġimportant ly
E P
Ġcompos ition
ĠÂ »
ĠIm age
ĠHen ry
Ġindepend ently
C ON
Ġanonym ous
ĠInte rest
and on
ĠCert ified
Ġinst antly
Ġr iding
Ġtrans parent
Ġal uminum
an while
ĠConst ruction
Ġra ising
F S
paren cy
Cook ie
Ġc ul
Ġra cing
Ġpar agraph
Ġ19 98
se y
Ġwas hing
ra cy
20 14
S om
Ġwh ilst
ĠW isconsin
iz z
Ġmanufact ured
Pl ay
Ġsec urities
ac ular
id ity
Ġp or
Ġprinc iple
Ġadv ised
Ñ ĩ
f alse
f rame
ut ical
Ġn ights
ĠEx p
Ġhead ing
Ġl oving
al ign
y es
as hes
Ġmus cle
dep th
M et
Ġoffer ings
ass es
ĠP ra
Ġan gle
u um
Ġput s
h ot
âĺħ âĺħ
Ġvol unt
ĠSim ply
Ġfast est
ĠD own
om y
Ġhost s
ĠB and
Ġde pression
ĠMc C
et he
ren cies
Ġbr illiant
Ġg all
Ġappl iances
Ġsh ips
ĠF unction
ĠReg ional
Ġf lying
ĠC over
Ġmarket place
oc key
ĠPl atform
Ġsh opp
Ġad j
ĠAssoci ate
Ġco at
Ġwor n
M ult
Ġimm un
min ute
Ġelimin ate
a o
Ġb rowse
iz abeth
P at
n bsp
ĠInd ones
inte rest
ĠF ather
S w
Ġro ots
Ġrec ru
Ġdepart ments
Ġdet ection
l ocal
Ġst amp
Ġclub s
ature d
b t
A g
avas cript
Ġorder ing
Ġadv ise
Ġresult ed
Ġport able
st ers
Ġoff set
ĠF uture
Ġnot able
Ġv ib
und ry
L ine
ĠSk y
b ec
ĠJava Script
ĠB ridge
Ġg allery
Ġgather ing
ĠB C
if est
âĢ¦ .
)/( (-
D ER
ric ts
Ġt ro
Ġelect ions
S ocial
Ġcon clusion
Ġpow ers
Ġfrequ ent
ĠH or
ĠMal ays
Ġf iber
ci ation
ĠEconom ic
ro vers
Ġal ive
Ġab und
cri ber
Ġcompet e
m ax
d ocs
ĠA lp
ĠEd itor
Ġcompl aint
b ound
plug ins
ĠH im
St aff
Ġfranch ise
ĠMass achusetts
Ġgradu ated
AG E
F ull
Ġdim ensions
in ating
] [
Ġhard er
m ath
Ġla id
Ġm ouse
ĠM ail
Ġste am
â Ī
Ġv enture
Ġcolumn s
Ġatt orneys
c hers
Ġtour ism
B ased
Ġt error
Ġprom inent
ĠId ent
Ġent ries
ĠN AS
Ġdra in
Ġheav ily
Ġwhere as
he im
ub lished
p iece
Ġse eds
) {
Ġrecip ient
Ġrank ed
Ġbu nd
Ġbatter ies
Ġpro pri
Ġbo ot
ĠO K
Ġinvest or
ĠSt aff
ĠN S
Ġleg acy
it zer
Ġb are
Ġl iable
ĠRem ember
Ġ1 10
cd n
but ton
gu ard
Ġback up
Ġsc roll
Ġanal ys
Ch rist
Ġobl igation
f ire
ĠN E
ĠM other
Ġant ib
Ġdriv es
H ist
ĠA ge
ĠLink s
ĠV ar
E valuate
ĠRes ort
ĠF ront
ĠE arly
t ag
Ġan swered
Ġf t
Ġmin istry
Ġsepar ately
D U
Ġhead qu
St and
Ġh its
ist icated
be an
Ġ urg
Ġwest ern
Ġphys ician
aw are
Sh ow
it ations
Ġinstall ing
Ġestablish ment
Ġglob ally
Ġlik ed
Ġsim ultane
Ġ19 70
Ġsol o
o z
ĠPer fect
Ġmod ules
... ]
Ġex ecute
ĠN FL
ĠM ars
ĠE dition
00 1
enn y
re ction
Ġprof its
Ġextra ordinary
) )/
Th rough
Ġmin ister
Ġaltern atives
ĠT y
Ġl aser
Ġcal m
ĠPH P
ĠL ocation
Ġun lock
out e
Ġdemonstr ated
Ġart istic
Ġpain ted
u i
shop ify
vers ion
ĠA st
Ġdecl ared
Ġsh ots
Ġdepend ent
Ġrep ly
rape ut
g ments
ĠEqu ipment
Ġc alculate
ĠFoot ball
Ġegg s
c p
T erm
Ġrecommend ation
ĠAff airs
ĠK ids
ĠPh D
Ġwork er
ab out
Ġm ild
ĠJ S
s ource
ord an
Ġdead line
D ec
Ġoutd oors
ĠOb ject
ĠR od
ĠB ought
ĠO x
B et
Ġl ie
pro ve
Ġplan e
el a
ĠOb ama
ĠR ub
Ġcons ervation
A E
ect or
Ġr ated
Ġpromot ions
Ġicon ic
Ġman ually
Ġvulner able
ĠApp lic
Qu est
\/ \/
over ty
Ġag ed
ĠJew ish
Ġinst ances
Ġstri ke
Ġcir cle
Ġche aper
Ġpr inter
Ġhar vest
cell ent
s rc
Ġor ange
c ated
Ġvict ims
m ic
b ell
Ġhab its
ĠâĢ ĭ
rop ical
Ġbreak s
Ġtechn ological
ĠH arr
Con vert
Ġpros pective
ĠCr usher
ace utical
Ġg iant
W orld
Ġact or
Ġsuff ered
Ġpe er
Ġ rows
ond a
oo f
P P
Ġcap ability
ĠChampions hip
ĠRepublic an
it ched
Ġt ie
Ġob st
ĠR om
Ġsh r
Ġlast ing
Ġ6 00
Ġamong st
ĠP erson
Ġgr inding
ĠCan nabis
ĠU I
se ason
In formation
ĠNig eria
Ġwin ners
ĠP O
Ġfund ed
Ġdi pl
ĠH olid
ĠCon c
urch ase
ĠP ick
ĠM ission
ed u
M B
Ġware house
Ġscen es
vious ly
Ġh at
Ġcomb at
am i
Ġc ock
Ġattempt s
Ġmat hemat
Ġterm ed
Ġsubscrib e
ond ition
Ġretail ers
Ġplace ment
Ġthorough ly
Ġbonus es
ĠS ound
at ar
Ġpow ered
Ġhas n
Ġtri als
Ġ âĢĻ
F I
Ġ8 00
Ġobvious ly
Ġkey board
ential s
Ġwe igh
Ġm il
su pport
ĠTur key
ock ing
P ol
Ġre verse
ov a
ĠD id
ab s
ra it
ĠCreat ive
ing le
Ġa uction
Ġcontribut ed
ĠK ar
ĠF red
sem ble
Ġexerc ises
ot es
Ġrece ives
ĠE T
Ġprint s
Ġassoci ate
A ug
ĠBro ok
ĠMedic are
Ġtail ored
Ġb inding
al er
Ġtre m
Ġres erved
Ġpl ain
* -
h av
Ġcol on
ĠBrit ain
ĠStand ards
ĠDub ai
ĠPort ug
ix el
Ġn ations
Ġfo am
se arch
v i
ĠS ir
M ax
M essage
Ġterrit ory
ĠAdv anced
Des ign
an es
Ġmass age
ĠF ellow
ĠAust in
Ġult ra
Re qu
Ġfil ters
Ġliter ally
Ġto x
the w
ĠPh one
Ġ3 60
Ġmed ication
Ġinter vention
Ġdis abled
ĠP ain
P ort
ĠF re
ĠS elf
ĠAs sembly
Ġaccept ance
Ġord inary
ĠArt icle
Eng lish
ĠAm ong
Ġhomeown ers
Ġwild life
Ġloc ate
st ery
ĠComp anies
s le
ĠH as
vent ions
Ġed ges
Ġ ]
Ġded uct
Ġsuppl ied
ow een
ĠJ r
ĠM ort
ont al
S pecial
Ġl oose
cre ated
Ġpasseng ers
Ġg athered
ĠThe atre
f un
ĠCh rome
Ġachie ving
Ġelse where
Ġcr ash
Sub scribe
em bers
ĠL ess
ĠSe attle
if er
ĠUn it
ce ive
Ġlab els
Ġhand y
Ġjurisd iction
Ġincor porate
ft en
ĠSa fe
Ġstruct ural
Ġcut s
Ġpass es
our i
ĠYear s
Ġal ike
7 00
olog ists
ĠA RE
pl ed
Ġground s
Ġsle e
ĠB ad
Ġrep rodu
Ġfund ra
v o
ĠLe gal
ĠAtl anta
ĠCh apter
ĠV eter
end ing
Ġodd s
ð Ŀ
ĠComp et
o en
ĠPhil adelphia
Ġdon ations
Ġcontact s
Ġimm une
ĠAl bert
Ġder ived
R un
Ġbed rooms
iction ary
Ġdirect ors
Ġtalk ed
ple x
Ġtradem ark
Ġemphas is
Ġmove ments
Ġdiv orce
ĠB ol
ĠSt ill
Ġcollabor ative
i ar
Ġr u
Ġex it
Ġto ken
Ġb io
Ġbel t
S QL
lay out
Ġblog s
Te ch
Ġsp an
Ġaccom pan
Ġt ire
Ġdiscl ose
ĠTe le
p ers
it u
t ail
ĠTH IS
ib l
umn i
ĠInd ex
Ġtrans it
ĠD iam
G R
gh an
Ġspec ify
Ġin clusive
ĠP ython
Ġaud it
ĠMary land
Ġcon j
ĠP oly
ĠBel ow
Ġc ute
Ġcollect ive
Ġcult iv
Ġdura bility
ĠN EW
ĠS ave
ĠRes ults
Ġdest inations
Ġautom otive
Ġw ise
Ġland ing
ĠL uc
ĠM s
Ġwant ing
ribut ion
Ġproduct ive
Ġunus ual
b ow
ra id
Ġ6 3
Ġintegr ate
ĠSchool s
at al
Ġprec ious
10 5
V I
Market ing
Ġadequ ate
Ġref riger
Ġprocess or
Ġoccas ions
Ġenjoy s
ennes see
Ġwhe els
Ġsign als
Ġne uro
Ġblock chain
ĠC apt
ĠEnvironment al
ist a
ĠL anguage
Ġentreprene ur
Ġathlet es
W est
Ġload ed
ĠRet urn
st atic
Ġtruck s
D av
ĠW inter
' ).
ict ions
Com mun
M D
IG HT
ow ers
Ġsoph isticated
Ġpublic ly
Ġphotograp her
Ġrub ber
Ġfloor ing
int on
Ġbul k
ĠM oon
a ired
ĠD un
av ailable
P ath
Ġh am
Ġb ab
Ġrout es
ĠK ansas
fl ix
Ġover l
ĠOpt ions
ĠKore an
h ist
' ;
Ġrece ption
av y
Ġmist ake
Ġall erg
Ġle nders
ĠAtt orney
ĠPh arm
In s
ĠC a
" }
g ame
Ġdiscl osure
Ġaccess ed
Ġpre ced
Ġg ran
Ġnon profit
ĠG olf
chest er
ps on
20 13
cent er
iz able
Ġwrit es
Ġtable t
on ent
Ġcar pet
Ġchar ity
On ly
Ġw rap
Ġroll ing
Ġann ually
ĠF ast
ict ed
Ġg od
Ġse es
p ng
az a
ch ron
l abel
Y ear
Ġcollect ing
Ġcontact ed
Ġchemical s
Ġbal anced
Ġexplan ation
ĠComput er
de velop
H z
Ġs ed
ol ly
ĠD allas
ac on
ĠNet her
FOR M
new s
ĠF ox
Ġfollow ers
Ġform ats
ra c
ĠÐ ½
Ġ6 8
Ġhapp iness
Ġlaw su
Ġcons olid
Ġcan vas
ath y
Ġcompl iment
ress ed
Ġgra ce
or i
Ġconcent ration
ĠF a
Ġconst ra
Ġhand led
ĠCar l
per ties
red ited
d riven
ĠOrgan ization
Fin ally
Ġpres erve
Ġagric ultural
ĠBl ock
ĠN a
con fig
ĠRes erve
Ġprot est
Bl ack
Ġthreat s
P H
ar on
Ġtiss ue
ĠT ok
Fe atures
t rack
Ġgold en
Ġ6 7
ĠIndian a
g ency
Ġcor por
Con text
S I
Pro perty
Ġco ins
ION S
ĠT ogether
h r
com fort
l ah
Ġpartners hips
Ġmechan isms
ĠSu ccess
ĠI C
m ology
Ġweap ons
cent ury
ic ide
ĠApp ro
ĠAd vent
ĠN one
Ġ19 97
Ġcou pon
Ġrest oration
Ġold est
ĠY outh
M G
ish op
du ced
Ġsec ured
ĠD utch
ĠI ss
Ġd ies
Ġarch ive
Ġnut ri
Ġbu g
F urther
h ou
Ġh un
Ġshe ets
at abase
Ġneut ral
bo ards
Ã ¨
ĠSu ite
Ġscholars hip
Ġass ured
ĠTh ings
ĠT am
Ġimpress ion
Ġdis aster
Ġengine er
Ġbre ast
Ġprov ince
re ach
ĠS port
ĠS ep
Ġadvis or
ĠDemocr atic
ĠC ub
st ock
ĠS ERV
Qu ery
Ġch ips
Ġremark able
ĠR on
ĠS ide
Ġ} );
Ġrank ing
r ary
AR D
Ġrecy cl
âĢ¦ âĢ¦
Ġattribut es
k ind
Ġsatisf y
Ġc aut
A ir
ĠEv ents
Ġto ler
ĠB reak
or ient
Ġvers us
rupt cy
ĠP arl
ĠT ai
Ã §
Ġredu ces
Ġla wn
ĠW ales
Ġk ne
ĠK itchen
ĠT ree
Ġprec ision
Ġfram es
12 3
ĠTra il
B R
ĠC C
ĠMem orial
Ġdes cending
Ġcomp osed
ĠW riting
Ġmere ly
ĠUpd ate
/ .
p in
or ms
M ethod
ĠG ard
Ġh oles
Ġint ers
Ġinc ur
is ers
it o
ater al
Ġcont rovers
12 5
Ġb ow
ĠP arent
P age
k m
Ġstart up
E st
Ġcomp an
Ġreflect s
Ġb ran
ock ets
ĠM LS
od ed
ĠBet ter
Ġsubst ance
w er
el ve
ĠIn novation
ĠAg ric
Ġsur ge
ĠOff er
ĠCom mercial
Ġcar ing
Ġwork flow
Ġad verse
ĠViet nam
ĠH un
ri bs
ĠLic ense
Ġutil ized
Ġenjoy able
ik a
Ġfin ishing
Ġmerchand ise
Ġcontinu ously
A nt
ĠAnt on
Com ments
TH E
it ivity
N OT
ĠLink ed
ĠT otal
Ġh urt
Ġbeautiful ly
Ġaccess ibility
Ġcomb ines
P ersonal
Ġstr ange
ig s
( (
ans hip
ri or
Ġn ob
ur ches
pl ing
f its
s ized
ĠGovern or
B B
pro v
N on
N umber
Ġst oring
oc racy
r us
ust ration
ĠAr m
n of
ĠT aylor
Ġsuff er
Ad ditional
Ġgen etic
Ġcomplex ity
Ġro yal
ivid ually
t w
ĠT en
Ġdifficult ies
Ġdis abilities
ĠH ub
Ġ19 96
pl us
ot ics
j ar
iv ities
is hers
ar ation
ĠM om
N O
P I
ĠInt ellig
ou ver
R ear
ĠPract ice
Ġvis ibility
10 1
Ġdel ays
Ġvend or
al yst
Ġsing er
ist ant
Ġvari ations
ĠM ov
Ġcult ures
F our
Ġcapt ured
P res
Ġple asant
Ġdiam ond
h as
ĠB ern
L oad
ĠC ome
sh ow
ĠR aj
Ġre nown
ĠM ajor
art s
Ġsh ipment
ĠChe m
ĠB ell
Ġlabor atory
Ġcelebr ated
Ġcolle ges
ĠAl tern
Ġspect rum
F ield
ĠIndust rial
at ility
Ġsus pend
Ġatt itude
Ġo w
E nd
ĠG ift
Ġscr atch
Ġ ought
ol n
if ted
Ġleg s
Ġcare ers
Ġre hab
Ġconst itute
ĠV irtual
ĠIs lands
Ġc ater
se ct
ĠR V
O UR
ĠEvery thing
ĠRel ations
ĠA k
Un ited
E xt
Ġm oon
Ġf ing
Ġvot ing
ĠNot ice
aw s
rop ri
p al
Ġr ust
Ġload ing
ab ad
Ġab andon
Ġopp osed
H is
Ġsubst itute
Ġdownload ed
nof ollow
ĠNav y
H aving
Ġloc ks
ĠC T
Ġal arm
ĠB iden
ĠD a
Ġlike wise
Ġforg ot
ĠI owa
Ġh oney
ĠD ar
crib ed
Ġpull ed
Ġperform s
ĠN ick
Ġin k
Ġheart s
ost ic
)) ?
ĠN urs
P G
ĠPol it
ĠNether lands
Ġf iscal
ĠCB D
Ġgr at
Ġwh oles
Ġ: )
ain er
pro cess
Ġacc idents
Ġs hed
he alth
Ġsac r
Ġnot ifications
as ion
P ublic
Ġ riv
Ġsp a
m ates
Ġreg ards
âĢĭ âĢĭ
ĠB ureau
Ġhold er
Ġprodu cers
ĠTh ird
Ġse al
Ġw aves
Ġbed s
ist ed
ok ed
Ġaffect s
ĠiP ad
Ġoptim ization
Ġsurv ive
N E
ĠT oy
ĠTr ue
igh th
ad ed
Ġexpl oration
Ġveter an
onom ic
Ġwhere ver
Ġany more
Ġmax imize
Ġfle et
ateg ories
Ġrest ricted
Ġaud iences
C ode
e ffective
ĠRec ords
ĠT ips
) );
act eria
Ġre ct
Ġred irect
Ġcent uries
2 000
ĠK at
ess ional
T em
ĠR yan
ĠC ut
Hel p
ĠGr ant
p ol
w ich
st op
Ar ch
ĠB oy
Ġc her
Ġ0 2
Ġinvolve ment
Ġ6 2
Ġto ys
Ġpaint ings
e ven
ap se
ĠIm port
Ġc rown
Ġrough ly
Ġce iling
Ġs ink
Ġmir ror
Ġrespons ive
N G
ĠAll iance
Ġsitu ated
Ġh anging
ĠM ust
M ap
Ġextend s
Ġb att
ĠF inal
Ġaffili ates
es y
Ġh ol
Ġmob ility
v ol
Ġtem por
W A
b est
ĠH ig
as hed
un ate
ĠT X
Ġtrem end
ĠN ear
Ġst ops
Ġsp acious
Ġdes erve
Ġhere in
Ġ19 60
Ġh ide
er als
ig e
ab ama
Ġsurround ed
Ġrequ iring
9 00
Ġthe ore
Ġconsult ant
Ġn est
Ġret ired
b ing
Ġtack le
c ook
Ġrom antic
om atic
ĠK ind
Ġend less
Ġdeterm ining
od a
L ife
ĠC art
Ġ19 95
c ery
Ġbase ball
ĠB on
ert y
anc ouver
s ome
Ġtra iler
1 30
F unction
Ġw ake
Ġabs ence
Ġcra zy
im ens
ad vant
Ġdis orders
ĠI F
Ġst ir
ĠS ong
ĠE lement
ĠD ifferent
ĠE S
Ġrecruit ment
Ġmind s
20 12
Ġed itors
Ġaf raid
Ġnation wide
Ġcomput ing
Ġsc al
Ġsurv ival
ist ing
elt a
ing ton
Ġl ibraries
ĠD oll
D B
Ġfr ustr
g t
Ġsymbol s
c r
ĠN ature
K S
x id
is an
Ġdu pl
Ġspeed s
Ġref uge
Ġsm oke
Ġcomp assion
ĠL ux
Ġver ification
ud es
ĠM ilitary
Ġresist ant
ater n
ĠS ant
ĠL ew
Ġd irt
Ġdifferent ly
Ġparticip ated
o a
Ġrespond ed
Ġvict im
Ġd ivers
Aut hor
g ien
Ġspect acular
Ġtra ils
Ch ar
AM E
Ġdo se
ĠC re
Ġb ub
ĠIm ages
ĠSp ot
h icle
P s
Or der
ipp er
Ġcl oth
Ġoptim ize
Ġper mits
Ġ0 9
ad get
P ass
Ġmet rics
Ġcryptocur rency
ari os
Ġorgan ize
uet ooth
in it
App lication
ĠS EC
Ġintern ationally
ĠPrem ium
ĠUl t
Ġencoura ging
ĠR ome
he rent
n on
ĠR os
un es
Ġgener ous
D R
ĠT ennessee
Ġw isdom
Ġh iking
is ure
ud i
Ġany way
xy gen
Ġimpress ed
ĠD yn
N ET
D T
ĠN ic
rag on
Ġbound aries
de v
d et
Ġf iction
Ġres et
Ġtext s
Ġact ors
Ġe lder
U G
ĠWe ight
St rict
Ðµ Ð½
Ġw ishes
ined u
ĠD J
Ġd ump
Ġab stract
St ar
ĠAtl antic
ĠH ills
Ġd ensity
med ia
ors es
ĠW ould
Ġb unch
Ġapplic ant
im g
Ġsp ouse
itut ional
Ġhe nce
Ġv ine
ĠD ark
back s
Ġcru ise
Ġexpl o
ĠTh ink
ĠG ree
v ard
Ġfru its
un ciation
Ġgu ided
Ġqual ifying
Ġsu its
Ġad opt
Ġun iverse
d am
lish ing
m ont
ch a
i aries
Ġover night
cy cl
ĠF ab
Ġincorpor ated
ce nd
sk i
ĠC F
Ġlim itation
Ġ7 8
e le
Ġend e
Ġto ile
Ġrenown ed
Ġg al
ĠEl izabeth
Ġevalu ated
ĠFor um
Ġse vent
re nd
Ġshort ly
ĠBu ff
um m
erv ative
}, {"
h ave
lah oma
Ġ0 3
work ing
Ġco pper
Ġqu eries
ĠB an
Ġshow case
Ġvot ers
Ġj ava
Ġar my
Ġprohib ited
ER T
Ġrenew able
ĠC orn
ĠPart icip
tain ment
pect ives
Ġvot es
ific ates
ment al
ĠGu arant
ot ype
Ġadjust ed
ĠPhilipp ines
ĠPr inc
Ġrelax ing
Ġwalk ed
em b
ĠIS O
ĠW ars
Ġf ails
Ġstraight forward
Ġcustom s
Ġl in
Ã Ĥ
Ġfasc inating
oun ge
ay out
Ġb ands
Ġcor n
Ġac res
build ing
e lect
Ġtown s
t ect
yd ney
ĠAnt h
W ater
Ġadvis ory
Ġt ied
ĠEvery one
Ġ8 8
medi ate
ĠA part
ĠCommun ications
D O
ne red
ĠR and
ĠFore ign
Ġdepre cated
Ġin hib
99 99
Ġe uro
d rop
ĠDav is
ac le
Ġinsp iring
ĠPr ince
AS S
ĠL ot
w riting
S l
Ġc ust
Ġshould er
Ġjud gment
sw er
Ġsubs criber
ĠH E
Ġp overty
ĠParl iament
o bs
Ġprior it
ĠState ment
Ġenc ount
T alk
og ram
Ġsell ers
E lement
ĠP ict
ĠIm pact
Ġoverwhel ming
Ġtechn icians
Ġcy ber
Te chn
Ġprotect ive
Ġf ert
ĠB a
Ġ0 8
ĠFact or
ĠH appy
Ġmar ine
Ġload s
Ġhesit ate
inc oln
Ġaccom p
pt on
oc ate
Ġfl ags
Ġdram a
le e
] )
Ġpubl isher
Ġbe aches
M us
Ġ7 6
Ġconver ted
Ġcur ious
Ġind ividually
bl ock
Ġpar allel
cl ient
Ġwor ship
He ad
Ġpay day
ĠAd ditional
p apers
ĠL i
ĠFollow ing
Ġtrans parency
ĠS ustain
ĠC ooper
Ġcou ples
e xt
rib le
Ġv inyl
c all
Ġmin im
Ġb ass
olit an
ĠJo bs
ul ator
Ġbro ke
Â £
Ġspons ored
ĠB ag
Ġmusic ians
Ġexc ite
Ġe cho
Ġle verage
S ystem
Ġsp are
cre ate
ĠR ES
u itive
Ġdisp ute
P ack
ess ment
pro ject
form ing
old s
eng er
Ġg ains
ĠClass ic
18 0
Ġopp osition
20 10
Ġl y
U K
D iv
Ġobtain ing
ĠRes p
Ġval ued
Ġtour ist
Ġc ognitive
Ġb es
Intern ational
ĠA h
Ġref use
ĠV A
Ġcancell ation
Ġobs erve
ĠM ove
em pl
! "
Ġs ke
um bers
ĠChall enge
Ġb ol
Ġevery body
Ġarrest ed
Ġ18 0
Ġpoint ed
Ñģ ÑĤ
ĠCustom ers
osit ory
ĠB ody
ĠBar b
ĠBer lin
ĠC urrently
1 19
Ġepis odes
Ġtrou bles
M icro
Ġle af
Ġfre el
Ġen orm
Ġle ak
Ġhead ed
ĠG h
Ġagric ulture
ĠTechn ical
Ġaddress ing
Ġr anges
Ġunivers al
Ġphys ically
Ġgovern ance
Ġargu ments
d ale
Ġst ays
S M
em ployment
Ġman ip
Ġrare ly
Ġpresent ations
uck s
ar ound
Ġp ipe
ĠDef ense
Ġch ampion
Ġsn ap
se ction
ĠLead ership
Ġexplicit ly
rim ination
au x
Ġpre st
d itions
B oth
N ational
Ġlog ic
Ġbran ches
Ġsh ade
ĠN ation
Ġju ice
ou st
Ġcomplain ts
Ġsp ins
Ġd ough
ĠReg ion
Advert isement
ain ing
ĠH ur
Ġ1 30
J u
Ġbl ind
ĠVict oria
Ġflu id
ĠAl ways
Ġh ired
ĠCom b
Ġsl ide
Ġcl ip
Ġ7 7
Ġachieve ment
cipl inary
ĠA th
um ing
ĠE ric
ill er
Ġ vel
Ġdat as
Ġun iform
ĠHall oween
st ud
Ġ6 1
Ġsoc cer
Ġb onds
Ġoil s
Ġ ×
d el
Ġshow c
Ġfunction ing
Ġrem od
Ġrep ay
ĠPri ze
St r
Ġf oster
Ġaccompan ied
Ġan ch
ĠM ind
D ue
Ġc er
ble m
ĠP ath
Ġm unicipal
ĠSt ay
Ġto mat
Ġt ires
ĠK it
ĠMar c
Ġspecial ty
Ar ray
ire ments
l ast
Ġcon vin
ĠZ oom
Ġlog istics
qu et
Ġseason al
ĠB udd
Ġre ven
Ġrec all
z one
. </
Ġded ication
"> </
Ġrepl acing
Ġexch anges
ĠT an
ĠF O
Ġsat ellite
Ġlux urious
ĠH P
ste in
Ġp izza
Ġp iano
c ur
Ġsleep ing
ĠB ath
De velop
Ġterm inal
out heast
Ġco aches
Ġcontain ers
Ġharm ful
Ġarr anged
ĠG reg
ĠMiss ouri
h u
Ġcontribut ing
/ >
o vers
ĠQ ual
Ġb one
ance ll
M s
Ä ģ
Ġaccess ing
ĠMeet ing
itzer land
ĠM ess
H er
Ġunlike ly
ig er
H D
d ist
16 0
ĠE C
Ġsp okes
Ġstay ed
Ġpenal ty
ĠE ag
Ġinvest ed
ĠJ ordan
ograph ical
ĠCh annel
Ġmeas uring
Ġch ip
ol k
Ġj aw
Ġpart ial
Ġsens ors
Ġpasseng er
ĠPrem ier
Ġdiam eter
Ġsimultane ously
ĠPay ment
ur u
ĠGl ass
ott om
ail and
r ator
ĠR og
ĠMin i
im p
hest er
Ġhead er
Ġdial ogue
p ool
Ġpre ference
Ġchart s
L P
ot te
ĠMalays ia
Ġp ic
ĠL ind
s ystem
Ġprospect s
li ance
p ire
ick ets
Ġsure ly
ĠSpe ed
Ġwat ches
Ġexecut ed
Ġsurve ys
Ġemot ion
worth y
ĠN ut
Ġsignific ance
Re port
. '
G roup
Ġdist ricts
ĠPer haps
Ġindepend ence
Ġt ube
ĠN A
sh ore
ty mology
ang o
ĠOr ange
ĠRes pons
ĠMr s
Ġsh irt
Ġident ical
ĠHol lywood
elf are
2 20
ro ck
Ġaccur ately
ĠUs ed
y r
Ġback ed
um my
ers e
ol ves
ak i
ĠH u
-- -
Ġl augh
Ġassum ed
ang ers
Ġt we
Ġe arning
Ġre nov
Ġ6 9
Ġh unting
ĠG as
Des pite
ĠDou ble
Ġadjust able
ĠC ulture
Ġviol ation
ĠCl ient
ĠC N
Ġout s
Ġind irect
Ġenter prises
ag a
Ġcry stal
Ġcolor ful
met ic
ĠD rug
m al
Ġs in
ilit ation
Ġorient ation
ia h
Ġpr iced
Ġp ione
in ars
Ġsh orter
ring e
ĠB rian
Ġch airs
ver ages
ĠM uch
Ġvar ied
Ġfe as
Ġcorpor ations
Ġsort s
Ġprov ed
ĠRest aur
cre ts
Stud ents
ĠT rip
Me et
o ard
14 0
ro duct
t ml
Ġ0 7
Ġd ad
Sec ond
Ġanticip ated
ĠEnter prise
le ading
Ġattract ions
Ã Ĺ
ful ness
Ġst em
Ġclin ic
ĠP itt
ĠL arge
ĠSur vey
ing ham
in th
V AC
ĠL iter
Ġatt ribute
ĠD VD
ĠSc ient
Ġsc rew
20 11
w alk
Ġconduct ing
ĠI V
ro it
ĠW as
Ġeditor ial
x ml
ĠM E
Ġconnect ivity
m aker
ĠBel g
ethe less
": {"
ĠUt ah
qu al
Ġb acteria
T ry
place ment
P op
Ġn an
ĠT ruck
Ġsing ing
ĠAd am
Ġmar g
10 8
Ġdram atic
ain e
ĠT ool
d irect
Ġinterpret ation
asc ular
Ġgard ens
Ġdis order
St ay
Ġvol tage
IM E
ĠG i
Ġpro secut
Ġexperim ental
ĠIn fo
Ġunder graduate
ĠS cholars
Ġp aste
ĠSt yle
ĠHer itage
Ċ ĠĠĠĠĠĠ
ĠâĢ Ŀ
Mon th
Ġ9 6
ap olis
Ġdang er
\\\\ \\\\
ĠB esides
rec ated
Ġp ushed
S outh
d on
ĠCommun ication
c alled
Ġ19 94
ĠAl abama
ĠWil son
ĠDI Y
Ġage nda
Ġm akers
rapeut ic
Ġgot ten
ĠAct ive
Ġoverse as
t xt
Ġconsider able
C reat
E lect
Ġt rib
0000 00
Ġfun ny
Ġun subscribe
Ġout er
ĠNet flix
ON E
ĠM ath
ab ases
Ġestablish ing
ĠSol ar
O h
Ġpath s
ĠGal axy
Ġtim ing
Ġpop ulations
Ġ0 4
Ġg reet
ob ject
Ġar ise
Rear range
h yd
Ġmake up
Ġmem orable
osp el
Ġdro ps
ĠCom plete
Ġhand les
Ġhas sle
ĠV ancouver
Ġaccompl ished
ĠCert ificate
Ġlet ting
Ġp ays
ac cess
Ġwal let
pl ant
Ġappreci ation
in ue
Ġprior ities
om ic
Ġsee ks
Ġ7 4
Ġz oom
Ġmin imize
Ã ±
ĠM aking
Ġad mitted
ro ot
h o
ĠG O
Ġcap s
Ġ0 5
Ġhighlight ed
11 1
Ġpu pp
Man ager
Ġtherm al
Ġelectron ics
Ġvar ies
uss ion
Ġ rib
Ġremember ing
Ġsol ving
Ġsc oring
ĠS ug
ĠTur k
Qu ick
ĠBen efits
ord ination
Ġaccept able
** *
ĠDon ald
ĠP ed
Ch oose
Ġst ood
G ra
Ġwat ched
Ġ( )
Ġnarr ative
w riter
Ġm igration
Ġbar riers
Ġreal istic
Ġla undry
z ens
Ġeas iest
ĠM and
Ġmanufact ure
ĠW ire
b ass
Se pt
Ġso ap
v ia
arr ay
Ġ8 4
Ġinstruct or
ĠKe vin
e z
f ind
ĠAd vert
ĠPost s
ĠI L
em ption
m aster
Ġf ed
Ġdes criptions
Ġ7 3
Ġg ross
inst all
r ank
oen ix
Ġadvent ures
v ada
ra q
p op
Ġl ip
ĠS A
k g
man n
Com merce
Ġnot ified
Ġy e
Ġt ired
Ġpollut ion
Ġmin eral
iv a
? "
Ġvac uum
Ġgener ating
ĠKent ucky
ĠB alt
Ġgra des
Ġsw ing
Ġsem ester
E uro
spe ed
ob b
: \
mark s
an ch
ĠB achelor
Ġ10 1
Ġscen arios
ĠM agn
clus ions
Ġmagn etic
Fact or
ï ¸
Ġmy th
Ġ ĊĠĠĠ
Ġw ines
Ġoff line
Ġwal ks
Ġexp ed
ĠHom es
p res
Ġm aker
Ġl oud
AN CE
ĠMill er
ĠU V
Ġcount less
ĠS ab
ĠF ive
Î ±
Ġ9 8
Ġj e
av ed
Ġwarrant ies
ĠPe ace
air y
Ġline ar
ĠEd ge
w hen
Ġ0 6
ile y
AR Y
ĠC ra
Ġexpl os
ask et
AC H
Ġbr ick
P ower
Ġwe ren
Ġpat io
ĠSpr ings
ĠProv ider
Ġorganiz ational
Ġp up
Ġf ake
Ġvar iation
Ġc inem
Ġdis miss
all ow
Ġdec iding
ĠAl ong
ĠCom ments
ĠAl aska
Ġland s
Ġman ifest
Ġwork out
out ube
Ġguarant ees
Ġmotiv ated
m ith
Ġcraft ed
ĠIndones ia
f ont
el le
AC E
Ġco in
Ġpo etry
d i
Ġtrans fers
Ġin her
Ġrun time
us hers
ah a
Ã³ n
Su per
app ro
ĠG A
y les
Ġclar ity
ĠS ix
ĊĠĊĠ ĊĠĊĠ
on ut
ĠO pportun
Ġaggreg ate
ĠIn v
ĠSt adium
Ġpsych ological
M ich
Ġcamp ing
Ġp atch
ro t
Ġc ord
1 22
Ġcabin et
ĠSing le
Ġa qu
Ġpar ad
Ġpre view
E tymology
Ġdis put
ĠOk lahoma
f ish
Ġkey words
Ġser ial
ĠWith in
ĠO tt
RE S
includ e
ĠG raph
Ġmut ual
ĠSt at
1 21
Ġd ive
g reen
Ġqual ities
Ġsudden ly
Cl ient
ĠS ydney
ĠB us
Ġsu ited
Ġsett led
Ġpresent ing
Dep recated
ĠChair man
Ġw ard
Ġoccasion ally
J ob
ĠR ot
Ġs rc
bu ilt
ĠB at
Ġg re
ĠH ousing
Ġtit led
ol i
ĠA qu
Ġcor rel
Ġbuild s
Ġsear ches
ourn als
Cont roller
Ġadjust ments
ac ent
Ġmas ks
Ġpropos als
ĠD ental
Ġvolunt ary
ĠDo ctor
ä ¸
Ġassign ments
r ant
Ġc ats
un ct
Ġt ile
V ol
G S
ĠR at
ĠInd ividual
Ġmotiv ation
he lp
St ream
ĠT el
ĠJ am
in cess
ĠG B
Ġst ones
Ġleg ally
ast ed
Ġdem o
Ġexperim ents
in ction
Ġbur den
ĠS now
C ity
Ġmag ical
ura ble
Ġphr ase
Ġass ert
Ex ternal
ĠBra d
ct ic
Ġpack ing
Ġprom ises
Ġview ers
Ġflav ors
Ġdelight ed
Ġmon etary
10 4
Ġpl ates
Ġlog ged
are t
Ġacad em
Ġce ment
ĠM oh
ĠSt orage
ĠDe ad
ĠC raft
it is
IN T
ĠMus lim
Ġth rive
bour ne
op her
on ia
ĠPlay er
\ ,
Ġdist ribute
con f
V ideo
a ire
Ġcost ly
Ġsett le
g oogle
ĠTechn ologies
el and
ĠBro ther
m n
Ġinflu enced
Ġaffect ing
Ġport s
ĠCan cer
ĠEnter tainment
Ġupd ating
at ches
ke nds
Ġ ..
Ġimpl ications
Ġentertain ing
Ġbott les
us cript
imon ials
Ġpres erved
ĠEx cel
er k
ĠNot es
Ġexcite ment
l ar
Ġc a
form ed
ĠN ative
Ġaccording ly
n ote
Ġcar ries
ĠL ady
art z
ro g
Ġar ising
Ġinformation al
ĠH ay
ĠThanks giving
S chool
cle ar
Ġdent ist
L ocal
w atch
Ġmod es
ru ce
gra d
ic ut
Ġra ces
Ġanim ation
Ġcon secut
Ġclass ical
ĠAr k
Ġreve als
se x
ĠHawai i
Ġpat ent
Ġf u
p ed
wh o
Ġbenef ic
Ġche st
let te
ĠLo an
Ġp ushing
ĠOper ations
Ġfab ulous
Ġaest hetic
Fe b
ard less
ĠStrateg y
â ľ
Ġtra ditions
Ġadvoc ate
Ġcon cluded
ĠOlymp ic
Ġre n
cess ion
Ġeth ical
ac les
J une
Ġin box
Ġd ps
ĠPart ner
A K
Add ress
Ġch urches
RE D
Ġe ager
sp ring
off s
omet ry
r ons
R est
IG N
Ġd ess
ĠApp ly
F E
Ġrecy cling
D PR
Ġex pend
Ġfor ums
ĠIt ems
Ġelig ibility
id ge
Ġassess ed
N orth
Ġsm ell
ib bean
Ġfound ing
ĠK a
oo ps
M W
en c
ĠFriend s
op es
Ġattend ance
Ġh ung
ĠIndepend ent
as ures
ĠS ac
Ġg oogle
Ġz ip
EM ENT
ĠVis ual
ĠMar ine
ĠStep hen
Ġprecise ly
Stand ard
Ġbre ach
ph an
ĠT ools
ĠB O
Ġl i
Ġexhib it
Ġinstitut ional
Ġdestroy ed
Ġposs ession
ĠI ron
T itle
Ġo re
Ġuncertain ty
| |
H ot
Ġc ub
Ġdr um
Ġpe pper
Ġprogram mes
Ġrelax ed
Ġden ied
ant h
is ode
Ġcondition ing
Def ault
M ark
J e
ĠRe cent
Ġmur der
Ġmed ications
Ad v
Ġstri king
Ġemb race
Ġed ited
Ġneighb ors
Ġt ennis
tain ing
g row
mod ule
Ġth irty
ĠCom merce
I Z
ĠL incoln
ĠOx ford
Ġthe atre
Ġelect ro
e fficient
L ong
ĠGu id
Ġspecial ly
orient ed
ĠP ear
Ġb atch
Ġflow s
Ġmach inery
Ġaccomp any
ĠCom pl
Ġo xygen
Ġch ains
w s
Ġbi ological
ĠH ERE
Ġcur ve
11 2
R ight
Ġstead y
Ġs its
ĠRegist ration
Ġcelebr ating
Ġ9 7
ĠD oor
ĠY oga
T I
. *
Ġclass ified
Ġsupport ive
Ġa rom
Ġinte nd
Ġaccept ing
at oes
p ages
Ġb urning
Ġindic ators
ï¸ ı
ĠB h
cl ip
c ost
Ġhaz ard
Ġwel coming
are r
Ġmount ed
fl u
S U
Det ails
Ġsusp ension
L ove
Ġmed itation
Ġfro zen
Ġprem ier
ĠB owl
Ġbeg un
Ġhope fully
Ġcollabor ate
C ent
Ġapart ments
Im port
Ġcon ferences
ĠSw itzerland
ĠK enn
Ġdev oted
Ġth resh
arrant y
Ġgra in
and roid
ĠHealth care
S ty
Ġmed ic
Ġarchitect ural
sc ape
ĠW elcome
Con clusion
Ġcons ensus
âĢĶâĢĶ âĢĶâĢĶ
if act
N ovember
Ġimm igr
Re al
Ġsubscrib ers
Ġwor ried
Ġpers pectives
Ġ19 92
ed d
f ly
ur dy
Ġsc ar
Ġstruct ured
m ate
ĠÐ º
Ġbelief s
Ġpartic les
Ġpe ers
Follow ing
Ġdim ension
Ġlo vers
ĠT it
Ġas semb
Ġcor poration
ĠJ enn
Ġ" "
ĠMon itor
Ġalgorith ms
Ġbroad er
al so
t own
Ġc rop
Ġimpact ed
Ġtour ists
Ġglass es
Ġimm igration
Ġre aches
Ġprof itable
Ġde ployment
ang el
Ġbel oved
ĠCo ach
Ġclean ed
b n
ĠK ir
Ġadvertise ments
Ġdiscipl ine
Ġbe ll
ĠRe quest
â Ķ
m ind
Ġsh aped
or ious
Ġenorm ous
ĠD ocument
mod ules
ĠIntellig ence
Ġjournal ism
Ġv oices
ĠR oll
ĠTh ailand
ĠE c
Ġb in
Ġw age
ĠF irm
ĠDen ver
ant ry
s im
Ġke en
Ġres cue
Ġprevent ing
ĠLook ing
ĠIn n
3 60
Ġt err
N Y
Ġref lection
Ġexam s
Ġmix ing
ĠA B
Ġvol umes
N oun
Ġ3 50
C urrent
am el
ira ble
Ġsepar ated
Ġdiscuss ing
Ġpropri etary
ug s
Ġdyn amics
Ġintellig ent
ol en
au ra
Ġis lands
Ġcomp iled
Ġinform ative
Ġprogress ive
ĠMiss iss
Ġrel ate
o T
ĠJe an
ĠH ung
Ġaff airs
Ġtarget ing
ric ane
ne ver
AR S
e vent
ĠK u
Ex pl
at ial
Ġwithdraw al
sh irt
os ures
Ġsub tle
ens ed
ĠE ver
Ġsol ic
Ġte nder
Ġprotocol s
ĠCor p
Ġcook ed
Ġg em
Ġr ings
Ġbank ruptcy
othe rapy
Ġinflu en
Ġpr on
Ġdelay ed
od d
Ġgro cery
ĠS W
Ġpip eline
c urrent
ĠMaterial s
Ġsp am
ĠB aby
ĠAf ghan
ĠDe pending
Ġven ues
form at
ĠÐ ¸
j e
Ġr um
Ġres ervation
iff s
ad i
ĠOr ders
ick ing
ĠEmer gency
se a
Ġh ood
f amily
ĠCast le
ĠReg ister
ĠThe rapy
ĠV ision
DA Y
Ġloyal ty
n ut
s chool
ĠC rit
u ity
ĠM ix
F R
m i
ion ed
ab lished
ĠRec ord
Ġread ily
E asy
Ġthe ater
om ing
Ġexcess ive
Ġ19 93
ĠJ ay
W rite
Ġtravel ers
in ance
Ġpres cription
ĠC ape
Ġapparent ly
n ie
Ġdil ig
child ren
Ġappoint ments
ĠR ap
Ġb oss
ĠSar ah
Ġmod erate
Ġpl umbing
Res earch
ĠI RS
3 50
f old
Ġupload ed
Ġmet ab
Ġrock s
Ġret ention
Ġbit coin
ĊĊ Ċ
Ġdepos its
Ġag ing
ĠN othing
Ġ3 65
ipp i
Ġvot ed
Ċ ĊĠĠĠĠĠĠĠĠĠĠĠ
th an
Ġconsecut ive
m art
ĠMic hel
Ġgradu ally
Ġse ating
Ġnum er
Ġattempt ing
ĠRE AL
n ames
Ġencoura ges
ĠMat thew
ĠB irth
f il
arm a
the y
Ġprov in
Ġsix th
Ġspeak s
Ġas ks
Ġst rain
Dav id
Ġreflect ed
Ġthe sis
ĠC urrent
ĠM L
D em
ple ments
OR S
M arch
Ġcontact ing
Ġgen es
Ġ7 9
Ġbet s
Ġacc used
Ġdis k
ĠMan chester
', '
Ġam id
ĠSim ple
igin ally
Ġch a
Ġdistinct ive
om es
el i
ĠCir c
Ġregul ated
Ġhousehold s
Ġclos ure
b ul
ĠI raq
ĠW y
Ġbas ics
Ġve ctor
ĠR ules
pl it
ĠPr ices
Ġl enses
â ĸ
W atch
Ġaggress ive
ĠSwed en
Ġbo iler
Ġtremend ous
Ġlearn ers
ĠB attle
V ery
Ġsh ine
a ft
Ġ7 1
ĠHar ry
ĠInte gr
Ġdeterm ination
ĠR ain
Ġconnect s
T w
ĠT arget
Ġout break
Ġh ike
f ox
I E
ĠMult i
ĠS S
Ġtra ce
11 5
Ġindic ator
Ġc oding
Ġshel ter
12 8
Ġs ne
ĠTem ple
ĠS M
E duc
ĠPay Pal
ĠUn like
Ġsold iers
on ge
im ated
reed om
G reen
Ġdepart ure
Ġtravell ing
Ġc ow
im ents
Ġfoot print
Ġh orses
Oct ober
Ġlit igation
u v
ĠM oo
Ġb illing
Ġreason ably
az ines
at ibility
le nd
ird s
on ing
Bu y
Ġenroll ed
Ġse gments
com plete
Ġst d
Ġpromot ed
ad ays
un n
ĠG ate
Ġoff ensive
ĠPar am
sh ot
L ead
Ġstr ings
Ġst ruck
ĠF am
L D
Ġheav en
Ġtow er
omet ric
Ġvalid ation
Ġt ent
Ġres olved
Ġf av
ar ms
b es
umb ai
Ġfree ly
ert o
Ø §
Ġdel icate
Ġc uis
Ġn urse
re tt
h y
Ġrh yth
Ġdo zens
Ġtra uma
ĠCh amber
ĠPol and
L at
Ġinteg ral
ĠG ene
op les
: \/\/
ĠJ osh
Ġstrength s
Ð¾Ð ²
Ġout fit
Ġsa fer
he el
Ġinfl amm
Ġdes ert
Ġins ulation
ut her
24 0
Ġvar ieties
ĠLinked In
Ġcl uster
ĠSt ream
Ġtra ders
T ax
ĠN J
ĠJ er
Ġp airs
Ġe co
Ġdist ract
c ap
ĠGree ce
ĠHolid ay
Ġ ic
ĠC ool
)) **
Ġprote ins
point s
Pl an
ron ze
Ġsmooth ly
Ġbab ies
ĠC ry
w rite
Ġb icy
hat t
author ized
Ġdeal ers
V P
âĪ Ĵ
ill ance
ign ment
OM E
ĠH yd
Âł Âł
ad ata
M onday
ĠTok yo
ĠC SS
ĠF alls
g ie
ĠS ri
B rand
Ġapp le
ĠO cc
ĠO bs
Ġveter ans
Ġblock ed
Ġdocument ary
ĠPat rick
Ġhy gien
Ġsome body
Ġret reat
K now
j u
Ġsuper b
Ġroof ing
Ġrem ed
h oot
Ġbrother s
p read
Ġ19 50
\" \
B as
ĠOr iginal
ĠMan ual
us hes
Ġp our
Ġp df
ĠCar ibbean
U C
ĠLew is
commend ed
on ents
b d
requ ently
Ġclean er
S k
as m
ĠMex ican
Ġdis advant
ĠB arn
ĠB ry
10 3
Ġal ph
r ations
Hist ory
Ġmy ster
ĠF ashion
ĠShe l
ĠSum mit
ĠC hen
ĠMag ic
o ons
us al
ĠB onus
Ġmat rix
St atistics
Ġproport ion
Ġlot tery
Ġspecial izes
ĠHar vard
Ġadv ances
ĠN FT
Ġcitiz en
Ġmus cles
im m
Con fig
ĠProgram s
Ġimpro ves
Ġl ady
ve t
Ġb its
Ġc ush
ĠS everal
Ġb omb
lim inary
v als
ĠBl oom
rop olitan
Ġn ose
r ative
Ġim aging
ment ed
ĠD ise
Ġtreat ing
Ġcreat or
Ġgain ing
w iki
Ġcompar able
pon ent
ĠC AN
ĠSw iss
Ġeduc ate
ret urn
ĠDis count
Ġfavor ites
s um
Ġs chol
W ant
st an
ĠR oss
Ġkn ock
Ġdist urb
add le
Ġst roke
ĠR ange
ĠH A
Ġprom ising
Ġdet er
ou ble
th od
Ġdecre ased
ĠC ars
l u
col umn
ĠT ony
Ġsp oken
s ure
ĠD ave
Ġeas tern
iv als
ag ine
Or gan
ĠB ah
ĠV PN
ĠDirect ors
ĠM as
Ġim plements
ath on
erv ous
apt ers
Ġover look
be at
Ã £
10 2
Ġseam less
Q uality
Ġle mon
ar ity
Ġh al
b en
ĠCe le
In vest
ĠDe ep
Ġair line
Ġint uitive
! [
ĠOF F
mod el
ĠD ak
F riday
Ju ly
Ġdele g
ĠH VAC
ĠCle ar
it arian
Ġprotect s
ĠW ind
Ġconsist ing
ĠEm pire
Ġun pre
Ġs q
Ġappe aling
H R
Ġsome how
Ġheadqu arters
Ġprest igious
In fo
Ġanalys es
Ġt ang
Ġess ays
Ġnav ig
Ġt ension
C ore
ides pread
Ġprofession ally
Ġsl ip
nt il
E v
Ġgen re
Ch ange
Ġbra ce
Ġpar cel
ĠL yn
Ġcol ored
Ġcraft s
ĠBl uetooth
Ġbar rel
Ġadd iction
ĠG PS
Ġh itting
A ust
ach t
Ġhon ored
Ġmethod ology
Ġlaunch ing
Ġbackground s
ĠCons umer
Ġchampions hip
Ġexecut ives
ĠPro duction
re place
ĠGreat er
Ġs ized
Ġread s
ra ul
ĠL if
Ġjournal ist
ĠT ag
ĠAn ne
ĠP ow
Ġfre ight
Ġint ensity
Ġsc iences
Ġhold ers
il ty
on na
C le
itt ers
g ot
in formation
ĠB ab
Ġgrow s
Ġassoci ations
au ge
Ġthere by
ĠR ate
Ġtem ple
Ġg rey
Ġfabric s
ĠD IS
Ġbuild er
ĠB ow
d iff
Â Ģ
ĠF ocus
Ġexam ined
11 7
ĠCor porate
N T
S ur
Ġdetect ed
Ġdis ag
11 4
ĠUr ban
Ġc ited
G L
ĠIt em
ĠHigh way
ĠDisc over
Be ing
Ġ19 91
Ġcompet ing
ĠDiam ond
Ġjack et
ĠCl imate
Ġpass age
CL A
Ġlicens ing
Ġco ating
ï¿½ ï¿½
ap i
Ġaut onom
Un iversity
Ġn iche
ze ch
Wh ite
ĠCh art
Ġmail ing
ĠDes k
Ġimag ination
M at
Ġdat abases
ĠF C
ĠU pon
ĠAnton io
un s
Ġmy stery
ĠNorth west
Ġsub sequently
Ġ8 7
ĠN BA
ov iet
ish ment
Ġ8 6
Ġadjust ment
Ġpick up
Work ing
Ġsupport ers
Ġeduc ators
Ġpres idential
Ind ex
Ġteac hes
Ġcomb ining
Ġpeace ful
Ġpri zes
Ġass ault
g ood
F P
IN D
Ġanc est
om eter
Â »
Ġconsist ency
ĠC V
Ġcy cl
Ġcomm ands
ag an
Ġtreat s
ĠCamp aign
---------------- ----------------
ĠEd ward
iz ers
Ġbe ef
Upd ate
def ault
Ġapp et
rou s
ĠL es
m ay
M obile
Ġre nd
ĠFA Q
Ġcount s
Ġpregn ancy
ĠLa ure
g i
Ġdi agram
ĠDet roit
Ġhealth ier
Ġsp ir
Ġvacc ines
ĠN ob
Ġweb inar
B ase
Ġgener ator
Ġass ists
Ġanaly zed
( {
Ġ8 3
Ġt ropical
ĠF urn
LE ASE
Ġrecycl ed
ĠM ir
Ġk its
, âĢĻ
ĠH an
Ġact ress
ĠF ine
P an
. -
Ġout lets
Ġun fortunately
exp ensive
Ġhand made
Ġsy nd
ĠConnect icut
ĠSub sequent
ĠLouis iana
## ##
N eed
ĠC E
Ġinv oice
Ġpost er
Ġoff ense
Ġcomp elling
ĠPan el
f ocus
r ise
ĠU P
Ġt ar
Ġout lined
ĠTra ding
ĠG M
ĠC os
Ġ8 9
Ġle ver
Ġtherap ist
AS H
( ),
ĠB B
ĠExper t
if iers
Ġto y
ll o
ĠMar ia
ort s
C ap
ar ia
ĠCon vention
ĠL ater
Ġreven ues
ĠR ent
ĠW A
Ġun necessary
Ġgradu ation
ie re
ĠPart s
Ġstream s
ĠCare er
Ġlawsu it
Sept ember
Ġcoast al
Ġh ate
Ġbrows ers
ĠB R
O per
Ġg adget
m and
Ġbook ed
riv es
cept ions
ĠRes ource
for ced
Reg ist
Ġg aps
br is
Ġt une
Ġconf used
ĠU PS
Ġt ear
Ġsh oe
Ġadapt ed
IC K
ĠL ock
ĠP il
p ad
Ġlock down
Ġint imate
Ġacc redited
sec ond
ruct ions
Ġqual ifications
D ist
Ġbase ment
ĠH ence
ĠVict or
Ġcomm od
Ġbe ans
ph ot
ĠO s
com ed
B ER
ĠG ulf
But ton
Ġbre w
n ormal
Ġsh ades
Ġre vis
rit ers
ĠR isk
arn ess
Ġvess el
ĠK y
ĠCO MP
atin um
ĠP odcast
Ġthe rapeutic
k it
A pril
comm on
Ġinfect ions
F ilter
Ġen emy
Ġfin ishes
ĠPort land
Ġgradu ates
Ġrece pt
Ġsub t
Ġre vers
ĠK elly
Ġ14 0
AT ED
Ġown s
ĠD im
Ġassess ments
ĠG R
rain ian
ry ption
Ġvacc ination
ke eping
pat ient
Ġneigh bour
ry lic
Ġinnov ations
Ġinquir y
Ġretail er
ĠIn iti
Bl ue
Ġout let
ort ion
Ġnew er
Ġin hab
Ġorgan izing
Ġproceed ings
sc he
clip se
Ġdemand ing
Ġrefer ring
Ġle nding
Ġsc rap
Ġp it
z o
Ġcontin ually
L ayout
ĠS ay
Ġcert ificates
Ġthr illed
Ġneed ing
es is
ĠB io
ic ular
Ġchar m
Ġad mit
app ropri
Ġwee kends
L ight
h ard
Ġt urb
ĠCo ordin
Ġs orry
Ġmet als
ol ph
ac o
Ġpat ience
am ents
row ave
Ġs lic
Ġtri es
Ġlock ed
Ġok ay
Ġdo zen
Ġpet ition
A f
Ġattend ees
Ġfant asy
ur ate
Ġflo at
Ġpar l
ĠA CC
Ġpress ing
f ix
Sh op
ĠVis a
Ġus ername
Ġdownload ing
Ġ1 15
Ġshel f
ĠMain e
ĠAlex ander
od ium
Ġcar go
Ġweak ness
el d
s ign
Ġwra pped
Ġtoile t
ĠCo ffee
ac hers
Ġhospit ality
Ġc ups
p i
Pro gram
Ġachieve ments
Ġreview ing
Ġrem inder
he ld
De lete
Ġconj unction
Ġo live
le ans
H ost
Ġdig est
qu er
Ġpro x
Ġins ured
E ss
ĠM un
Ġve gan
Pro cess
Ġf itted
n av
b ug
Ġincent ives
Ġman uscript
Ġb ud
Ð ·
Ġmess aging
Ġassist ed
Ġemb ra
ain ts
Ġspons or
ĠB oo
val id
Ġh ill
Ġto ll
re ated
ĠG round
ip her
Ġsum mar
Ġcou pons
ID E
Ġphys icians
Ġvary ing
Con st
ou b
Ġb out
ĠF le
ĠK l
Ġtr icks
ĠTransport ation
Ġdom ains
ĠMet ro
og s
Ġsupp lements
vel and
ĠDemocr ats
FORM ATION
Ġinval id
Ġactiv ate
d ec
chest ra
ĠCl ark
Ġbl oom
j son
? )
ĠTai wan
Ġl ung
Ġw idespread
Ġst opping
ĠFed eration
Ġn ervous
are l
ap el
Ġsh ield
Ġcam ps
atter y
ĠPh oenix
de pend
ĊĠĠĠĠĠĠĠĠ ĠĠĠĠĠ
Ġjun ior
u pload
im ore
Ġm apping
G old
Ġbehav iors
Ġm aj
Ġcomp aring
Ġdecl ined
Ġre imb
ĠH al
Ġcou rage
Ġrece iver
Ġs oup
per t
Ļ Ĥ
Ġsynt hes
D igital
Ġv ocal
n umber
ĠW a
ens ively
ĠHarr is
ĠS end
Ġb rack
ĠCor ps
n ings
ĠCh i
ĠE ve
is p
Ġj ournals
m atch
ĠJ ason
ĠTH AT
Ġdef ensive
Ġw idget
16 8
Ġobs ervations
Ġcirc ular
M ade
o ft
Ġc iv
Ġpractition ers
ig ma
Ġcomp ound
ĠD ance
Ġf ut
10 6
Ġprom ised
oun ced
ĠW ILL
Sh ould
l t
P ORT
ĠD ry
b age
ĠCamb ridge
ĠBe gin
Ġst urdy
ÂĢ Â
ĠV ac
ĠEr ror
Ġr anks
em ploy
S end
Ġp ockets
ĠM essage
Ġcount ies
Ġliter ary
Id ent
Ġj azz
Ġt uition
ĠÐ ¾
ĠAr gent
Ġ198 9
ĠW OR
Ġfl oral
Ġsen iors
Ġign ore
Ġf itting
Aug ust
ĠDe ath
F igure
ĠP resent
r ors
Us ers
ĠAll en
Ġcar riers
Ġex empt
v ens
ĠB rew
Ġt ies
ĠCle aning
Ġvar iant
Ġtransl ated
ĠH um
Ġsched uling
ĠM i
Ġs aves
Ġwind s
Ġprob ability
ĠF DA
next gen
t ic
Ġtransform ed
Ġgener ic
om eters
P ron
cl osed
ĠSpe cific
ĠAnd erson
ab ul
Ġback yard
Ðµ ÑĤ
IC ES
ĠN ik
ane ous
ĠAud io
Ð ¿
Ġunderstand s
ĠRev olution
Ġt iles
ĠN ash
Ġ7 00
UN D
ĠNe vada
Ġun t
S O
tend ed
Ġopt ical
oc ations
ĠB BC
Ġclass ification
Ġkn ife
Ġmole cular
ĠI R
ĠOffic ial
Ġw id
Ġdon ate
Ġg ently
Ġcancell ed
Ġround s
T T
ĠM ine
ĠĠĠĠĠĠĠĠ Ġ
Ġmon u
z an
Ġfarm ing
Ġurg ent
Ġn ail
Ġstri p
le tters
ĠComm and
Ġexplore s
Ġ< <
ul ent
bre aking
Ġsepar ation
Ġfra ction
ĠMay or
D ed
ĠR oc
Not ice
Ġbrand ing
Ġton ight
Ġhom eless
Ġw ages
De cember
Ġpract icing
Ġdisc rimination
ĠBas ic
ic iency
Ġregard ed
P ages
ĠJun ior
ĠĠĠĠĠĠĠĠ ĠĠĠ
Ġremote ly
A I
M aterial
l asting
Book s
ĠR ing
Ġp ension
og y
Ġprev ents
ĠTrans fer
rane an
Ġnurs es
Ġsh ore
Ġalbum s
IL ITY
ĠJ ane
ĠW ant
Ġattempt ed
ĠFe el
ĠVal ent
te chn
Ġg rip
ĠS creen
C ost
Ġthe ft
200 8
ĠAg ent
G en
Ġautom obile
Ġphys ics
Men u
Ġsal ad
em an
he art
at is
Ġz ones
Ġtro ops
Ġdraw s
Ġmagn ific
ig ue
Ġbo ats
Ġsched ules
Ġ8 2
Ġmat ched
Ġconf ront
ĠFl oor
ĠI M
Ġbi om
ĠWhat s
Ġle isure
u its
Ġbar rier
b led
Ġ12 5
im edia
Ġexpect s
ĠUS E
Ġpre val
} );
Ġl ighter
Bel ow
F ace
ick er
Over all
ith ub
Ġ9 4
w ritten
Ġsim ulation
ĠR oy
ĠP ier
Cl oud
Ġn urt
il ers
Ġcell ular
ĠSec urities
ĠF resh
re view
ĠGirl s
Ġpursu ing
ĠS i
An n
onym ous
D an
Ġper ception
Ġpharm aceutical
g mail
Ġavoid ing
ĠW ine
Ġwel comed
ĠR ow
Ġal erts
10 7
Ġeth nic
fact ory
Ġprom o
w al
ĠG all
ĠN ort
Ġin ev
ĠDis play
Ġce re
Ġf er
pp ers
Ġd ict
Ġball s
Ġconst itutes
ĠSa udi
Ġre feren
Euro pe
Ġintrodu cing
ĠM C
ĠS ites
ke e
qu ire
Ġgovern or
Ġwater proof
ĠS ony
Pre ferences
ĠD raw
Ġmoment um
st atus
Ġdraw ings
Ġdon ated
ĠOver all
Ġc yl
ĠR ol
ro be
Get ting
Ðµ ÑĢ
Ġpart nered
Ġbless ed
ĠRe covery
ĠTre as
Ġas cending
AT H
Ġout line
ĠScott ish
Ġal leg
Ġf ur
Ð° ÑĤ
Ġhyp othes
res ult
ĠM B
Ġmin erals
ĠY ellow
Ġlog s
ĠV R
Ġess ence
j an
Ġtransl ate
Ġm ature
s ql
ĠG ab
Ġin sect
ĠRet ail
Ġst raw
f aces
i op
ĠGra de
Ġarriv es
Ġr ush
Ġweap on
m outh
Ġadministr ator
Ġam pl
Ġdev ast
ĠN ep
S an
Ġreward ing
Ġal umni
Ġb ot
ĠPro s
ĠT ouch
Ġcomb inations
Ġbreat hing
ol ar
Ġst abil
ĠLe on
Ġmod ifications
i ov
Ġcompliment ary
ur ring
ank a
Ġemerg ed
ĠCoun sel
iz on
Ġreject ed
Ġcor ners
ced ented
Ġbe aring
ĠC ould
Ġneg lect
Ġprof ound
Ġfoot age
Ġcare g
ĠH art
Ġpenal ties
ĠProf ile
ĠPort al
Ġtra ins
els on
ĠIm m
Ġsk ip
ĠT ower
ĠK al
T im
Ġfire place
Ġactiv ation
Â® ,
ener y
T rack
e u
Ġre de
Ġmodel ing
Ġint rig
Ġfin ances
ĠT a
Sm all
sh ine
Ġin expensive
Ġev olved
Ġmag azines
t wo
i ated
m atic
ĠW AR
Ġfeed ing
A ng
ĠPitt s
ĠH ours
ĠMult iple
os ph
Ġp ig
Ġfundra ising
ĠS MS
ĠC oc
Ġres on
or ph
A ction
ĠP in
Ġgar lic
p ersonal
im ation
ĠMississ ippi
Ġ< -
Ġmod er
ann y
Ġr ational
S un
M aster
Ġcabin ets
Ġdeploy ed
ĠM it
Som etimes
Ġev il
Ã£ o
Ġmaintain s
. \
Ġsuspend ed
Ġcounsel ing
Ġb ikes
rep resent
99 9
U r
Ġgr ay
ĠBet ween
Ġev ident
pl aces
Ġbo asts
Ġexplain ing
Ġsuper vision
Pron unciation
Ġrev ised
ĠMet al
Ġr uling
() );
it udes
Ġdash board
SE LECT
Ġass urance
ec urity
us ers
ĠMor gan
Ġlegend ary
ĠNe cessary
Ġev olving
amp a
Ġhand ful
ĠTreat ment
Ġf ired
Ġw ax
200 9
Th ose
Ġcourt esy
Ġpsych ology
J S
ch air
Ġtable ts
10 9
ĠZ one
ĠY e
Ġco zy
m other
Ġ9 3
Ġm esh
Ġco ordination
ĠG iven
Ġlad ies
osc ow
Ġarg ue
Ġf ridge
Ġtal ents
Inte rest
Ġt ort
Ġref used
Ġdefect s
Ġrad iation
Ġsens itivity
Ġbehavior al
pd f
Ġback pack
F inal
ĠOther wise
Ġh ills
Ġmed ian
ĠS ens
r ust
Ġpros per
iss a
Ġpromot es
he et
Ġworld s
ĠR AM
Ġsun light
Ġelder ly
th ur
ĠR ank
Ġupgra des
ot ing
Ġlic enses
Ġthink s
ĠDub lin
ĠC ell
Cont rol
ĊĠĠĠĠĠĠĠĠĠĠĠĠĠĠĠĠĠĠĠĠĠĠĠĠ ĠĠĠ
ĠWi Fi
Ed it
ĠM umbai
j ack
pa id
Ġthick ness
ĠUnivers al
Ġcl im
Ġ );
pe ople
ĠHam ilton
az ed
Ġpharm ac
land o
Ġtra des
Ġde bris
L ive
ric ing
ĠE R
Ġspons ors
Cook ies
ĠDe gree
Ġcred entials
ĠCh oice
Ġdiagn osed
Ġreput able
Ġj et
V e
Ġd ancing
bers ecurity
Ġsqu ad
Ġshopp ers
. ).
ĠOr leans
ĠIsl amic
Ġg low
Ġprompt ly
Ġk illing
Ġnutri ents
Ġimpl ied
Ġnomin ated
F ore
Ġfol k
in come
Ġmet er
ĠE aster
Rem ember
Ð Ĥ
Ġb ull
ĠRet urns
ĠO P
ow ed
res istant
25 5
Ġsimpl er
ĠG T
ĠV ersion
Ġjournal ists
oc ity
ĠV it
ĠCond ition
Act ivity
ĠD omin
hes ive
Ġlong est
Ġtw elve
Ġindic ating
IP P
Ġcoordin ate
ĠR u
and al
pos ed
Ġforest s
ixt ures
w art
Ġw ing
ĠRe lease
ĠM all
Ġw elfare
Ġpass port
ĠKen ya
Ġperman ently
Ġinter ventions
b usiness
ĠTurk ish
Ġexpect ing
Com ment
Ġauthent ication
ĠB ud
Ġbus es
ig o
Ġspecial ize
ĠL ag
Ġproject ed
Ġo d
ĠW edding
ip es
Ġ16 0
Ġret ro
Cons ider
Ġl obby
ĠNurs ing
er ge
ĠAnth ony
ĠInt el
ĠN ord
ĠB ull
Ġsp ell
Ġadvoc acy
Ġneg lig
Ġ! =
ĠG DPR
US A
Ġcompan ion
Ġ9 2
T ok
Ġt weet
ir ates
Ġpu zzle
star z
C ard
St ore
Ġend ors
ast y
ĠBrook lyn
» ¿
em et
Ġg el
ĠA ve
Ġrespect ed
, '
Ġh ip
l n
Ġste ep
Ġclimb ing
ĠAdvis ory
ĠToy ota
Ġvit amin
Ġfail ing
Tra vel
11 6
Ġen rich
E A
B ay
ĠSum mary
Ġdispos al
ĠD ES
Ġconfig ure
ant e
Ġlog os
ĠIm prove
So ft
I X
Ġany body
Ġlog ging
Ġimm ense
Ġsmart phones
Ġkey word
Ġchem istry
in fect
Ġth umb
is ons
ĠEngine er
ĠLead er
Ġc ure
ĠT ask
ĠB right
ĠM ining
Ġ8 1
Ġ$ \
Ġfun eral
Ġ[ ...]
Ġpredict ed
ĠD elta
Ġ[ [
H C
ĠS oviet
Ġaccept s
raul ic
Ġhoriz ontal
ĠT yp
Bl og
ĠG il
ĠWh it
Ġchar ming
ĠE ffect
Ġrefriger ator
En joy
Ġblock ing
ap or
y y
Ġhome work
Ġd ot
Ġ19 88
Ġenh ancing
ĠS hip
Ġn ick
p ing
Ġsend s
tt p
Ġb orders
Ġst olen
fer red
f ather
p rivate
Ġb ay
roll ed
Ġsurv iv
ĠM asters
ĠQuest ion
l ades
Ġvess els
rec ord
h ill
vent ory
B ig
Ġpart ially
Ġanalyst s
ĠIn sp
ĠM ode
ĠFl ash
ĠAd obe
ĠAz ure
Ġsh adow
ĠO p
am on
ATION S
Term s
Ġep id
ĠFac ulty
13 5
u er
Ġadj acent
Ġmotor cycle
Ġstim ul
Ġ Ñ
Ġprem ises
d ocument
RE SS
ad er
ĠFe ed
Ġnice ly
S al
Ġdecor ative
iter ranean
Ġimm ers
Ġdri ed
ĠO d
ĠClin ical
Ġrest ored
M R
Ġtheore tical
Ġep ic
cel ona
Ġcuis ine
UR L
ub s
Ġs ail
Ġar med
ï »¿
ic ts
Ġhard ly
f ound
ge red
Ġrank ings
Ġp y
ĠCent ury
ra cle
ail ability
ĠX box
ĠD ig
Ġstart ups
ĠArt icles
ell ery
ĠReg ulation
Ġfing ers
Ġsuggest ion
Ġbelong s
l ace
11 8
Ġappear ing
Ġroll ed
ĠP i
Ġtempor arily
count ry
ĠR A
Review s
ĠJ oy
Ġenroll ment
ĠRestaur ant
Ġrestrict ion
Pl ace
Ġemb ro
As k
ĠP as
ĠR ace
r ates
ĠSim on
Ġchar ter
re levant
Ġsustain ed
ĠH op
ER Y
ĠPal ace
Ġst er
ious ly
Ġalign ment
Ġsport ing
edd ings
ĠIN FORMATION
u z
ĠH air
ĠCo al
à ¦
Ġinv itation
Ġroll er
ĠB or
Ġp p
Ġunpre cedented
Ġf ence
ĠSupp ly
Ġdefe at
Ġtem pt
Ġsol ved
Ġl bs
Ġupgra ded
Ġmax im
x ide
ĠC PU
ĠNY C
00 000
Ġmor al
ĠC rypt
ab i
ĠIn come
Ġk g
Ġlab our
Ġfra gr
Ġn odes
s ur
ĠCl inton
ol ine
Ġcompet ent
ĠG ran
ĠS cript
Ġhigh way
Ġfl aw
m ount
T om
st ick
Ġthresh old
Ġsn ack
and o
Ġhe ater
Ġun employment
Ġflo ating
te es
us r
Ġund ers
b ot
Ġdiagn ostic
Ġconf usion
Ġmod ification
ocr atic
Ġdisput es
ĠProt ect
ang ular
Ġpregn ant
com mercial
tem plate
ĠFranc is
Ġsn acks
W orks
Ġcr imes
ut ers
Ġconsult ants
Ġexcept ions
Ġben e
r ine
l en
sp ace
G C
Ġsacr if
hed ral
E CT
c amp
Ġval ve
Ġint ake
ĠSt op
Ġreg ime
it ual
Ġobs ervation
ĠAn imal
st age
ĠA ch
Ġman ages
ro gen
ĠL I
ah oo
Ġrad i
pack age
ĠLo ans
Un fortunately
augh ters
ĠSche dule
Ġnegoti ations
s om
Ġte nds
em ade
Prof essional
R ad
Ġre actions
Ġsl ides
ro le
ĠD R
imens ional
Th ough
Ġint ensive
ad min
ĠJS ON
Gl obal
Ġisol ated
ĠAth let
ĠTem plate
Ġcy cling
â Ĺ
Ġvill ages
per formance
Ġform ing
ĠC itiz
R uss
Ġswitch ing
Mich ael
Ġtw in
Ġst itch
ĠSpecial ist
Ġdiscipl ines
the ning
Ġtw ist
yl on
c ity
Ġen comp
ĠConst itution
ĠD or
ap h
ock er
Ġmain stream
ij ing
ĠD er
ĠS ure
Ġsing les
Ġinc idents
Ġbo ots
play er
ĠT ar
ry ing
dem and
Ġwe ird
Ġresil ience
)) )
Ġpool s
t or
ĠM BA
Ġur l
Al ways
ĠB ear
ĠB ring
ĠB ot
Ġevalu ating
T Y
ĠC ow
ili ate
ol as
Ġche f
anc ers
c am
Ġre novation
ĠAss essment
Ġeconom ics
f ounder
Ġsoon er
Ġconflic ts
ĠGrow th
ĠL ore
Ġenc rypt
h ouses
ru p
Res ult
ber ries
Ġacceler ate
Ġcal ories
ĠCle veland
Ġbl ade
Child ren
ĠAgric ulture
14 4
ĠL oss
Ġu pt
Sty le
ĠK ings
b ank
Ġunder ground
16 5
Ġclos et
Ġmet a
ast ics
ours es
ĠMel bourne
requ est
on i
Ġpot atoes
Ġrob ot
F amily
ĠDe an
ĠP ad
Ġr iders
ĠQ U
Ġflu ct
Ġlegisl ative
Ġcom edy
ĠMoo re
ĠIn cre
11 3
ĠT rib
c ss
Ġcalcul ation
Ġdevelop s
Ġatt ain
l ation
as ive
P rom
Ġf ract
Ġfall en
Ġun ve
wh ite
Ad ditionally
Ġchair man
ĠSt ories
ĠL ane
Ġb ust
Ġhuman ity
ĠE ye
" ),
ĠR acing
ĠSt atistics
Ġb ite
ĠPr imary
Ġbund le
M ac
s erver
Ġwell being
ĠO ften
um atic
Ġ198 6
ĠCert ification
ul in
Ġment or
ĠPre p
T ION
ĠB udget
ĠV ent
Micro soft
ch anging
ĠGet ting
ĠC opyright
ol o
Ġb inary
g on
ĠUk rainian
ĠCON T
Ġstress ful
Ġaltern ate
Ġcer amic
N EW
ĠQue ens
ĠA irl
list ed
ann ah
Ġoptim ized
ĠExplore r
od s
Ġin herent
ĠT ut
T D
rupt ed
Rec ent
ĠT ik
Ġic ons
Ġtravel s
IS S
Ġdem ocracy
Ġinflu ences
Ġac ute
ĠB eng
Ġrefer ral
am ins
Ġval ley
Ġhere by
He y
Ġpick s
Ġbene ath
ĠMort gage
Ġapp ra
ĠSc ore
an cer
Ġg ut
Ġpubl ishers
ot ional
in v
ant ity
a is
T M
Inst all
Ġearl iest
CD ATA
ent ry
ren a
Ġcheap est
Ġpa ired
l ang
Ġm g
ĠðŁ ĻĤ
ĠM atch
âĢĿ ).
ĠHig her
ĠPal m
arn er
ĠKnow ledge
ĠU AE
emet ery
ĠB uck
Ġne at
w ick
l ied
Ġrout er
Ġgu ilty
Ġmac ro
17 5
Ġin acc
in f
Ġsell s
Ch ina
Ġcompet itions
Ġfund ament
ĠV erm
Ġacc ent
US D
ĠPub lishing
Ġcreat ors
im ony
Ret urn
id ates
ĠC zech
ãĢ ĳ
Ġobst acles
Ġbreak down
ĠF lex
m ad
In put
ĠB ush
Ġtrans mit
ĠD river
T uesday
ĠS ud
Ġdisc ont
Ġ9 1
ĠR idge
Ġdest ruction
Ġb ree
Ġconsider ations
Ġp ine
Ġanaly tical
Ġproceed s
Ġr ides
Ġsurve illance
Ġ __
Ġh arsh
b urn
ĠComm ons
ĠPol ish
ĠAl t
ĠSh an
Ph il
Ġpe nding
Ġh unt
ĠCommission er
Com plete
ĠUl tra
ĠPro perties
ug g
ĠAnd re
Ġcharacter ized
ĠC her
ĠPro gress
os ity
O ption
Ġrelax ation
Ġc af
Ġinvestig ations
2 10
op ed
Pr int
ĠH onda
ĠCharl otte
opt ions
Ġbath rooms
Ġhe al
Ġl amp
Ġactiv ated
FA Q
ĠF ish
Ġpast a
ĠE P
C r
= {
ĠT es
Ġpur ple
ĠSwed ish
ĠC old
Ġclick s
AB OUT
à ¥
it ime
Ex ample
che ll
Ġ& &
" />
Em ploy
ĠV in
Ġtim eline
Ġfor k
Ġwh is
Ġpre liminary
Th ursday
Ġcap ac
Ġident ifiable
Ġenthusi asts
em ies
Ġanaly zing
Ġun used
Ġmount ing
Ġinquir ies
f und
Ġviol ations
Ġcoc onut
Ġhe m
l on
ĠInd eed
ke ep
Ġsecure ly
Ġsynt hetic
Ġrecord ings
Ġcharacter istic
Don ald
Ġpip es
Ġconstra ints
ĠF IN
17 0
ĠBu yer
ie ces
ĠDak ota
Ġland l
Ġwholes ale
ĠLeg isl
ĠBeaut y
() )
u ke
cl ose
Ġhe ated
Ġth rown
Ġadvertise ment
ĠB L
Ġbu gs
ĠGra duate
Ġext ensions
Ġast ron
ĠW olf
ĠD iet
al ph
rell a
b rand
br aska
Ġrefund s
ĠB urn
Ġb achelor
ĠV oice
Ġc ache
Ġrenew al
ĠRegist ered
ĠMe anwhile
ĠN ULL
ex per
Jan uary
ĠG a
Ġdisappoint ed
s cope
ĠNews letter
Ġcomp ress
ĠSk ills
qu es
ĠCom ment
u ana
ĠD ra
Ġdram atically
ĠC red
Ġj ar
ell ers
Ġauthor ization
$ $
im ity
k ens
ne ath
iv o
ĠGuarant ee
L ow
Ġswe at
ĠM oscow
Ġgr ill
Ġ10 5
))/( (-
ĠBl ood
ĠR oof
roph y
Ġann oy
Ġbet a
Ġforgot ten
Ġdocument ed
l anguage
Ġle an
f ill
M edia
Ġresearc her
Ġd ated
Ġrespond ing
ĠH em
ie v
ĠCent ers
Del ivery
O k
F ire
f i
ern el
Ġf oss
m ake
t ops
Ġout look
ĠR S
ĠOther s
ĠNAS A
qu is
Ġrep orter
ĠRequ irements
n ode
19 0
Ġdes per
200 7
_ {
ential ly
ĠEx cell
ĠĠ Ċ
al g
Ġsurg ical
ag ar
ĠApplic ations
ic hes
Ġblog ging
dis ciplinary
Ġcan nabis
Ġrail way
Ġingred ient
Ġcro ps
b us
Ġloc als
M ag
Ġ198 7
Ġinput s
Ġra cial
Ġp iv
ĠExt ra
ag ger
cc a
ĠJud ge
Ġass ure
ch ant
ĠG ov
Ġassist ing
in ite
Ġdemonstr ates
Ġdial og
ĠBeaut iful
ĠDe al
ch i
S aturday
Ġscript s
Ġelev ated
m us
ful l
ather ine
Ġped est
ĠDu ke
ĠO w
Ġdevelopment al
act iv
Ġsche mes
V ar
ĠC ategory
Ġsh ifting
C urrently
Ġwarm th
Ġdeliver ies
W ednesday
n atural
ĠNor way
ffic ial
our cing
Ġin aug
Ġl id
Ġse crets
H E
iz ard
Ġabund ance
Ġl ug
Ġsurround ings
S ervices
Pl us
Ġcy cles
12 6
W indows
Ġworth y
there um
Ġsour ced
Ġro d
al one
CO M
b oy
ãĢ Ĳ
n i
Ġimp osed
Ġfl ip
ĠH IV
ĠMe chan
M c
Ġmem orial
GB T
Ġsim plify
Ġprivile ge
Ġparl iament
Ġposition ed
ĠMed iterranean
ĠâĢ İ
add y
ch ing
Ġconfig ured
CO VID
F ood
c ategory
Ġdecor ated
Ġquant ities
ĠK han
ĠWe e
ĠMain tenance
rat io
ĠL uck
ĠF reedom
Ġmagnific ent
ograp her
form er
Ġcry st
ĠBalt imore
Ġcon ce
Fact ory
ul u
Ġper ceived
b at
om i
Ġcent res
Ġqual ification
as is
Sum mary
iv est
ĠProgram me
Ġcom ic
Ġabandon ed
Ġs ons
ib les
ru ed
Not es
Ġf ancy
R ow
Ġ12 8
Ġdefect ive
in itely
Ġeduc ated
lades h
ĠD rop
she et
Ġw ool
Ð¾Ð »
Ġback ing
Ġra c
ĠEconom ics
ĠS alt
Ġrent als
ed ed
ĠInd igenous
Ġon board
Ġch amber
ov able
Ġche er
ĠR oute
ĠU C
ĠS olution
Ġfar ms
c ert
Over view
er ial
Ġdiscuss es
ĠG aming
Ġimport ed
Ġamend ed
Ġhydro gen
ĠCamp us
ĠC P
Ġpro pose
IG H
Ġfriends hip
ĠB oot
ĠV IP
l ibrary
ĠCo in
t ax
Ġh ockey
Ġmind set
ĠL oad
Ġout reach
ĠJ ess
Te am
ĠS L
ĠSU V
ocu ments
Ġsh ifts
ĠCl aim
ĠAcad emic
Ġ* /
b rew
Ġrest art
Ġsafe guard
oy d
ĠSw itch
ling ton
st d
ĠNever theless
Ġbur st
Ġg ig
ĠRepublic ans
Ġelement ary
d isc
Ġtox ic
ĠA BC
Ġapp liance
7 50
Ġbra ke
Ġjud ges
Ġconsum e
Ġvari ants
Ġarch ived
ys ical
Ġ19 85
A U
Ġdel iber
Ġphenomen on
Ġappro ve
Ġdes ires
Ġmiss ions
st ration
Ġcontroll ing
Ġsh ar
] :
Ġar c
Ġencount ered
Ġbi as
Ġbegin ners
s i
r imin
Ġtrans cript
Ġdiscl aim
Ġint im
ĠP erm
E U
Ġindic ation
sec urity
Î ¿
ĠJ O
Ġrot ation
Ġgrat itude
Ġcircul ation
Ġrecru iting
Ġbul let
S ite
ĠPoint s
ĠAl i
Ġstory t
craft ed
l arge
Ġrecre ation
Ġisol ation
Pres ident
ĠF u
p owered
Ġch apters
ĠO ption
P aul
ur i
Ġin cl
Ġfeas ible
Ġinvestig ated
L im
Ġam bit
Ġnews papers
ĠTe acher
ĠDise ase
Ġrep ository
Ġcur tain
Ġoccas ional
âĶ Ģ
Ġcl ay
ĠL am
Ġprec aut
Ġri vers
ĠD est
ĠStud ios
Ð ¹
Ġsm oking
Ð° Ð½
s v
Ġav iation
Ġfort unate
Ġendors ed
link s
im ages
hav ior
om as
36 5
ĠCh at
Ġbench mark
ĠSing h
Ġdeb it
ĠArt ist
Ġ{ {
Av ailable
Ġnation ally
ĠMc K
Ġbrok ers
ĠCR M
ris k
Ġy arn
l an
Ġpursu ant
Ġdro ve
Ġsurv ived
Ġdon ors
Ġo z
ĠCapt ain
Ġste re
cont rol
Ġinstall ations
Ġconf using
Ġexpl ored
Ġveget able
al ia
Ġbo oth
Ġquot ed
ĠO UR
ĠPitts burgh
Ġplant ing
app lication
ĠSt atus
ĠM T
C RE
ica id
f are
ĠF igure
on line
Ġel ite
ĠD ent
ĠP urchase
des ign
st ory
Ġsynt ax
ar ium
"> <
ens ation
ing o
Ġtravel ed
Ġcritic ism
0000 0000
Ġmuseum s
ab a
ĠR ather
ĠAr ray
ĠIn it
oub ted
Ġphr ases
ĠB rid
ÑĤ Ð¾
ĠSn ap
ie val
ah o
Ġfinancial ly
ĠAfghan istan
ĠPack age
Ġm ice
ĠIniti ative
Ġmulti pl
hatt an
13 6
Ġcool er
cul es
om er
OR Y
d at
ĠC ards
ide os
L iving
ind i
ist ically
ĠOlymp ics
Ġcust ody
Ġbelong ing
ĠH ad
c over
Ġneighborhood s
Ġ198 4
we alth
ĠAirl ines
Ġph ases
ĠHe at
or ic
ĠL em
Ġtail or
Quest ion
H O
Ġan th
Ġcalcul ations
Ġcon vention
ĠPhys ical
Ġter rible
Sec urity
Ġcar p
Ġrad ical
Ġbar g
at ched
OR D
ĠL ocated
Ġcle ans
} ;
st ation
ĠSub s
ĠOr lando
Ġfert il
ron ics
and ra
Ġb ou
ĠSt ra
ĠD ragon
Ġpen et
20 23
ĠTe ams
ĠĠĠĠĠĠĠĠ ĠĠ
Ġn it
Ph ot
ĠRead y
25 6
appropri ate
ĠA pr
Ġabsor b
Ġl over
ĠCons ent
ĠWhe el
opp er
ĠF ant
ec onomic
Col umn
ink le
Ġstat ically
Ġc ables
Ġrepl ica
22 5
Ġv ig
ord on
C y
ĠArk ansas
Ġimpl ies
ĠBe yond
Ġhol istic
: -
Ġpack s
ĠR ick
Ġstrugg les
B N
id el
Ġking dom
Ġe ars
Ġshare holders
Ġplug ins
Ġthank ful
ir atory
af ood
Requ ired
Ġel abor
Ġequ ation
Ġoccup ied
ĠL iver
ĠAssist ance
Ġ1 14
col lect
ĠPh ase
Ġoccur ring
R ich
ĠE ST
ins p
Ġtri ple
Ġtast y
IM IT
Ġyear ly
ij uana
Ġbre ed
Ġtrain er
ĠStan ford
Ġstress ed
ĠBar celona
c ient
ĠMov ie
rop ract
Ġport ray
ĠPu erto
Ġsuper v
Ġv iral
Ġriv al
UL T
Ġpo em
Ġimp r
2 30
ĠG ib
ĠS AP
ĠA CT
ul ative
Le vel
ĠE sc
Ġthe ories
ĠMc G
Ġseem ingly
Ġbi ology
Ġresearch ing
12 7
ĠM I
d ig
Ġliter acy
ĠE D
DU CT
ĠMO RE
Ġlog ical
Ġdecl are
ĠChrist ians
Ġl ounge
S che
ĠPh ill
Ġeth ics
Ġbare ly
ĠSp ons
H ub
Ġenvironment ally
Ġpaper work
v ation
ount ain
Ġassemb led
et o
S am
Ġrefresh ing
arl ier
Ġmed al
Ġtouch down
ĠI BM
Ġrepresent ations
ĠA y
ron es
Ġto kens
Int roduction
Ð¸ ÑĤ
Ġhygien e
ier arch
Ġdiscl osed
Ġdis charge
Ġex cluded
k h
S unday
Ġcand y
ĠB apt
c f
ĠWalk er
arr ings
ĠGra ce
ĠF an
Ġpra ise
Ġfest ivals
ĠDep uty
ios ity
Ġinv iting
Ġtim eless
Ġsent ences
Ġher bs
Ġthread s
oubted ly
Ġorgan ised
Ġp ose
he at
Ġt el
Ġmathemat ics
ound ing
ĠHow ard
ĠE L
Ġeng ra
Ġcons ervative
ĠNig er
Ġsuggest ing
ĠS K
j ud
ĠÃ ¢
ip h
Ä ±
ĠS weet
Ġcounter part
ĠPortug al
Ġass ort
im en
re nder
eral d
Acc ount
Ġj ail
Ġa ug
ias m
Ġname ly
ĠA id
abul ary
H ouse
nd ant
G ET
ĠInstall ation
Ġambit ious
r ating
p he
rolog y
ĠBe ck
Ġbe verage
Ġconsider ably
if i
B i
ĠPark s
ĠW rite
b one
ffic iency
g ration
S W
du e
Ġun authorized
Ġj ury
Ġdescrib ing
C ert
4 50
Ġgl oss
TH ER
Ġdef ines
ĠPlay ers
or o
Ġalign ed
Ġrepeated ly
ens ing
low er
Ġr ally
ĠR EC
AR K
Ġgl ory
ĠA V
Ġw ings
sh aped
Ġenc ryption
ĠÐ ´
Ġrequest ing
Ġsubsid iary
Ġtast es
Ġkne e
Ġrev ision
ĠR ab
pt ic
C ategories
requ ired
Ex cellent
Ġun p
ĠTh ai
Ġte ens
l ab
ĠS ession
Ġlast s
ĠD ur
ul er
Ġg est
we g
Ġh arness
Sm art
Ġb ases
t arget
Ġendorse ment
se min
Ġathlet ic
Ġdiam onds
200 6
Ġcomp atibility
Ġdist inction
was her
Ġm art
ĠBe at
ĠBe ijing
oust ic
eli hood
ĠCost a
Ġp ars
Ġdist ancing
ĠO ri
ert ation
ir s
ĠS el
Ġsyn chron
Ġhar ass
ĠG U
Ġpres cribed
ap ache
ick ed
Ġadvis ors
ĠZ e
ix els
b ridge
ĠSt ars
er on
Ġtum or
B T
Ġsu icide
Ġadministr ators
Ġshort age
Ġscholars hips
Ġv ou
Ġen act
ĠCompet ition
Lear ning
Ġ> >
back ground
ĠResp onse
or iginal
Ġclaim ing
b ian
ate ur
Ġsecret ary
Ġship ments
ed e
Ġfac ial
Ġf ires
Ġcou pled
P rior
Ġtra ded
em or
Ġcur ated
ĠF ig
ĠSt age
f y
el ong
Ġm ud
Ġcross ing
Ġf are
ĠIn side
Ġpull ing
ĠF E
unicip ality
ps hire
Ġconcent rate
ĠAn na
Ġthere of
Ġst ating
Ġtutorial s
ĠVe hicle
ĠTe a
Ġrec overed
Ġad here
AN G
ĠMan aging
t mp
ĠClin ic
op ic
C redit
........ ........
Ġatt raction
ĠP ul
Ġtechn ician
cont act
Ġcomprom ise
Ġmer ge
art en
Ġ$ (
Ġpay roll
Ġrom ance
Ġport rait
Ġth ro
Ġban ner
ew orks
ĠMar g
Ġint r
Rec ently
Ġg host
Ġdress es
Ġse aled
Ġb esides
ĠWe ather
ag u
Ġrecommend s
Ġreported ly
Ġm ira
Ġd ownt
ard o
Ġill umin
Ġt att
Ġa ver
Ġir rit
crib e
Ġrecip ients
ĠL ower
ĠS outheast
Ġsubstant ially
12 9
ĠA WS
Ġvirus es
um ble
men u
ĠS oul
R ob
ĠAd visor
ĠMon te
ĠS pect
Per formance
Ġnom ination
su ccess
Ġter rain
ĠPhot ography
Ġgram mar
ced es
Ġst adium
ĠX ML
f ive
ar o
Ġper pet
Ġpersonal ize
Ġsle ek
Ġ1 17
Ġunder neath
ĠProcess ing
Ġh obby
aw ays
Ġinters ection
Ġcompr ised
b ling
ĠR T
Ġconvin ced
Ġnews letters
Ġpre g
Ġadvert isers
Ġmic rowave
Ġdeterm ines
d ict
Ġtrust worthy
ĠM illion
3 20
Ġwarm ing
Ġiniti ated
Ġadd itions
itt y
ĠC ertain
Ġrecogn ised
ĠPl ans
Ġdeal t
Sh ort
er red
ĠBelg ium
Ġmus h
Ġrecre ational
ĠDoll ar
Ġattract ed
ĠM aps
ell ar
Ġsevent h
ĠUs ually
ĠPre vention
Ġp ear
ĠNe braska
Ġanim ated
u ctions
Ġ1 13
Ġdry ing
We ek
w ind
pro file
C opyright
Ġt ale
Ġs isters
Ġcount ing
ĠS cre
List ener
Ġgovern ed
gl as
Ġtact ics
ĠMad ison
ĠP y
ĠAc cept
Ġsun ny
an cies
ĠD ress
ĠT ab
Ġre ass
In it
ĠI oT
val uation
Ġterm ination
Ġnovel s
Ġexpress ly
b oot
Ġrespond ents
Ġbal con
ĠPer iod
ĠP ink
f ood
ĠF ee
s ale
l aim
": [
Ġinflu ential
Ġdomin ant
ed ar
Th read
l ies
Ġlandsc apes
ĠProject s
Count ry
ĠL ad
Ġst om
at able
form s
Ġg auge
Ġcontribut es
S il
Ġ19 20
ph ony
ĠK am
Ġarriv ing
ĠS N
ur ations
ĠB os
g allery
Ġcl ause
oc y
Ġl ined
ĠAd just
F ast
Ġover head
J ames
en ame
Build ing
ĠW arranty
Exper ience
Ġattach ment
Ġcommunic ating
as ma
Ġste ering
Ġgo ver
ĠR ule
ĠRem ote
ĠDesign er
em n
C amp
Ġcoll ision
ap a
ĠArchitect ure
ust ers
av al
ĠFire fox
Ġline up
see ing
ĠM AT
Ġten ants
ĠPal est
Strict ly
Ġshel ves
Ġmusic ian
Ġprofessional ism
ĠOwn er
ol s
ï¼ Į
ues e
Ġaw a
Ġal tered
ĠDesign ed
dis play
Ġaut umn
ĠSp a
redit ation
Ġcomp ounds
old er
D ifferent
D epend
lev ance
rag ment
: /
ĠCap it
red ict
ĠT E
Ġpremium s
qu are
J ack
Ġco inc
ĠN ich
ĠW onder
et ics
!! !!
ou lette
Ġmerch ant
Ġgl oves
Ġillustr ations
Ġhum idity
W ould
ator ies
c reat
M embers
Ġd airy
ĠP ool
B it
f ramework
r ish
Ġrel ates
ĠE UR
Ġrehab ilitation
m ill
Ġ1 19
Ġcris p
ell i
Ġinvestig ating
Ġprogress ion
Ġfear s
Ġ1 18
L I
ist ence
Ġpolit icians
Ġbegin ner
ĠG P
est ed
Ġbr ide
R T
force ment
ph y
gh ai
N ever
Vis it
ĠF it
ĠConsult ing
ec ome
ĠP ER
Ġmult ip
Ġspread ing
Ġarbit ration
Ġwh it
ĠP ART
Ġair lines
ĠH ud
Ġtax i
Ġv iable
overn ment
Ġdecl aration
Ġcal c
ĠF ly
Ġcomp ile
J o
Ġdisplay ing
ĠTest ing
Ġhand ed
Ġfem in
Ġnob ody
Ġr itual
ĠSh a
Ġextend ing
Ġin con
Ġpen cil
Ġ ĊĠ
Ġbur ied
Ġrandom ly
B ank
Ġminor ity
ott age
12 4
ĠO racle
Ind ia
AN S
Ġinter val
n ai
$ .
Ġplant ed
Ġup s
ĠP E
ĠP ant
ĠMount ains
end ed
he tics
ow ing
Ġp ython
ut ory
Ġblank et
ĠProv ince
EN CE
Ġto ps
Ġ1 16
Ġcalcul ator
Ġearth qu
i w
ĠW W
! ).
Ġ1 21
Ġappro aching
Ġmar ble
ul ly
Ġincent ive
Ï Ħ
Ġsub missions
Ġpredict ions
Ġclear ance
Ġde ar
und le
Art icle
ĠRe ports
ĠBr un
Ġreimb urse
Ġsubst ances
Ġconscious ness
Ġretain ed
Ġrel atives
Ġconst itu
ĠT un
Ġdr one
Ġmet all
par am
Ġchar itable
ard ing
Ġ2 40
I RE
l ad
ĠH ug
am ine
Ġarg ued
ĠMor ning
Ġqu iz
Ġse wing
H P
ST R
Ġcor rection
ĠRe venue
Ġtun ed
in ition
Ġappropri ately
ern ess
Ġdef ining
ad ows
Ġdeb ug
Ġlect ures
Function al
" },{"
Ġenthus iasm
ĠD M
A ud
Ġaccount ability
o j
Ġsum mit
Ġcont amin
ĠAdvert ising
o il
ĠAlbert a
Ġmod est
Ġhe d
ĠWh atever
am ination
Th ird
Ġdecor ation
Ġgener ates
St atus
, ...
ĠM Y
Ġsil ent
B ro
c ondition
Ġst rap
Ġdro pping
g ro
Ġpe oples
Ġhighlight ing
Ġroll s
M art
Ġh tml
Ġref ined
unt u
Ġacknowled ged
AM P
ang a
Î ¹
Ġten ant
ĠIde as
US E
B D
Ġt ones
Disc over
Ġly rics
Ġviol ent
Ġel astic
ac er
ĠApp s
Ġquick er
Ġnecess ity
" ."
Ġtrans mitted
Ġ1 11
J ul
Ġadapt ation
Commun ity
m g
Ġafter wards
Ġl es
Ġunique ly
ĠMad rid
Ġwhe at
anth rop
Ġcompl ications
Ġd iver
ĠSte am
Ġcr ushers
Ġde put
Ġdress ing
Ð½ Ð¾
14 5
ĠSh opping
ĠVeter ans
Ġmem b
ĠMed icaid
Ġcons iders
ĠB A
as a
sk y
Ġconsum ing
us ive
II I
ĠCy ber
ĠExcell ence
ver ter
ĠAust ria
Ġchalleng ed
ĠBang ladesh
ĠC ultural
heim er
ac co
ĠGh ana
Ġam ple
Ġd ense
Ġgr asp
l ier
; "
d ra
ess ed
emb ered
ĠAnd y
ĠB ond
ĠON LY
Ġprompt ed
Ġne ur
Ġlim iting
Ġt ong
H appy
ĠCirc uit
F rame
ĠB ou
a que
cl oud
out ing
ri k
Ġdistingu ished
ĠHistor ical
ke ys
ĠMen u
Ġre fe
op ter
Ġm os
ĠC rown
ĠManufact uring
ĠIsl am
ĠFact ory
Ġmort ality
ĠChampions hips
h h
Ġexpress ions
v c
ĠRepresent atives
Ġadminist ered
Ġwa ist
Ġgam ers
Ġaccommod ations
ĠC rack
Ġj am
Ġpositive ly
Ġch rom
Ġ **
Ġtre k
ĠArab ia
ĠF er
Ġb ind
N one
ster dam
ĠEx hib
ĠCir cle
ĠJ oint
ĠV AT
IS H
Ġr uled
Ġrele asing
Ġl ately
Ġ10 8
Ġpain ful
A lex
Ġm eth
P arent
ĠD atabase
D im
Ġpro l
Ġdistingu ish
Ġgreen house
focus ed
Res ults
Ġlect ure
Ġwarn ed
Ġhor ror
Ġint ric
C M
Ġvan illa
ĠF itness
Ġst ew
Ġlif ting
ĠIn j
am an
comp atible
ford able
n um
d ie
L ength
Ġd aughters
reg ular
Back ground
Ġdes erves
Î ½
Ġ1 22
Ġoff shore
Ġthought ful
an ium
ĠS und
De v
bs olute
ĠList ing
ĠP ump
Ġcompr ises
Ġlik elihood
ĠH at
ĠM erc
ĠGard ens
ĠAr c
Ġgover ning
des cription
Ġinform al
t ry
Ġrender ing
B r
Ġl akes
ĠON E
Ġpo et
ĠJ en
ex ample
Ġcos metic
Ġassum ptions
Ġbuck et
Ġsil k
Ġt anks
Ġdownload s
intend o
oc hem
J apan
In cre
Ġ15 00
ĠOut look
se en
Ġunw anted
Ġmechan ics
ĠR ating
ĠÂ §
Ġlic ence
im eter
F il
ĠLaw rence
It ems
ĠL akes
Ġdies el
Ġh int
ĠHistor ic
olog ically
Ġassoci ates
Ġl iver
s a
OS E
ĠC M
it ored
Ġjo ins
Ġfig ured
Ġcompl iant
Ġappear ances
ĠS leep
oura ge
Con f
ĠInter ior
Ġx ml
Ġinhab it
ĠMan hattan
ĠLet ter
Ġcloud s
Ġf isher
Lat est
v it
Ġcor ruption
ĠAnt i
ĠTe aching
ge nds
p rom
ĠC RE
Ġ 000
13 7
s al
Ġuns ure
Ġto ss
Ġ Å
Ġ2 20
ĠD A
Ġdef ence
ĠM ental
as i
Ġmon itors
Ġb aked
on nect
Ġbe ings
ĠJ azz
Ġansw ering
Ġcomment ed
al ities
Ġ10 4
Ġst ove
ĠHot els
L aw
F ort
Ġcle ared
Ġcomment ary
Ġcl ips
ĠCl ose
Ġ19 30
C ase
Educ ation
comfort able
Ġcand le
ĠRes ult
Ġd iving
ĠAsk ed
ĠStr ong
ĠÐ¿ ÑĢ
qu o
ig a
Ġbuff er
Ġasp ir
Â ´
Ġeconom ies
Al tern
ĠIsrael i
bor ne
Ġpharm acy
ĠScholars hip
Ġcapt ain
Ġremind ed
ĠO UT
Ġs ung
Ġquant um
ĠCoordin ator
Ġtrick y
Ġdr ill
any on
Am ong
Ġprox imity
Ġac rylic
Ġident ifies
Ġut ilities
Ġ198 3
Ġdes irable
ros ion
F requently
19 9
Ġp ond
ĠD B
ĠL ex
Ġslow er
re ck
ĠL isa
ĠRem ove
ĠEp isode
et a
Ġdry er
in du
R ober
Ġcreat ures
ĠVol unte
ĠG ary
Ġintrodu ces
Ġinstruct ors
Ġpray ers
ĠN i
Div ide
ĠB MW
Feb ruary
Ġfound ations
F un
f our
is al
ĠB erg
Ġsimpl icity
ĠIn cludes
iss ance
Ġo ak
W in
ĠSustain able
ON G
ĠFrank lin
re port
Su pp
Ġselect ions
Ġhad n
Ġquant itative
ĠP un
Ġd ictionary
ĠW at
Spe c
ãģ ®
Ġev olve
Ġdefin itions
C ong
ãĢ ģ
ĠO EM
get ic
b ie
b ably
pl ot
ĠR F
Ġnot ing
Ġbe am
Ġimp air
Ġwor ries
Ġsun set
Ġcomm issions
ĠH i
Ġag rees
Ġrep et
Ġcent ered
ĠD al
Ġtra ditionally
ub a
W omen
ĠH ans
Ġsp atial
Me anwhile
Ġinject ion
G ive
ĠA le
Ġcon greg
ier ra
w heel
ov o
ĠC ream
ĠDel aware
Ġbu zz
Ġsc ent
ment ia
ĠHam pshire
Ġregister ing
Mus ic
ĠPolit ical
u ations
Ġinfect ed
Ġpred iction
ann ers
St ation
Ġcomfort ably
ĠT aking
ĠF al
Ġut most
amb oo
O pt
Ġcontrovers ial
NOT E
ĠSub ject
m el
Ġtr ay
Ġmil estone
14 3
ĠStart ing
. ),
Ġincur red
ĠBuff alo
Ġgun s
EN S
ĠRuss ell
Ð¾Ð ´
Ġ198 2
ic ting
Ġacc laim
om o
Ġaccount able
Ġposition ing
ĠS F
out put
mind ed
Ġharm on
Ġpers u
Ġv o
Ġd irty
ins ula
ps y
Ġunder go
ĠHun ter
M aking
so ever
G od
Ġadvoc ates
Ġstri kes
Ġpro xy
Ġbr ass
ĠN AT
Ġb ones
Ġthrow ing
Ġf ought
am as
P rivate
Ġrep aired
Ġcont rary
ĠFurn iture
ment ation
Ġimp ly
ĠS we
Ġt id
ain ted
ĠM oving
ĠFore x
IPP ING
f ight
ĠT ampa
Ġ10 7
r in
Ġdeb ts
Ġequ ality
× Ļ
ĠVol ume
We bsite
ĠL GBT
ĠA x
ĠG er
Ġmet res
ĠAd ams
f ilter
ĠM ob
Ġdisapp ear
gener ation
ĠF isher
ĠSERV ICES
By Id
Ġvis ually
ĠOper a
Ġaccess ory
ĠF ro
Ġretrie ved
Ġpill ow
O wn
Ġstreng thening
Ġsam pling
Ġd ip
end ers
Q ue
ud a
Ð ±
Ġpro long
Ġc ous
at tered
Ġ19 79
ĠT ell
ĠIndust ries
Ret urns
Ġco h
Ġen er
Ġconc erts
Ġmill enn
Ġwr ist
ĠS in
Ġax is
Ġcommit ments
Ġillustr ated
ĠBro ker
duct or
ir i
13 2
Ġcop ied
ĠD raft
Ġrig orous
Ġfreel ance
Will iam
ĠPhot os
ĠJ oh
Ġvol can
Ġcont ribs
Ġhonest ly
l ie
Ġmother s
ĠB ird
Ġsatisf ying
u pp
ĠH o
Ġgram s
Ġdiscover ing
ĠRober ts
... )
ĠChe l
Ġun clear
Ġdess ert
Ġ12 3
D ocument
C ell
ĠGener ally
ĠT ro
Ġmyster ious
ENT S
ĠSt ri
Face book
ĠElement ary
)) **(-
ĠNash ville
Aust ral
ipp ers
Ġspir its
Ġtre asure
App le
Ġfat igue
Ġconvenient ly
Ġdead lines
qu isite
Ġpal m
ĠU pper
Ġt ribute
Ġsolic itation
Ġch ron
t i
Ġpl ag
Ġsk etch
Ġm es
Ġdemon stration
Ġtr ash
ment ioned
Ġproud ly
Ġextra ction
Ġdefe ated
) -
Ġrel ies
ur d
Ġjew ellery
Ġspecific ation
ĠS urg
Ġmarket ers
Ġso fa
H ar
ĠF ramework
Ġsec uring
Ġscient ist
Ã º
pro tect
ĠWhats App
ĠN OW
ĠK ay
ine e
ĠAd s
Ġp umps
ĠCo le
Ġestablish ments
88 8
V R
ĠMar vel
af ety
Ġret ire
Ġacqu iring
Ġport ions
Ġsac red
ĠIntern al
ĠSpe c
for get
ĠColl abor
h ind
ĠJon athan
Ġsince re
Ġpath ways
ĠB art
Ġpad ding
Ġblog ger
F und
Ġper f
ĠP ic
il ateral
d r
iqu id
15 6
Ġad oles
Ġc od
ĠM aj
Ġgra d
zz les
Ġvacc inated
S ports
Ġk ay
irm ingham
ib li
ĠThom pson
Ġgame play
ĠJust in
Ġm i
Ġen emies
ĠEm ployment
ĠCam era
N av
ĠP aint
Ġst ats
Ġper missions
Ġcur rencies
e re
Ġall ocation
Ġto dd
ĠMembers hip
Ġ20 30
claim ed
.... ..
Ġd ying
rict ion
b ird
Ġcir cles
b as
Ġhabit at
=" #
ĠMot ors
Ġign ored
Ġgran ite
ĠMarket s
ĠF ounder
es c
Ġpract ically
u ber
g un
ĠCh ain
D ear
15 5
Ġfavor able
Ġa ids
P ark
eng ine
c br
19 2
ĠA w
Ġmedic ines
ĠInt roduction
sh ire
Ġintern ship
ĠU g
g red
Ġlength y
ĠBu ilt
Ġnut s
Ġcompos er
ĠLat est
o at
Ġmark ers
ĠL ie
Ġward robe
ĠLib erty
Ġoverl ap
Form at
Ġattribut ed
ĠRe ferences
ĠFin land
ĠG un
% ;
ĠMed ium
im mer
ĠW ash
Ġde ce
Ġdatas et
Ġprop ag
Eng ine
Ġpath way
Ġpol ar
ĠMont real
U B
G ame
ĠTra in
Ġprot ests
Ġformer ly
ill o
ĠP el
ĠL uther
Ġund oubtedly
Ġcommission ed
Ġsent iment
iov ascular
rows er
Ġbrief ly
Ġd ont
ĠF M
com pl
Ġlib eral
Ġcock tail
st rap
oot er
Ġt asting
Ġcryptocur rencies
ĠT her
ĠSte ven
Ġhom emade
Ġ19 76
L and
ĠL ar
d imensional
V M
Ġund efined
ili ation
Ġex ports
âĤ¬ âĦ¢
ĠMont ana
ĠProf ession
Ġrenew ed
OL D
me ga
Ġ19 40
ĠF R
Ġpursu it
Ġan ten
Ġt ears
ch at
Ġmem or
ĠG ray
******** ********
ĠK rist
ĠEn c
IT ION
Ġtou ches
ĠE thereum
200 5
ĠF ill
re v
Ġc ant
ãĢ Ĥ
ĠM ut
ĠFl ight
ĠB aker
Ġ umb
ĠEag le
Ġgl ue
ĠJ a
Ġall ocated
Ġd ys
ĠDen mark
Ġclin ics
Ġlug gage
Ġdiscount ed
ĠAv oid
az y
Ġpoint ing
in burgh
ĠFa ith
b ig
Ġbub ble
Ġw eddings
Ġsoc io
ĠBarb ara
quir y
20 8
ĠMethod s
ĠR y
Ñ ħ
Ġnot ices
v oid
Ġt orn
Ġw ag
ruit ment
Ġfix ing
ĠJenn ifer
at on
EX T
as pect
Ġbound ary
15 3
g rid
Ġro ster
Ġinflamm ation
Ġin e
ĠPartners hip
ĠSus an
Ġfoss il
f alls
ĠQu arter
Ġ-- >
Ġpar ish
Ġwith stand
Ġcollect s
Ġassum es
ĠOut door
Ġg room
na ire
ar se
ĠOpt im
N ING
Ġundert ake
ĠV iol
Ġc ave
Ġweb page
ĠE SP
App ro
ch anged
/ -
Ġtrig gered
e em
S ection
Ã© s
un it
ĠCol omb
Ġsh aft
Ġ1 12
Ġf ixtures
L ED
ĠM os
Ġrem embered
Ind ust
Par am
2 80
ĠðŁ ĺ
Ġfree ze
13 3
Ġn u
AN Y
se nd
Ġqu arters
ĠMat hemat
Ġsan it
A ge
ĠC AD
ĠT oo
ĠM es
Ġretrie ve
) )*
Ġpack aged
sp ot
comp are
Ġst arter
ĠChe f
Ġcan ce
Ġred es
ro se
Ġd imin
A h
Ġ19 78
ĠS SL
ĠT N
ne x
ok u
Ġ17 0
Ġdon or
ĠB rain
ĠC alcul
ĠK ath
ĠL anka
P Y
Ġspecial izing
Ġc ig
ĠLu ke
Ġwood s
ĠPsych ology
st orm
Ġadvance ment
Ġfest ive
Ġphotograp hers
ien na
ĠOpportun ity
ĠD ick
14 7
Ñ İ
s hips
id o
l ass
Ġit iner
ĠB ishop
Ġsupp ose
Ġinstrument al
OC K
ik h
ĠWorks hop
I ts
ĠValent ine
Ġun ited
ĠC ass
Every one
Ġpart ly
Ġcast le
Ġn a
bor ough
X L
ĠElect ronic
R ANT
ĠAm end
Ġf res
ĠUlt imate
Ġequ ip
G r
au kee
Ġst yl
} )
Ġp ads
Ġour s
ĠN elson
Ġbrid ges
Ġexist ed
T arget
ogn ition
ĠPro p
Ã© e
ĠRepresent ative
Ġstrugg led
Ġsan ctions
UN T
Ġfirm ly
ĠEqu ity
ĠC anyon
weg ian
ĠC odes
ĠG DP
Ġmathemat ical
id ate
Ġsw itched
art ered
ĠAb u
Ġnutrition al
ĠH ab
F REE
Ġcorrespond ence
emic on
Ġbudget s
N ov
ĠKenn edy
reat h
à ¹
Ġplay ground
Ġdis semin
ĠN az
Ġtomat oes
b oth
ĠV M
Ġcapt uring
Ġ10 3
( [
ĠNut rition
ps um
ag ne
ĠRequ ired
Ġas h
ĠL aura
ĠTour ism
F riend
Ġcy bersecurity
Ġintegr ating
Ġwitness ed
Ġext ensively
Ġdiagn ose
Ġund o
Ġopp onent
C am
Ġemb ark
ĠThe ater
ra ment
Ġeleg ance
Ġvit amins
Ġaff irm
ĠSouth west
16 6
Ġquarter ly
k ers
oc a
be fore
ĠWay ne
Ġflow ing
Ġmetab ol
Ġp unch
Ġinv asion
ĠAct ivity
uk i
P erson
her ic
Ġl un
Ġyield s
cont ract
ĠFl at
Ġprocure ment
Ġqu it
Ġle aks
ĠO m
Ġnot ion
Ġby tes
Ġst rand
ĠRich mond
Ġqu ad
Ġbicy cle
ĠEs pecially
ri el
app end
upload s
ud ge
l iness
oth y
Ġfif ty
ĠB ron
Ġrend ered
ĠCal endar
Ġp est
am ous
ĠV I
ĠTra ditional
Ġad apter
Ġdecor ations
Ġdisc onnect
Tem plate
ĠAdv ant
20 4
Ġ ÑĤ
Ġinv ites
c os
Ġsty ling
Ġover t
ĠPl ug
13 8
Ġseam lessly
Ġco pe
Ġfail ures
ĠK ate
Ġwhat soever
Ġb er
ĠP eters
th al
vel ope
Ġpl aint
st airs
D IS
ĠSy ria
Ġopp onents
ra h
ĠS eller
Ġfro st
g ithub
ĠT ypes
ðĿ Ĳ
ĠUn less
Ġf ost
L ocated
ĠA round
umm ies
Ġdu ct
Ġterrit ories
ĠPr incess
ĠU T
ĠCry stal
We ight
ĠR io
Ġanticip ate
P et
() {
Ġread ings
ĠFe es
ĠQ atar
Ġinstall ment
Ġcur iosity
Ġbe ars
Ġcaut ion
S erver
ĠW ard
ul ates
l ocation
Ġval uation
Ġtou ched
che m
Ġhum or
Ġmeant ime
ĠZ ero
Ġvalid ity
ĠB ruce
Ġang les
Ġdiet ary
Ġassess ing
Ġfragr ance
ĠGu est
Ð ³
Pro s
Ġnegot iate
Ġperfect ion
Ġsyn c
Ġanal og
Inst ead
commun ity
ĠPat ri
Ġelimin ating
C oll
ĠPop ular
ac re
Ġmet ric
ĠP OL
rat ulations
e ach
G rid
Ġd rew
bl ack
Ġanch or
Ġharm ony
Ġpun ct
P ER
ogen ic
Ġup set
Sp ring
Ġant ique
l isher
ĠAr thur
ĠS ad
Ġinter mediate
um ar
- $
IC AL
ĠL odge
Ġit er
Ġcorrel ation
ĠR ivers
Ġbroker age
App lic
Ġb ake
ĠCons ervation
Ġseason ed
Ġreferen ced
Ġfulf illing
ĠSom ething
Ġg ang
ĠWH ERE
l ate
Ġexhib itions
d p
he ro
ĠA F
ĠReg ular
ĠD h
ass ing
Ġ198 1
ĠDe cl
Ġcle ver
Cont inue
Ġter race
ĠCh anges
g ary
ĠH it
ux e
Am azon
IN S
m anship
Ġann ot
Ġin coming
ĠAl an
reg ist
e er
E arly
ĠM ills
ĠT ickets
Ġth rows
Ġc raw
S ales
Ġ10 2
Hand ler
Ġm ills
Ġcon e
requ isite
ract ice
ĠMonth ly
19 5
he astern
Ġcoll apse
H ope
ĠP os
Ġengine ered
ĠP T
Ã¡ n
E p
usal em
pro gram
inc inn
s ervices
? !
ind ers
ĠLiver pool
Ġrem edy
ĠK an
ĠLabor atory
ard ed
Ġscan ning
al ore
ĠAm sterdam
Ġincorpor ating
ĠTreas ury
re he
Ġb urg
ĠAll ow
ID S
Ġrhyth m
ĠTes la
ĠI l
Post ed
Ġad he
io xid
ĠEx pect
Ġdress ed
Ġ19 72
Ġsub po
Ġnever theless
ĠU ntil
Ġpers istent
ĠCro at
21 5
Ġcond o
Ġexce l
b order
. (
ĠD owntown
P ublished
ĠB asket
ĠReg ardless
Ġind oors
Ġhop ed
Ġenc oding
~~ ~~
z i
Ġre levance
ĠSaf ari
Ġtherap ies
Ġb anned
ee k
Ġill ustration
Ġexc av
Ġdark ness
ph ant
Ġ( +
Ã ł
Ġun comfortable
ĠU b
est y
ĠAccount ing
Ġhe lic
Ġsl ice
Ġres ervations
Ġst ains
ĠSim ilarly
The ir
N ode
Ġland ed
IF A
Ġb oring
Ġcred ited
Ġenjoy ment
ĠSec ure
Î µ
Ġclar ify
ĠLe ave
Ġsystem atic
Ġdupl icate
Ġhard wood
O G
Ġdist ant
Ġcustom ization
ĠO sc
Ġ10 6
ĠExam ples
He ight
R s
Ġflood ing
Ġbirth s
ĠLe ft
Ġl ag
Ġpres ervation
ĠUS PS
ĠEconom y
Ð°Ð º
Ġ9 00
Ġc um
And roid
ĠT on
Ġg rief
Ġthreat ened
ien cies
ĠF iles
ĠMem ory
ĠH end
14 9
ĠCD C
Ġt v
L ab
Ġunc over
Ġpal ette
CR IP
Ġbit starz
Ġre ign
sm all
Ġp ole
======== ========
Pay ment
Ġsacrif ice
Ġo h
Ġstom ach
Ġd ign
bor o
ĠR ug
Ġdem ographic
incinn ati
b ps
AB ILITY
Ġ19 75
Ġvalid ate
ĠB eth
Ġpoly ester
ĠREAL T
ĠRe act
Ġpres um
ob a
R ated
ĠSen ator
inn amon
ĠEnt reprene
Ġlapt ops
ĠExper ts
Ġkil ometers
Ġshould ers
un ge
Ġj unk
Ġvoc abulary
our t
te in
ĠW indow
i per
ĠWeek ly
IS E
ĠP interest
Ġwas hed
uss els
Ġd ub
ĠL en
char ged
Ġproceed ing
Ġund e
E qu
Ġrese ar
ĠS old
Ġsear ched
per ature
Ġl ap
Ġart ic
Ġent ers
osp ace
Ġath lete
Ġs el
Americ a
ar in
ith ium
ii i
Ġdiv ine
Ġhapp ier
ĠAdvent ure
Import ant
ĠEduc ational
Ġoverwhel med
Ġvol atility
W C
ct uary
Ġtow el
Ġcinem a
Ġbe verages
W D
ut il
Ġrem inds
ph alt
Ġl ane
ĠÂ «
45 6
ĠCele br
ĠO THER
Ġsqu ee
Ġpol ished
Ġfree zer
Ġfurn ace
P rem
ĠE co
ien ced
Ġem erge
cre ation
ĠHar bor
og gle
Ġsc ales
ĠBroad way
ĠS ent
w aukee
( /
Tr ust
Ġl ining
or us
Ġque ue
ĠW right
Ġap olog
Ġcontin ent
Ġresid ency
Ġdisag ree
Ġm s
ĠH our
em ale
ĠN at
Ġtransform ing
Ġpass ive
Ġe ighth
reng th
Ġadmin ister
W idth
En able
ĠAny one
Ġparent ing
Ġsim ilarly
p ub
ĠId aho
Ġf ier
ĠChrist opher
and y
Ù Ħ
Ġste pped
ĠA A
ĠN am
Ġro ses
Ġmand ate
ĠPlan et
Ġp ound
ĠCar bon
Ġdis ruption
ĠB attery
ĠWar ren
Ġsh irts
S afe
HT ML
ĠTik Tok
ĠThrough out
Ġpo ems
forget table
ĠB ranch
ĠL IMIT
Ġenthusi astic
ĠGuid elines
Ġres c
Ġair ports
ĠMet a
Ġs ake
ĠG it
ĠCon crete
ĠFin n
æ ľ
ĠG rey
Ġmin us
IC S
Expl ore
Ġeven ly
Ġappet ite
Ġcross ed
ĠY an
Ġstat utory
Ġlif elong
Ġresp iratory
Ġ2 30
ĠÐ ¼
. :
Connect ion
De cl
v ideo
ĠDirect ory
uff y
ĠArgent ina
Ġhistor ically
Ġgl uten
13 4
Ġs ailing
Ġcomp ression
S ingle
Ġmal icious
S everal
Ġrefund ed
2 60
Ġcoordin ator
er ie
id ency
erc ise
ĠHealth y
Ġres ide
{ \
i ological
ĠH app
sh are
S R
Ġcon gress
ain less
f illed
erv oir
Ġcast ing
des h
H y
G iven
Ġind igenous
per or
Ġsus pected
Ġlack ing
× ķ
Ġarch ae
ĠC otton
ĠL ang
3 30
Ġsil ence
Ġdr illing
ĠG re
pro f
Ġanaly se
ĠNep al
iv an
f red
Ġw ires
read ing
Ð¾Ð ¼
ĠCh ile
H ER
es pecially
Ġener getic
Ġabs ent
Ġappro ached
D om
Ben efits
ĠCol on
ĠM ason
ĠEmploy ee
M iss
Ġcul inary
Ġsum m
ĠG ordon
ĠCh ron
ĠH orse
roll ing
Ġmit igate
Ġw rest
Ġh ierarch
Ġsurprising ly
hand le
ĠDev ice
Us ed
15 7
Ġcelebr ations
Ġtra its
ĠS UP
Ġb od
M er
ĠSt orm
AD E
ene z
Ġexceed ed
Ġar row
ĠR ates
ĠDis closure
ĠF ern
ĠST EM
20 2
ĠH alf
Ġtechn ically
Ġlight ly
Ġre un
w y
ĠBapt ist
ĠR ental
s ort
Ġmagn et
f ollow
ĠVerm ont
Ġband width
um per
ot ypes
Ġm ock
st ra
Ġslee ve
ograph ics
ll a
CL UD
Ġp ist
T ON
Ġstrong est
ht aking
Ġoccup ation
17 6
Ġcelebr ity
Ġdisc rimin
th ink
Ġgadget s
ĠP D
ĠFor ces
Ġfu els
21 6
Ġsculpt ure
Ġsem inar
est on
ical s
ĠPortug uese
ĠK el
Ġb other
Ġconsequ ence
Ġsupp ress
Ġtest imony
27 5
Å į
app le
ĠT ru
Ġind ul
ĠParam eter
ĠSo on
u f
ibl ings
olit ical
ĠJac ob
Ġin complete
ider y
Ġgradu ating
Ġ' '
on al
Ġk not
Ġlaun ches
Ġinc ons
Ġregul ate
ĠAm y
Ġra ises
Ġguid ing
Ġc ents
Inst ance
th ree
Ġan ime
oun ces
T ur
pl ane
Ġbuild ers
ar an
C I
Ġs ights
ke ley
Ġamend ment
ĠBut ter
L arge
Ġ19 68
im ming
ĠBrother s
Ġobs erv
Ġball ot
Ġex otic
ĠFort unately
ĠC ant
h is
ic ient
ĠGener ation
ĠPrinc ipal
ke eper
ĠAn swer
Ġmot ors
ĠManufact urers
ĠD ipl
old ing
ĠSug ar
27 0
Ġrep roduction
b ad
Ġpump kin
Ġre lying
Ġm elt
k k
Ġh oly
ĠDou glas
ĠEnt ry
=" @
Ġkind ly
Ġtourn aments
IS A
ĠMar ie
ĠM alt
Ġterr ific
Ġsc enery
200 4
ĠHe avy
ul atory
ĠS olid
ap le
Ġgl uc
Ġfulf illed
Ġac ids
Ġcr icket
Ġflags hip
l it
Ġqu arant
M ust
= âĢĿ
Ġâ Ī
cl i
ĠCommon wealth
âĶĢ âĶĢ
ĠL G
Ġdyn am
Ġb ounce
Ġesc al
ram a
Ġgard ening
Ġso y
Ġfl or
Ġbless ing
Ġd amp
Ġsynd rome
P ub
Ä ĩ
iling ual
ĠH az
Ġundert aken
ĠAm bass
Ġfurn ish
Stud ent
Ġrecogn izes
Ġsoc ks
Ġpay able
ĠWork ers
et c
ĠTh an
Ġfrustr ating
view s
// //
ĠR d
ĠC ad
e b
Ġmar ijuana
l at
D ES
ĠProv ide
Ġexhib its
ĠSpe aker
14 8
Ġint ra
ĠOrgan ic
Ġslee ves
Ġreflect ing
Å ¡
Ġtr an
OW N
ot or
ĠCr ime
ĠIn nov
++ )
m t
Ġart ifact
Ġcontribut ors
Ġn ort
ail ure
Ġpup ils
Ġlive ly
k now
ibl ical
ĠPe ak
Com mon
ĠRail way
L abel
Ġtr illion
Ġm ad
Ġm ph
ĠCl ay
Ġun law
Ġexp ans
ott a
Ġdom inated
Ġcompet itor
Ġcommer ce
ĠAl b
Ġbas eline
Ġ40 1
Ġconsum ed
ĠF at
Ġview er
ĠHon or
M al
Ġcoll ar
Ġtroubles hoot
Ġb ump
ĠK az
ĠGl en
put er
D ATE
A X
Ġb g
Ġl ivest
c up
sh ould
ĠDec or
Ġt ier
ĠHT TP
P ur
ri ors
m ag
D own
Ġpred omin
Ġtab s
z heimer
Ġfort une
Ġprot otype
Ġmark ing
Ġb arn
er ick
Read y
ĠLaw yers
ĠI an
Ġc akes
Ġhero es
Ġkind ness
An swer
grow ing
Ġcrit ically
Ġwall paper
Ġrefuge es
ĠN orm
o is
Be aut
Ġeffic acy
ĠFl ore
ĠCon fig
are a
ĠS R
âĢĿ ),
ĠN intendo
ĠShan ghai
c ia
ĠM yst
W ood
ĠÐ ±
C ur
Ġfore front
Ġtyp ing
ĠWire less
Ġtem p
ĠReal ty
le tt
ĠMe asure
man agement
Ġbree ze
ĠG ot
Ġ4 50
Ġnon etheless
e enth
Ġconcept ual
ast ically
Ġtun nel
Ġpro active
j amin
ĠWal mart
m ir
p her
Ġdis cre
A verage
Act ive
Ġinval uable
connect ed
head er
Ġhon ors
Ġst rives
G P
ĠB I
Su ccess
ht docs
ĠB irmingham
Ġbl ame
)/( (
Ġinst itute
C AP
Ġex clude
s ens
Ġtrack ed
â ķ
J un
Ġwe ights
Ġ19 74
Ġre cession
if le
ĠCl ients
Ġmod ular
> &
Ġback s
ĠPark er
Every thing
press ed
Ġb ronze
ĠSk in
20 5
W indow
Ġdu o
pe at
Ġapp arel
ĠB le
Ġtermin ate
Ġ19 73
Ġ} ;
ĠColumb us
Ġjoint s
= >
ĠScient ific
Ġgra vity
H N
l ists
ĠV illa
Ġge ographic
Ġapprox imate
13 9
Ġadv ancing
Ġvent ilation
ĠS yn
ĠF ame
ĠP ages
Ġarchitect s
g raph
ĠC arm
Ġcomm ence
ĠÂ °
Ġcr ust
Ġavoid ed
ox y
ĠEl ite
ic ating
ort ium
G F
Ġincorpor ates
St ill
19 8
t ails
e or
Ġcustom izable
ĠTe achers
Ġcomm emor
Ġrun ner
Ġhyd raulic
Ġd Ã©
Ġmet adata
ĠC I
Ġex quisite
D raw
p oke
Ġd b
ic ates
rie ved
re z
Ġincon ven
Ġ$ ('
ĠB U
Ġfram eworks
e ur
ĠPro ced
Ġpoor ly
Ġcont ing
m ys
ĠJer usalem
W N
ET A
ĠS ter
Ġcour ier
ĠN H
ĠMer cedes
ĠMove ment
Bl ock
ĠGro ve
m d
ĠNe igh
ĠWAR RANT
Ġp ants
Ġ19 77
ten ess
Ġpress ed
ĠF el
Ġcelebr ates
ĠH O
C ourse
acter ial
Ġgen res
ĠGu y
Ġmon itored
Ġl od
ĠGra ham
Ġalleg ations
atern ity
ent o
Ġactiv ists
Ġsl iding
ĠC row
Ġmid st
ĠAr men
c ir
ote chn
sw ers
ref und
ĠE PA
Ġmole cules
Ġeconom ical
in ian
Ġa pt
Ġcur s
Ġdec ides
Ġm ant
h al
F ound
Ġdilig ence
ĠBirth day
ric a
Le ave
W ord
ĠSe ven
Ġfulfill ment
Ġur ge
Ġaim ing
n ell
Can ada
Ġsur pass
Ġsw ift
ĠJ avascript
ĠCharl ie
Ġhead phones
Ġarch ives
ĠBuild er
c ertain
ĠB oys
Ġsal aries
S elf
Ġmark er
Ġinter faces
Ġare na
% ),
OS S
Ġcon clude
in is
ĠU ber
e ing
Ġi T
D D
200 2
ĠC op
ĠP ine
ĠWild life
AT ES
re k
ĠP ent
n n
ĠAn alyst
ĠBrazil ian
stand ard
Ġunder way
ĠSt ack
ĠIs a
Ġorig ins
Ġpure ly
200 1
Over ride
R ock
Ġalleged ly
sm anship
Ġcatch ing
aut h
Ġth y
Ġad orable
":[ {"
ĠB S
s un
ĠĠĠĠĠĠĠĠ ĠĠĠĠ
Ġse afood
Ġbo om
Ġadjust ing
ĠStrateg ic
ĠW ide
ĠP ure
Ġsp ice
iod iversity
ĠO H
Ġcoordin ates
Ġgate way
Ġauthent icity
Ġcondition er
con text
âĢ į
Ġst iff
Ġcost ume
Ġhon our
ĠJu an
ch and
ĠLab our
Ġun forgettable
Ġgl ance
} ?
ĠRE AD
g ly
C ome
Ġqu een
ĠJ et
Ġse w
ĠF ra
Ġconver ting
Ġcollect ively
Ġhoriz on
Ġcons p
Ġph osph
ĠMor ris
Med ical
ĠD ash
am ation
Ġoutd ated
m id
Ġan ger
iss an
Ġ19 69
Ġl ying
ĠQue bec
Ġreg ener
O ptions
15 4
ur ally
Ġp ixel
Ġdis infect
Ġsp ices
Ġreal m
Ġbatt les
Ġcon clusions
Ġst air
Ġbreat he
commun ications
ĠR ico
ĠRe ference
as ers
With out
Ġrel ied
Ġadvert ised
Ġqu ilt
Ġun ions
ĠCO MM
ĠCamp bell
S n
og g
! --
ĠP ill
F ig
Ġw ars
Ġth riving
ill ery
C lean
role um
Ġexam ining
Ġcon gr
g it
20 1
Ġcle aring
ĠG em
Ġcitizens hip
ĠP ope
te x
Pan el
>> >
Ġdiss ertation
âĢ ²
ĠThe me
Ġmarg ins
ĠAct ivities
Or iginally
ĠParent s
ĠWe alth
o i
Ġrec urring
p ublished
ĠR ice
ira cy
s ession
cer pt
ĠM t
ĠD EL
Ġclass rooms
ri vers
Ġhaz ards
ĠR anch
Ġcush ion
Ġannounce ments
ĠA rena
Ġenh ances
Off ice
resp onse
Ġexpect ation
Ġint act
AR CH
Ï ģ
Ġli abilities
ĠUpd ates
PO ST
ĠS Y
Ġsupply ing
In v
Ġfound ers
Out put
Ġgrand mother
Ġalt ogether
ĠArch ive
Creat ing
f r
Â Ĵ
ĠL oc
Ġu pl
Ġmerch ants
if ference
ĠRob inson
Ġbreat htaking
ĠR C
p resent
Ġcater ing
ĠC MS
Le gal
Ġstoryt elling
im er
Ġreg ret
ĠCom par
ĠEx ternal
S K
Fin ancial
am er
Reg ular
Ġinf ringe
ĠH us
che t
m icro
ĠW oman
Ġso vere
Ġpractition er
ĠA aron
avor ite
ĠEss ay
s aving
ĠL ost
Ġdis par
Ġs ou
d oc
Ġconst rued
du ce
A V
Ġsw itches
ĠWell ness
n ia
ĠPra desh
ĠL ights
D aily
ĠH arm
Ġp ills
Ġscen ic
Ġcareg ivers
Ġtext ures
Ġrevolution ary
Ġdeal ership
Ġsw ap
o an
n or
Ġless er
r ights
ĠJ ourney
s er
ĠC it
ĠA verage
Ġjump ing
ĠArab ic
S ession
gred ients
ĠMil an
Ġno on
ĠAltern atively
Ġdam aging
Ġm all
ĠL anc
erg arten
Ġagree ing
Ġinsp ir
ĠEd inburgh
itc her
ĠDis claimer
Ġcolor ing
Ġn our
un ks
ĠC inem
Ġ19 71
bs ites
Ġun available
ra its
Ġad missions
ip ur
ĊĠĠĠĠĠĠĠĠ ĠĠ
ĠG rid
ge x
Ġw iring
AL E
ish a
is y
O ld
ĠTyp ically
Ġtoler ance
h ma
ĠCh icken
22 4
ĠHigh ly
Ġdistribut or
Ġprovin cial
Ġch ic
pe red
Sim ple
g reat
ĠC ities
ĠC ris
pre m
od er
o ks
sh irts
Ġper taining
ĠCar ter
There fore
Ġrob ots
Ġhe ights
ĠH oney
Ġtim er
Ġst airs
av an
ink s
Ġjurisd ictions
ĠPost ed
Ġ50 1
Ġon ion
ĠC u
ĠHud son
Ġinspect ions
Ġang el
Ġn ails
Ġc it
Ġd in
Ġpol ish
Rober t
ĠL l
ĠProt ocol
ĠL P
Ġant ioxid
ĠBut ton
Ġshopp er
ĠCom fort
Sp ace
og an
Ġfore most
Ġcrow ds
Ġencrypt ed
ĠCh and
< ?
Ġbout ique
Ed itor
Ġhung ry
Ġtow els
aff e
Ġsal mon
Ð°Ð »
CRIP TION
Ġrent ing
itut ions
ĠAd ult
e very
bl ue
15 8
Ġsoc ieties
Ġinv is
ĠAct iv
rit is
Ġp el
Ġref ine
Ġgra vel
Ġwa iver
Ġexam ines
Ġdish washer
ind a
Ġfun nel
Ġsequ ences
Ġr ic
ĠG ospel
Ġ20 24
ist ries
ach ment
F ounded
Ġsubpo ena
Ġreport ers
Ġbl ast
ran ces
osh op
Ġg onna
Ġconfidential ity
Ġcream y
ĠC opy
Ġexception ally
Ġh orm
M em
in als
Start ing
Ġnot ably
Ġo xid
Ġdist ress
Ġdefend ant
Ġutil izes
ĠG RE
Ġlif es
Ġcert ifications
ĠMars hall
Ġdem ocratic
Ġpriv ately
Ġped iatric
K ing
v d
ĠL ion
Ġdeter ior
ud o
Ġh iding
AN K
Ġstri ps
D M
ĠD ow
b ag
m ile
Ġv ivid
ĠLog in
ĠRecent ly
m ult
2 003
Ġm int
M ember
Ġhuman itarian
Ġpo inter
Ġiniti ate
ĠCh ocolate
ĠS V
ĠA Z
up date
ĠOff ers
ĠK night
Ġback drop
ett es
Ġrede em
Col lection
With in
Ġutil ization
ĠWH O
Ġten ure
F M
ĠG E
ĠDep osit
ĠTe levision
with out
Ġ10 9
Ġimag ery
Ġ13 5
et own
Ġmen us
amb da
26 4
p ark
Ġsort ed
ĠE t
T ips
ĠSte wart
ĠDevelop er
il ings
e lement
ĠCl ar
ĠEx cellent
Ġexch anged
Ġur ged
Ġstick s
ĠV el
Ġdist ances
ĠMor oc
out er
ĠIce land
Ġlength s
ĠF ight
ĠS IM
May be
ĠP le
ĠP U
umin ium
Ġtong ue
Ġconcent rated
Ġj son
ĠEx ample
Ġwar mer
ĠT ob
Ġg erm
Ġrib bon
ĠT odd
ist le
Ġcor rosion
C apt
us able
ĠTh under
ĠUnder standing
ĠC AR
pay ers
art icle
Ġnow adays
Com ponent
ĠC er
em a
Ġfif teen
ĠParticip ants
Ġbalcon y
Ġstud ios
Ġch ill
ble ms
Ġe arrings
Ġp ixels
parent s
aps ed
Ġprem iere
Ġp ile
ĠColl ins
insp ired
15 9
Cl ose
ĠLO VE
Ġimmigr ants
we i
et on
fun ctions
k le
B ra
G M
Ġcontribut or
g ow
ĠE ither
Ġremod eling
ĠAb d
Ġsh ake
ĠE le
Ġinf inite
S ep
20 3
Ġimper ative
ĠH ack
du cer
Ġbreak through
ac cept
Ġinher it
CE PT
Ġf ade
print ln
ĠI RA
Ġshort cut
33 3
app er
ĠIm per
employ ed
ine es
Ġpor ch
Ġsubsid iaries
Ġrem arks
ĠFort une
ar at
Ġsh aping
Ġpartic le
Ġquarter back
Ġev ac
d it
Ġdem ol
ĠNC AA
Ġforecast s
Ġins pected
pass word
Ġm ilit
Ġfor ty
F ac
st ack
p atch
\\\\\\\\ \\\\\\\\
Ġmicro phone
Ġvel ocity
custom er
ĠU til
Ġir r
Ġdiv isions
Ġvoc als
b ecause
CLA IM
ĠL ate
Ġ ion
ĠEd it
Ġstick ers
Ġhazard ous
ĠA er
ĠC incinnati
Ġpot ato
M ary
Ġinterview ed
k n
Ġeuro s
F lex
ĠLux ury
f inal
ĠCapit ol
Ġpr one
ĠT ed
ĠMo z
Ġver b
ĠM ong
Ġham mer
Ġl ou
St ack
ĠStan ley
Ġresil ient
ĠThe ory
Ġdevast ating
Ġelimin ated
Ġden y
Ġconfig urations
Ġch ol
ĠAl zheimer
j et
4 80
ai ro
ĠMit chell
Ġcheck list
Ġorient ed
ĠRec ruitment
Ġretain ing
ĠChe v
alle led
Ġlabel ed
de gree
Ġabund ant
Ġneed le
u h
Ġhas h
Ġvulner ability
Ġmed i
le ton
Ġde mentia
Ġpodcast s
28 8
Ġsp elling
onge vity
Ġaccompany ing
Pr imary
Ġec ological
ĠV ers
ĠE arn
Ġsc ary
ĠInd ians
L ess
ach i
ĠW ays
ĠJ os
Ġreprodu ce
ĠZ en
18 5
Ġoutput s
f an
ance l
Ġdelight ful
ĠFil ter
Ġre vel
Ġhypothes is
Ġg y
Ġprofit ability
ĠPre c
ourn ament
Ġ+ =
Ġg ri
ef it
St ock
ĠT ig
ib et
AN C
Ġcooper ative
Ġregul ators
Ġl iber
Ġpost al
ĠD ad
ĠBank ing
16 9
ĠK id
Ġlandsc aping
ä º
Ġ ],
Ġneck lace
ĠT ap
" "
Ġrespect s
D rive
22 8
VI EW
y ards
com b
Ġwork load
Ġamb ass
ĠCred its
Ġassort ment
ĠPat tern
pro fits
Ġpri est
Ġhomeown er
g ence
og ene
Ġm arch
Ġrad ar
ex cept
Ġch lor
Ġinter vals
Ġy og
r r
Ġprecaut ions
ax is
Ġnavig ating
Ġrepay ment
ĠF if
ĠExt ension
Ġexce eds
A Z
Ġsuper visor
Ġcand les
Ġsimpl est
R oom
ĠHe ights
ĠBase ball
op ard
uff er
Ġsens es
Ġperiod ically
Ġac oustic
Ġ erg
Ġrel iance
ed uc
Ġbroad band
Ġjud icial
; </
Ġburn ed
act ivity
ĠFood s
ĠCon duct
Mod ule
. _
Ġautonom ous
Ġd oses
ĠLe ban
Ġreform s
ĠCh ampion
Ġto pped
ĠHA VE
ĠT ow
h alf
Ġillustr ate
ĠOtt awa
ĠF T
Ġperform ers
Ġtou g
l ining
le arning
ĠN BC
Ġtouch ing
w oman
z ip
Ġcrack s
ĠSh ah
ac count
ial og
n els
Ġinter fe
16 7
ĠElect rical
IN K
Ġcard iovascular
Ġtrend y
ĠS au
umb led
V EL
Ġmed ieval
Ġ ^
i ot
B rit
ĠN ag
Â ¤
Ġundert aking
24 5
ĠCur riculum
Com mercial
G row
ĠG L
ĠP ricing
Ġpain ter
ĠRe hab
. ]
ri um
an as
ann on
J ECT
Ġsever ity
ĠEmploy ees
Ġexc urs
Ġp ause
Ġcoordin ated
ĠNOT E
Ġdecent ral
Ġal lev
Ġvill a
Ġfold ers
Part icip
D s
Ġconst itutional
ĠS oph
16 4
ĠAlp ha
Ġram p
Ġinterpre ted
Ġfl avour
Ġthreat ening
ĠCra ig
Ġsuper market
Ġwel comes
AG ES
dra wn
Ġcomple teness
Ġdetail ing
resp ons
ĠR av
ad os
ĠCom plex
ĠY outube
ĠN HS
ats on
Ġmay or
ig ator
ĠDis covery
14 6
, -
ĠPhil ip
Ġcapt ures
Ġcrit ics
ĠTr uth
Ġmis con
ĠY am
ĠN ad
ĠComp onent
Ġgenuine ly
Ġlocks mith
Ġsl im
Ġpan ic
ch anges
z el
ĠT u
Ġaw ait
âĹ ı
ĠPar ad
Ġinv ention
Im pl
Ġn g
ĠIns pect
Resp ons
Ġpassword s
Ġse as
ĠS ame
Aut om
oc ent
ath am
ĠOper ation
V ersion
Ġfar mer
c ache
Ġbe ating
Ġdisp atch
Â ²
% ).
. ;
Ġupgra ding
ĠPict ure
ay an
Ġatt itudes
ĠReg ulations
Ġsp ine
Â ½
e ared
s burg
ĠTh or
Ġpost ers
ĠNet works
pon ents
ĠRe pl
Ð½ Ñĭ
Ġl ingu
ĠOper ating
h ole
Ġtend ency
p c
it ives
Ġgall eries
by e
M el
Ġtiss ues
ĠG ET
Ġconsent ing
W P
ĠE M
ĠL an
c ourse
ple ted
H ard
ards hip
ĠM UST
Ġthem ed
Ġopt imum
ĠTown ship
ĠRe ally
Ġyoung est
N P
ĠRob in
Th ink
ĠW ear
Intern et
Ġsy ll
w elling
Ġcance led
Ġcongr at
ĠD AY
Ġk ernel
ĠM AY
Ġeth n
c art
Ġtransport ed
Ġpred e
Ġm a
J O
ĠTam il
ĠWood s
ON S
ĠW el
Ġexp ose
Ġco ated
ĠE li
ĠAdminist rator
ĠWord s
Ġfont s
19 6
ĠiT unes
op edia
Ġfaith ful
em en
ic one
ĠAv iation
Ġl one
orn s
Ġjust ify
P osition
ĠM ira
Ġprocess ors
Ġattack ed
Ġpe el
Ġcelebr ities
ig uous
Ġreprodu ced
ĠAut hent
Ġcr ushed
ĠOr chestra
Ġcount ed
ĠPict ures
Ġinhabit ants
Ġpo ison
Ass oci
ĠForm ula
ÑĢ Ð°Ð
M ad
he ets
Ġs iblings
an ut
Ġve gg
Ġc ensus
Ind ividual
n an
ĠF o
Ġl ush
Ġ19 67
Ġc av
Fe atured
e g
add ress
ĠNor wegian
ab lish
aus es
ict ional
Ġres in
Ġdis comfort
Ġvib e
W alk
Ġf ond
ĠK aren
ĠF ont
Ġjump ed
ĠTw in
T ask
v t
ade qu
ĠHer o
Ġbrand ed
ĠG host
Ġbe ads
Ġdec ay
ĠLead ers
Ġspr ings
Ġbul bs
ĠN I
ĠConnect ion
Ġsurviv ors
s d
Ġchar ger
su per
ĠD at
mat ched
ĠN ar
Ġc ube
Ġr ider
load ing
Ġshe ep
ĠEm ily
Ġmagn itude
ĠB ike
Ġsem inars
Ġor th
ĠM ak
Ġmarg inal
Ġspot light
. âĢĶ
ĠCh ase
Ġmid night
b ial
dom ain
Ġborrow ers
Ġform ally
Ġch i
Ġfellow ship
av il
m illion
Ġint roduct
OR K
d ir
17 8
ib ration
R NA
Ġmerg er
par alleled
Ġex empl
W R
Build er
ĠSh ield
H on
Ġneglig ence
Ġpic nic
N D
Ġg ly
requ ency
Ï ĥ
Ġp c
Ġhead lines
21 7
Ġd ock
y ll
ĠS ierra
und s
ĠProfession als
imp se
à ®
Ġautom ate
Ġintent ions
Ġtra ged
Ġovers ight
Rem ove
C at
ĠCO L
Ġlist ened
Ġ7 50
Ġgrand children
Ġprec ip
Ġswe ep
ÃŃ a
Ġresort s
Ġtut or
UT H
ribut ed
ĠM AN
ash i
our neys
Aut o
Ã ¸
Ġw ound
op ening
ĠPhys ics
ĠBer keley
ĠEv ans
ç ļ
D ouble
Ġst reak
an im
Ð² ÐĤ
Ġdivide nd
ex ists
ĠL ay
18 3
Ġconnect or
ĠR achel
Ġin compatible
Ġover flow
Ġge ographical
Ġcha os
Ñ Ĩ
Ġcraft ing
ĠH S
Ġment oring
Ġcon form
ĠMur ray
ts y
ĠImport ant
Ä į
ĠSe an
Ġsus cept
ist ance
ĠSc an
ĠQu ote
am o
Ġneighbour hood
Ġpress ures
ĠD uty
Ġbright ness
) **(-
ĠP urch
ĠCan on
v ine
Ġf ate
Ġlisten ers
ĠP UR
ĠCompl iance
Ġun ity
ik o
R Y
ĠIn cluded
ĠCh a
ĠG roups
Read er
ĠLe ather
ĠChel sea
l as
Ġwond ers
Reg ister
Ġcoal ition
Ġs ocket
Ġessential s
20 7
Ġt read
Ġinsert ed
ĠShop ify
Ġex emption
Ġunlaw ful
cons cious
ĠD ol
own ers
Ġ5 000
Ġre use
C art
ĠRog er
Ġstaff ing
ĠShe et
ym ph
Ġconv ince
Ġinev itable
Ġdead ly
Ġrel ie
ĠF ix
Ġvers atility
Ġcre ations
in se
ĠInf rastructure
Month ly
Ġliquid ity
ud s
Ń Ĳ
Ġsocial ly
St op
Ġf el
ad vert
Ġcolon ial
Ġw and
ĠR oot
ĠI MP
Ġsubs criptions
Pop ular
Ġrecogn ise
Re commended
ĠMil waukee
Ġmob il
" ?
Ġe Bay
Ġempower ing
Un like
Ġres ign
ĠT IME
G I
ĠFe aturing
Ðµ Ð»
att a
Ġexp ired
Ġlif ted
U til
Ġl amin
es ity
ĠSh ore
ĠG ear
in ternal
Ġski ing
ĠBB Q
Ġfut ures
Ġencourage ment
am bers
Ġstra ps
Ġ ),
m ember
U AL
Spe aking
] ,"
ĠB elt
Ġbrace let
Ġhapp ily
c akes
Ġfe ver
ĠN HL
iche ver
d c
6 50
ĊĠĠĠĠĠĠĠĠ ĠĠĠĠ
u ated
20 9
Per fect
Ġtim ber
F inding
ple ase
Adv anced
ours elf
ĠRe placement
ĠMichel le
ĠL abel
Ġe Commerce
Ġcl ue
L ic
ĠFor ward
ĠWal ter
": ["
Ġde er
ĠBreak fast
ĠW ol
ĠV ienna
ĠGu ests
- +
Ġapp les
Ġdecor ating
Ġm amm
Ġge ometry
Ch ris
Ġro pe
Ġconst itution
emicon ductor
. /
H ttp
Ġanx ious
Ġâ ľ
Ġpres erving
23 4
iar ism
ĠG on
Ġv on
Ġeduc ator
30 4
Ġf ocal
B ody
Ġinter rupt
ĠM ent
ĠChe ap
Ġpreced ing
Ġpupp y
23 5
H uman
ĠMin or
Ġturn over
Ġ à¤
Ġin appropriate
Ġacclaim ed
ĠLiter ature
Ðµ Ð¼
Ġdeput y
ĠC AP
ge bra
ĠL ength
ĠCal gary
Ġdis asters
Ġphil anthrop
18 9
Ġ20 25
Ġl uc
Al ong
ĠSam uel
r ar
Ġbes ide
B ring
Ġc ares
A RE
Ġexecut ing
Ġcompassion ate
ĠW ik
ach ine
Ġcraft smanship
ĠManufact urer
Ġattract ing
Ġpar a
Ġre build
ĠPain ting
ĠBr ig
ogram s
Ã¼ r
Ġt in
Ġ12 7
ĠS ell
Ġcommit tees
C opy
ĠÃ Ĺ
Ġfl ame
Ġvib ration
Ġmet ro
Ġbg color
Ġshe er
ig m
ĠDist ribution
Ġappe als
ED IT
Ġdesign ation
ĠCru z
Ġgar bage
WH AT
ĠGar age
Ġ3 000
Ġcyl inder
ĠCou pon
ecut ion
sen al
Ġcopyright ed
Ġc ree
ob i
Ġbenefic iaries
: "
Ġm asters
met ics
Ġworry ing
I de
Ġqual itative
Ġrun ners
27 8
Ġdece ased
Ġp ork
ĠSt amp
Ġjack pot
Ġplay back
in fl
Ġfram ed
Ġmix er
Ġher b
Ġfib ers
ĠN ode
Ġadop ting
cl ock
Ġgl am
ĠBu ying
Ġrail road
ĠConst ant
Un it
Ġall ies
Ġinvestig ators
ĠIss ues
B ill
Ġborrow er
Depend ing
Ġopen ings
Ġelev ation
ĠH indu
Ġapp rent
$ ,
Ġsub str
ĠTer rit
des igned
Ġex cluding
ĠCol le
ĠK il
Ġpl asma
ĠGo ing
ĠPhot oshop
P resent
l asses
Ġoccur rence
ut er
Ġre els
Ġun changed
im eters
Ġsun shine
T urn
Ġwas her
Res ource
ĠCitiz ens
Ġb ail
T ex
Ġtatt oo
c in
Ġsour cing
ir k
ĠCount able
ĠEgypt ian
Ġsouth west
18 7
ĠAdv ance
Ġcollect or
ĠAr ctic
Ġbl ades
Ġfurn ished
Ġ( '
ed it
Ġquestion naire
Ġce ilings
fe eding
Ġelectron ically
C AR
ĠH ood
Ġgood ness
atern al
Ġow ning
ĠFab ric
ĠL CD
or ie
ot er
ĠSp ark
Ġam azed
Ġin ception
g om
Ġpartner ing
Ġdemonstr ating
Ġch im
Ġext rem
ĠDe fe
App ly
ĠP ok
pro perty
ar us
on ed
Ġw ore
IC T
A ff
h um
ĠL it
Ġmemb rane
ĠPat ients
ĠNe eds
develop ment
ĠH ire
Ġble nded
Ġem ission
Ġoverlook ed
ific ant
Ġwond ered
Ĥ ¹
Ġsh ifted
Ġf etch
T or
ĠUn iverse
ĠIN TER
Ġinvis ible
r ays
ol ia
ĠSac rament
ĠIm plement
ĠHe aven
Cent ral
ĠMathemat ics
in vest
Ġbr ut
Ġwilling ness
Ġd os
up d
Y S
record ed
G raph
ĠN urse
Ġgl impse
Ġda unting
Ġextract ed
W O
Ġpione er
Ġblog gers
Ġw oven
cont ribs
pan ic
Ġtra ction
g ic
Ġpan or
Ġcalc ium
Ġdecor ate
Ġcrow ded
Ġsu cc
Ġ19 64
Ġremod el
F rench
Ġclick ed
io let
A uth
Ġharass ment
17 1
Ġto b
ĠTra ffic
Ġ19 65
Ġwarn ings
m ethod
ro let
ĠPl aza
Ġtre as
Ġreason ing
Ġregist ry
Per haps
f ac
o ids
Ġdiscont in
ĠJ aw
Ġc attle
Ġg ast
Ġpart ition
Ġfeed s
ons ored
ĠAP K
Ġ18 00
m os
olog ic
Ġtor que
Ġsurpr ises
ĠEng agement
H as
Th ings
CH A
Dis play
ĠConsult ant
ĠB T
Ġ19 00
sc ience
P acific
ĠL arry
op ing
R ange
Ġconcent rations
Ġrem oves
ĠBl u
E V
ĠBe havior
Ġins u
ĠAl most
Ġav id
ak ery
ĠSh ar
Ġun st
' ),
Ġl amps
an ne
ester ol
Ġjoint ly
Ġdown s
Ġdrive way
Ġg um
ĠCon cept
ĠHol land
en z
Ġgluc ose
Ġimmers ive
Ġdes cript
Ġamend ments
ĠF BI
M ic
Ġun h
25 2
pro t
re my
T ypes
Ġh ats
Ġtomat o
Ġa cre
Rec ord
inc are
ĠCr iminal
t n
ĠRe alt
ĠK ra
j ango
ĠDan ish
Europe an
Ġact ed
flow er
rist ol
ĠM N
r ub
print s
Ġsal on
g at
M ike
ĠSte ps
Ġr ays
Ġreve aling
Ġ um
ĠCont roller
Ġcomp iler
ĠF err
Ġimport s
ĠAl ice
19 99
ĠB ever
pl atform
ck er
Ġfor b
Ġprevent ed
Ñ Ī
Ġlay ing
ĠG ill
ĠV ik
ĠMur phy
ĠHur ricane
ĠAccess ories
Ġ ĊĠĠĠĠĠĠĠ
Ġas semble
ĠEth iop
Ġthe r
18 8
N AS
ĠGuard ian
N ear
Ġfo il
ĠN GO
Ġsuper vis
st ones
ĠT ank
Ġprint ers
Ġment ions
rit ical
ĠN an
ĠB anks
k t
Ġsc am
19 7
Ġspend s
ĠBang alore
refund able
Ġed itions
ĠRen ew
ĠIss ue
çļ Ħ
b ate
ĠT ol
Ġcher ry
16 2
å ı
Ġgather ings
ĠP osition
ac a
ĠC BS
Ġimag ined
ĠT ours
ĠP red
ĠHosp it
st orage
Ġun paralleled
ĠE gg
Ġfix es
Ġd f
21 4
Q ual
Ġhum ble
Ġhard est
Ġpriorit ize
For mer
Ġhun ger
ĠUpd ated
L INE
int o
ex e
our ced
ĠRe wards
d uty
atter ing
ĠGood s
Ġindirect ly
ĠCh an
Ġg reens
ĠCreat ing
Ġbe an
Ġje ans
Ġbelong ings
Ġacquis itions
Ġannoy ing
h ang
Ġmult itude
Ġfor cing
Pro tect
Ġsp o
S enior
Ġactiv ist
Ġre charge
ĠP RE
Ġen velope
Ġwag ering
Ġdrain age
year s
ĠDe als
U pon
B U
ĠM is
Ġacadem ics
ave nder
15 2
Ġspot ted
Ġfr ustration
ĠP izza
ĠIn fin
ot yp
Ġantib i
Ġch ore
ĠCand idates
h l
ĠH unt
th ird
ĠPat ient
a S
Ġrot ating
ĠMid west
Ġrad ius
Ġtherap ists
ĠC ourses
IT S
Ġf ry
M ass
17 4
om ed
ĠJeff erson
as gow
W as
Ad apter
Ġdistribut ors
Ġpersonal ised
Ġtour ing
Ġexpress ing
Ġnum b
Prov ide
Ġwealth y
Ġon ions
F ocus
Ġ19 45
Ġs iding
bo at
Ġpat ches
ucle ar
cel ain
ĠSur v
our met
w ire
ĠFac ility
J ava
Ġrel ieve
Ġvine gar
Upd ated
ĠSpot ify
Ġd rought
Ġqu il
Mod ern
ĠChar acter
22 2
Ġtransfer ring
cont rolled
Ġdeduct ible
ĠF inding
Ġbook ings
ĠB ee
Ġanonym ously
Ġdepend able
ĠV o
Ġst orms
Ġfin es
12 00
Ġcoh ort
p ush
ra red
u id
s afe
Ġearthqu ake
H OW
ĠW iki
Ġrock et
n ational
Ġbra ve
ĠAm azing
Ġadm ire
Ġchar ities
ic ulous
Ġrem ovable
C F
Ġevalu ations
c ology
it ems
Ġover looking
ood le
it ures
Ġins ulin
13 1
Ġdo ct
ne apolis
ĠGo als
Ġillness es
obb ies
f oo
Ġiss u
ram es
um ph
t imes
Ã ĥ
ropract ic
ri ad
Ġcontext s
ĠJ ama
P rep
ch annel
ĠNe ck
C ash
all ing
Ġbal ancing
Ġimpro per
ĠS ex
Ġserv icing
Ġrug ged
ĠE lection
l ift
ĠRes cue
w ikipedia
16 3
ĠA ld
ass is
Ġfirm ware
dom ains
ĠAutom otive
Ġrest ra
Ġpolit ician
eng u
Ġg ospel
S at
Ġall oy
C enter
24 7
Ġsh ame
ash a
Ġn erve
Ġcolle ague
Ġst aple
Ġhel met
Ġtrans plant
c ents
osoph y
ĠBrand s
c hen
Ġborrow ing
Ġrust ic
err als
ĠApp oint
Ġcollect ors
ud er
ĠBeng al
Ġmat urity
Ġpast or
oc ese
ĠP ap
m ons
ear chers
Ġbl ues
Ġst ems
act ic
ĠBi ology
ĠAt hens
Ġsucceed ed
Ġcat ast
Ġble nds
Ġup front
ĠRub y
Ġrecon c
Ġinsect s
Select ed
Ġemploy s
ĠQu ant
Ġcapt iv
Ġph p
Ġpack et
Ġneg atively
Ġ[ '
Ġlandl ord
F ront
pro duction
Ġf ame
t otal
ah l
Ġa fore
Ġup side
ĠLa unch
Ġinter im
Ġgar ment
Ġris es
Ġdoub ts
Ġper ipher
Ġout lines
ing e
ĠAl bum
Ġacceler ated
ĠN ice
Ã ´
be y
Product s
Ġtub es
Ġste pping
set t
Ġcont empl
ĠS chol
Ġcred ibility
Ġr oulette
Ġoper a
Ġh ints
Ġdismiss ed
ab us
ad v
ĠY ahoo
Ġve t
Ġcul min
Ġthe at
N othing
Ġdef icit
ĠK arl
od ia
ĠReport ing
Ġident ifier
11 11
"] ,"
Ġintrig uing
Ġag ile
17 7
ĠR ic
ĠInst ructions
f acing
Ġintern ally
Ġboard ing
Ġconstruct or
Ġelabor ate
ĠĠĠĠĠĠĠĠ ĠĠĠĠĠĠĠ
Further more
Ġentrepreneurs hip
Ġbill ions
s n
Ġh ose
est ones
ĠB in
ĠSe lection
ĠOak land
uff s
ĠFellow ship
40 5
in ate
Ġconvers ions
Ġtrain ers
Ġth rew
å ħ
Ġres ur
ah n
ĠMet ropolitan
ig ible
ĠCon vers
ĠAmend ment
B esides
ĠJim my
ĠS of
iv ia
N AME
Ġdefe nding
ĠWell s
ĠB UT
Ġk in
cont ainer
ĠEx port
Ġne ural
Ġspons orship
ĠAP R
ĠBal ance
Ġinteract ing
Ġ14 4
29 0
it ate
Ġinter ference
val ues
Ġtra p
own er
ĠGr iff
Ġcommod ity
ĠB ass
" },
ĠSim ilar
ĠHost ing
Ġwitness es
Ġassum ption
Ġle ap
ĠPl aces
Ġm unicipality
Ġbad ly
ĠCN N
fol ios
ĠSt ick
2 99
Ġb om
ĠRes idential
Ġmot if
ĠFund s
x imately
Ġemotion ally
Ġw ipe
Ġconsist ed
ĠN ancy
E ast
C s
f iction
Ġl oops
ĠBack ground
V irtual
ĠAssoci ated
pr us
Ġg ates
Ġfree zing
Ġp ins
Ġam azon
Ġle asing
Ġre he
b ay
18 4
G IN
ott est
ĠM IT
F ill
pr ising
Ġrecogn izing
not ch
ĠEngine ers
Ġover ride
or f
Ġnow here
ĠSurg ery
IP S
ĠX L
ĠET F
Ġsynthes is
ĠR ole
ĠHe ight
E F
ac kend
Ġfact ories
v ari
ĠR M
p ython
Or iginal
Ġconv iction
Ġcontrovers y
Ġsubject ive
Ġplan ner
y outube
Ġopt ed
ĠK ash
Ġcom ics
ĠT s
est amp
Ġ Ø
pro p
ĠÐ ·
arm ing
Dan iel
Ġk inedu
21 3
Ġfore x
24 8
Ġunve iled
ĠH ell
Sum mer
Ġcontinu ity
ĠT S
Ġadvis er
21 8
ĠAgain st
un ted
rid ges
tw itter
Ġ14 5
[ [
ĠV ista
d ess
ĠF IFA
Ġiss uing
P eter
ĠPear l
Ġcomp rehe
ley ball
ĠOut side
ĠTh rive
ĠCoal ition
Ġtrans cription
ĠRest oration
F low
Ġrug s
M att
ĠOr d
Ġl ongevity
agn etic
Ġ2 10
ĠMot ion
30 5
Ġgovernment al
ood les
ĠT ip
Ġexplos ion
ĠOcc up
ub ric
Ġgirl friend
c ards
Ġprede cess
Ġtur key
ĠSERV ICE
Sub mit
ĠVictor ian
Ġang ry
ik ed
ĠNe ither
Ġbo il
D en
Ġf ried
ĠRe ce
Ġver bal
ĠMy SQL
19 4
ĠW are
ĠNov a
Ġmo vers
Ġcom bo
Ġdang ers
ĠS aints
ĠR aw
ĠCat hedral
Ġdig its
Ġcere mon
Ġby pass
Ġremed ies
20 6
b ottom
26 5
ĠN ap
3 75
ĠRet rieved
Ġpul se
spe c
Ġintric ate
Ġg rie
Ġste al
24 9
C N
Sche dule
ul as
Ġemerg encies
ĠBen jamin
N OW
ĠVar ious
erse ys
ĠCh apel
Ġo ct
Ġj Query
ĠSw ift
ĠNiger ian
te am
ĠG RO
ĠG am
Ġinf ant
Ġtext ile
Ġsh iny
Ġav en
Ġcryst als
ĠHope fully
ĠAP Is
ĠL ed
J im
Ġinn ings
Ġred ist
/( (
Ġs oda
Ġland mark
Ġbra kes
ĠAss et
ĠW oo
ĠM ilk
Ġprofess ors
V IS
Bas ic
21 2
Ġtang ible
Ġshut tle
ĠS B
Ġam ateur
Ġdefin itive
Ġfault y
ĠVen ice
Ġb ored
ĠOr thod
pos s
Ġpoll s
ĠIran ian
ĠLind a
Ġscr ut
Ġprosper ity
ĠL ots
ĠChem istry
ĠIm agine
Ġim pe
30 8
Ġmir rors
class es
Be gin
ord ered
ĠCont emporary
Sub ject
e ffect
Ġ9 11
ĠRO I
ĠB orn
Ġ17 5
Ġstat ue
op ened
Ġ: -
ĠR an
M or
S orry
uck er
ĠH orn
ĠJ erry
ĠA ware
ĠR unning
Ġref urb
Ġmin s
Ġcor rid
Ġbou quet
Ġdipl oma
M o
Ġaest hetics
Ġbl ur
ĠDom ain
Ġquarant ine
ch t
Ġumb rella
ft y
ĠSher iff
Ġrel oad
Ġsevere ly
ĠFed Ex
ĠT icket
Ġn ov
amp oo
Ġf og
Ġ" /
Ġwish ing
Ġen vision
Ġd well
Ġ26 3
Ġsh red
Ġdest ro
Ġper t
ĠN est
ĠAt tend
ĠM aur
Log in
ĠInst ant
ĠW alt
Ġpos es
ĠC able
ĠMc Donald
ut ed
Ġsand wich
ĠF ried
f u
Ï Ģ
ĠRich ards
Ġfem ales
ĠV intage
Ġworth while
E s
ĠPro blem
ĠDesign s
h aw
ĠBl ues
ĠPl astic
protect ed
ĠDo ing
ING S
Ġcont rad
Ġrese mb
ush i
Ġbre eding
Ġesc ort
Ġ} )
ar ians
Ess ential
Ġkill er
Ġgrand father
Ġch rome
M AN
En c
Ġsc aling
ĠFam ilies
D i
h ad
ĠIN C
T aking
ĠAmbass ador
ĠMarg aret
ĠCh arter
yl ene
Ġ< =
bro ok
ĠV ideos
id al
el se
Ġd ia
Ġj ersey
ĠM ead
ĠB att
c oll
am iliar
oo st
.. ...
ĠN ike
ĠTur bo
Post s
Ġt riv
ett a
S eries
Or ders
gom ery
co al
ĠA ur
h uman
ĠPl atinum
Ġstandard ized
Ġref in
Ġal ien
Ġexp ire
u cc
D uration
enez uel
F ederal
ĠV ert
ĠD AM
Ġf riction
ĠFl ag
ĠJew s
Ġj avascript
IL D
Ġd oc
Ġnorth west
gl obal
Ġmoist ur
Ġrot ate
L ondon
ĠSoc cer
ĠTr inity
AG R
Ind ian
p aced
Ġabsor ption
ĠElect ronics
ruct or
G T
Quest ions
Ġmer it
Ġcr ude
ĠLight ing
W iki
Ġspr ink
Ġinte nds
ĠLe gend
e an
Ġcomp ilation
ĠAnn iversary
xx xx
Ġon site
Ġst amps
ĊĠĠĠĠĠĠĠĠĠĠĠĠĠĠĠĠĠĠĠĠĠĠĠĠ ĠĠĠĠĠĠĠ
the ir
Ġbrack et
w rap
S EC
ĊĠĊĠ Ċ
S afety
ĠSpecific ally
F ive
Ġl ace
ĠFor mat
Ġkid ney
Ġch opped
ĠEuro s
ĠB ott
URE S
Ġcountry side
Ġl ips
Ġstat ute
is en
Ġbe es
Ġsh y
Sp ot
ĠS ITE
ue z
Ġp ale
ĠMed al
Ġrel ay
ĠFlore nce
Ġall iance
Ġide ally
ĠSales force
Ġnotice able
Ġsimpl ified
Ġhed ge
d og
Ġende avor
Ð¾Ð ³
"} ,"
________________ ________________
ĠCub a
Ġ19 66
ĠAn swers
ĠInt o
5 50
ĠC ake
is se
Com mand
as ily
ĠPer ry
ĠJ i
W ar
ĠH indi
b c
Ġimp art
Ġformat ting
comp any
ĠS r
Prov ider
a uc
Ġrout ines
pos ium
ĠInj ury
Ġse nder
Ġinsight ful
Ġlim estone
Ġe ternal
En vironment
ond e
Ġaccomplish ments
Ġsy rup
d t
al an
ro e
Ġm im
ĠInst ru
Ġsing ular
Ġup hol
appro ved
ĠCol ors
ind ust
Ġdes cend
ĠTrack ing
Ġinter disciplinary
Ġpu zzles
um en
Ġg inger
Ġk iss
Ġfat al
Ġdoub led
Ġn ost
amp agne
ĠEag les
Ġmind ful
ir ical
In f
Ġvalid ated
Ġad hesive
Ġqu artz
Ġreflect ive
C ast
Ġpro be
ĠW ag
T ree
Ġhe ll
ins ert
ĠIndepend ence
ĠBar ry
44 8
g ages
ĠDe lete
Ġweakness es
h icles
St orage
ĠR SS
Ġproduct ions
Ġins urers
ĠW R
Ġhe ter
Ġconv icted
Ġfulf il
Ġout fits
Ã ¥
Ġpl ed
k ok
Ġexhib ited
Ġciv ic
ĠAff iliate
ĠUg anda
ĠM az
Ġlin en
ĠCrypt o
Ġpoly mer
Ġende av
akes pe
Ġemphas ize
ĠLe af
be cca
ĠDis able
Ġpat ented
m obile
ce ans
ĠLaw yer
Ġcur b
UR N
Ġrespect ful
F lor
Ġfundament als
3 25
Ġun ified
Ur l
app ly
ĠHy per
c span
ĠS ector
A part
Ġch unk
ĠEn h
> (
n ik
at ics
s q
âĢĭâĢĭ âĢĭâĢĭ
ĠBusiness es
P o
id ation
le ys
g roups
Ġrisk y
Ġemb arr
Ġgu ards
rem ove
requ ires
Ġsp ite
Ġpersonal ities
Ġshow ers
} \
Ġ ).
ow ski
) "
Ġbrid es
ĠD NS
... </
ĠVin cent
Ġroot ed
Ġsu ites
Cont in
ĠHy brid
Ġpot s
ĠNe uro
Ġenthusi ast
Ġm ales
ĠTy ler
T yp
res a
ĠLeg acy
UST OM
Com b
ĠList en
Ġoptim istic
rolog ical
,, ,,
Ġentrepreneur ial
Ġhas ht
om on
Ġe book
tag Name
Ġcl usters
Ġreg ression
pol icy
Ġun common
S ch
Ġor chest
ĠM ack
p ayer
ĠT iger
ĠL is
Ġconver ter
C and
Ġecosystem s
Ġwork outs
Ġalph abet
Ġaw k
ĊĠĠĠĠĠĠĠĠĠĠĠĠĠĠĠĠ Ġ
ant i
Ġbro ch
Ġanten na
17 9
ĠW or
path y
ĠGra du
Ġment ally
s pecial
ĠA j
les h
ov ak
ad visor
Ġperiod ic
ĠEx po
ĠFlow er
ut o
ĠC rew
ĠM iles
ÐµÐ½ Ð¸
( \
Ġstim ulate
Ġlay outs
VER Y
Ġsc ram
ĠK on
ĠT ournament
ĠC afe
s ites
ĠUn ique
Ġinfect ious
Ġd ye
fl are
3 80
ĠC isco
Ġinstruction al
ĠA SS
ĠEss ential
Ġkn it
art ments
ra ham
Ġcou ch
att r
22 7
Ġmerg ed
Ġprep ares
ĠOR DER
sub mit
Ġco il
Ġra b
dis able
Ġaccum ulated
ĠF est
Ġshall ow
le m
ixt y
Ġbes poke
Ġin adequ
ĠJess ica
Ġhour ly
F rank
m aterial
ĠHe brew
Ġre ck
ĠMine craft
Ġsort ing
Ġenhance ment
ĠTh read
Ġtob acco
ĠD ual
O s
Ġsp icy
Ġfilter ing
Ġcoll ateral
um ers
L anguage
Ġ19 0
ĠRog ers
it us
ens er
Ġver se
ĠKind le
ĠMonitor ing
ĠSecond ary
ĠApp lied
Ġin ability
ĠW arning
ar u
ĠCont est
Ġcr unch
Ġmattress es
Ġfrustr ated
ge on
Ġce ase
select ed
ĠColomb ia
Ġproblem atic
ĠC ensus
ML S
ĠPol icies
Ġstream line
Ġor nam
ĠHung ary
cent ric
ĠPut in
Ġsurv iving
ym es
Ġexpend iture
Ġshowc asing
Ġbul b
und ai
Ġwe aken
W ire
3 40
ĠS ME
i ples
ĠSh aw
Ġembro idery
Ġpreval ence
cle an
Ġor n
t ab
Ġmile age
ph is
ĠSupp lement
ĠRE G
ĠCover age
ĠT all
az er
Ġc innamon
Ġst roll
Ġres olutions
Ġlaw makers
ĠAr n
Ġcar ved
Ġf usion
or b
ĠPRO DUCT
bet ween
ĠCon sole
Ġdigit ally
ĠD S
ĠE ffective
Ġ12 6
P DF
opt ional
Ġmetall ic
asp berry
c as
Ġguard ian
c ro
45 5
Ġscal able
Ġinsu fficient
Ġfe ather
Ġconsolid ation
fe atured
im ental
ar is
ĠAccount s
Ġsn ipp
Ġscr ub
ĠC el
em i
S ing
Ġreimburse ment
Ġcivil ian
Sim ply
Ġbe ats
ancell ation
Ġvisual ization
Ġper ks
ur ated
comp et
Ġexceed ing
ĠShe ll
ĠT ER
N or
ĠAn a
Ġp ier
ĠÂ ±
Ġcorrect ed
Ġcompar isons
Ġcomp ost
Ġre duct
is ans
âĢ¦âĢ¦ âĢ¦âĢ¦
Ġsubscrib ing
Ġnew born
akespe are
intend ent
s ocial
Ġres ervoir
ĠBr ussels
22 6
Ġgra ins
Ġhe x
ĠF Y
ĠThe mes
ĠIde al
sem bl
iet al
ribut es
Ġir res
Ġrevis ions
w ait
l oc
Ġnomin ations
Un known
Ġn oun
p it
ĠL ions
hold ing
ĠSc ale
Ġprov es
ĠLab s
Ġclos es
Ġd io
ĠM unicipal
R en
Ġv est
Ġexp iration
Ġne u
Ġvolunte ering
Ġpe aks
Ġm erc
erv let
Ġfrequ encies
Ġwel ding
Ġrenov ated
ĠPO ST
Ġb iodiversity
Ġshort s
ĠH aven
Direct or
cons uming
erv atory
Ġtravell ers
Ġd ots
he ll
Sc ott
Ġitiner ary
Ġbid ding
ĠPar ish
ĠR ural
Ġc ort
l oss
Ġconc ise
Ġsign age
riv ed
F ER
Ġg ases
LE T
ver ted
Ġte e
Ġeven ings
ĠESP N
ĠSE LECT
ĠT erry
ĠRes olution
ĠTre k
ĠPlay Station
Ġut ter
g ative
22 3
K A
Ġcompr ising
Ġmotiv ate
ĠdÃ© cor
23 8
Ġhom etown
bsolute ly
18 6
Ġpract iced
Ġmal ware
ĠInter view
ĠW es
field s
Ġcr ashes
ĠR NA
ĠRel ated
EM A
ĠM int
Ġton nes
Ġcapac ities
Ġ2 25
ĠE ther
Cal ifornia
ĠFil ip
Ġ% >
Ġrout ing
fore st
m itt
Ġclean up
Ġch ick
, .
Ġschol ar
ĠO t
Ġ/ *
Ġaut ism
Ġref res
Ġemp owers
lic t
i ating
Ġv ic
ĠS ew
Ġspokes man
Ġbl oss
alth ough
ĠNAT O
ess or
Under standing
Ġref errals
Ġpil ots
ä »
Ġkitchen s
Ġlight ning
r ong
Ġemb od
C B
Ġprint able
reat ment
ĠFlow ers
Ġmar vel
s quare
Ġen semble
Ġg ifted
Ġdark er
Ġbal ances
ĠWh ole
S ar
support ed
ĠB rief
et ric
Ġdign ity
Ð Ĵ
Ġequ itable
Ġorigin ated
pl ain
Ġrig id
33 6
S y
Ġp ave
Ġl ime
Man ufact
Ġspokes person
ck s
S ug
ĠKe ith
ĠV P
ĠAdvis ors
ĠR N
Ġpres chool
st ruction
erm at
ĠOsc ar
ĠL ect
ĠAud i
Ġcollabor ating
Ġj ourneys
ĠSter ling
en ic
Ġunf air
ĠUS C
Ġemploy ing
St ory
Ġby te
c orn
Ġar ises
ĠE RP
ut t
ĠLuck ily
ĠN V
Ġmult imedia
Ġtrans itions
Ġfa uc
ãĥ ¼
Ġab oard
ĠS AT
ric ular
Ġviol ate
Ġhe llo
ĠPark ing
otechn ology
spring framework
ĠTop ics
Ġimper fect
Ġcock tails
Ġrecover ing
Ġen light
ĠW riter
ĠEm ma
TA CT
ĠSam ple
ĠBern ard
Ġun rest
ph oto
Ġ25 6
ĠD inner
ject ive
F X
ĠFor ms
ĠT rial
Ġport raits
Ġpain ts
car bon
Ġf ax
im o
ĠOl iver
ĠPay ments
ĠPot ter
ĠRel ief
Ġtax payers
å ¤
Ġu k
ĠVis itors
Ġaut h
Regist ered
Ġmult if
cast le
M ail
Ġrel ocation
Ġl os
Y Y
Ġher bal
23 6
ĠAd mission
Ġf iring
Ġs izing
ĠW aste
f c
est ablished
ocr ati
Ġslic es
Ġc itations
Ġfacilit ating
g el
Ġpurch aser
Ġfresh ly
Ġlever aging
Ġsystem ic
Ġsom etime
ua wei
Ġatt ent
ost ics
Ġt urt
Ġexclus ion
board ing
phot ocrati
ĠPl ate
ãģ Ħ
Ġaccident ally
Ġn inth
Ġsuccess es
n om
u y
Ġb on
M ill
ith uan
Ġe ld
Ġaff air
ĠJe ep
Ġneighb oring
Ġser um
â Ļ
ĠM IN
ĠSc ar
ERS ON
ĠF rame
ĠX ia
Ġc ass
Ġvou cher
Ġt ales
Ġir regular
Ġtran qu
ĠPer u
ry s
Ġer u
Ġint ens
C as
p ots
Ġemail ed
Ġo we
Ġtrig gers
ĠRe uters
F oot
ĠMin neapolis
28 5
fe ed
el iness
Fe ature
ĠR oth
Ġpres ently
rim p
or ne
Ġg ay
ĠWhe never
ĠI psum
ĠCoun ter
be gin
ĠP oker
ĠRead er
Ġh ottest
p air
oom la
e in
Ver ified
eral a
ĠAP PL
l ot
ĠPass word
Ġar th
Ġcy t
ic ul
ed a
Ġscreens hot
24 3
N ER
Ġbr ighter
h n
st own
ĠPun j
A CT
Ġspin ning
Ġscr atches
ad ians
40 4
il ia
Ġbook mark
ĠCru ise
Ġresear ched
Pl ayer
Ġpar ade
: <
Ġinv ented
x ic
om mod
Ġrepair ing
ĠCab inet
red irect
ĠBo iler
Ġs ch
Ġb ure
MA X
ĠPract ices
ĠCor onavirus
Ġen closed
Ġdisadvant ages
ĠKir k
ĠM OD
Ġnor ms
P ick
ĠE B
Any one
Ġrel uct
Ġres ides
Ġunp redict
s ave
Ġrain fall
Ġcounterpart s
Ġstick y
uten ant
onom y
Ġfair y
in ja
ĠS ET
Ã ª
ĠP rag
Ġsp here
bour g
ies el
els h
Ġle nd
ĠDesk top
fl oor
Ġ19 63
Ġpot ent
erg y
ĠR EL
L ou
ĠOr igin
Ġwh olly
ĠSacrament o
Ġrein forced
Ġpat ents
Ġdistribut ions
par ation
ĠA W
ĠP rest
ĠW atson
* )
Ġmor ph
Ġterror ist
ĠMatt ress
ĠSav ings
ĠG MT
Ġ ip
Ġover time
Ġacceler ation
ĠH erm
ĠW ing
E mer
d efined
ĠAutom ation
2 11
IF IC
Le ft
Ġas phalt
T L
ĠMar io
ĠIndividual s
ĠIN CLUD
ĠP and
Ġplan es
ĠH ello
Ġmis leading
im ag
Ġ( @
ook s
T our
ĠD rag
Ġdiff ers
Techn ical
re x
Ġsil hou
ĠMah ar
Ġnegot iation
Ġhonest y
Te le
ĠC emetery
Ġcomplement ary
ĠP apers
Ġlist ener
Ġb amboo
ĠB less
T en
Ġsp oon
Ġschol arly
Ġcub ic
ĠCo aching
ĠM end
Ġnutri ent
Ġpay out
ĠDou g
Ġfold ing
ĠH ockey
ĠArt ists
Des igned
Ġ2 60
Ġl b
Ġcost umes
Ġinacc urate
ĠC ord
Ġcur ves
$ {
n amed
av ia
Ġacknowled ges
ĠN issan
Ġcommunic ated
Sim ilar
b ast
Ġb ush
ĠB order
ĠR EST
Ġinter ven
Ġgl orious
Ġdr ums
ĠSl ot
ĠW ave
ĠK yle
Ġdent istry
ES CO
d est
k ar
Ġcred ible
Ġsens ory
le ad
Ġgra pe
qu in
Ġg own
ĠWe bsites
Ġdet erg
Ġ ì
Ġmetabol ism
Ġdisc iples
TA IN
M oney
Ġveter inary
Ġhead ers
Ġ& #
ĠB ristol
ĠChem ical
ĠC iv
names e
Ġserv iced
be it
30 3
pl ash
ĠImper ial
ĠK os
as ia
in ical
bor hood
ak u
R ay
ĠIntegr ated
Ġ19 62
N atural
om al
Ġproject ions
ĠJ ar
ĠL iability
Ġcoordin ating
ple tion
Ġmar itime
AP I
ĠPur pose
E mb
Ġgar ments
Ġprolong ed
et ed
E nergy
ĠGl asgow
ĠDam age
ĠR ud
Ġre per
ĠT ibet
Ġdipl om
Ġsc ream
×Ļ ×
Ġl odge
Å Ĥ
ĠWorld wide
Ġintegr ates
ĠA uction
ĠK le
erman ent
Ent ity
Ġport folios
ĠE tsy
Ġconfirm ing
ĠI gn
u gh
Ġlab s
ĠTurn er
Ġprovin ces
Ġnumer ical
Ġ> =
Ġmin es
^ {
ĠSqu ad
Ġbroad ly
Ġas leep
Ġ2 70
id is
ĠR ib
itut ed
ĠD riving
22 9
Ġsk irt
ĠB enn
ĠEx c
ĠE valuation
Ġexplan ations
Ġther most
ĠPharm acy
Ġriv als
Ġinv oices
q q
ight y
ĠIndian apolis
fort unate
ga e
ĠW I
ĠInvest ors
Ġconsult ancy
Ġcom fy
Ġequ ations
met a
ĠN as
Ġind ef
Ġsw ord
Ġsl ope
log in
Ch ief
ĠAh med
ĠDef ence
t z
ĠBo at
ĠCor ner
off ice
ĠIn clude
or p
ĠSt ainless
ish i
ET H
cont in
Ġab ortion
Ġc ared
Ġfashion able
ĠDes ert
pur pose
Mult i
Ġartifact s
C ut
ĠID s
>< ![
Ġunder water
Ġep it
} {
Ġqu arry
ĠF uel
ar g
oc ating
met ry
Min imum
cl osures
30 6
Ġdecre ases
ĠB EST
Ġsign aling
Ġadverse ly
ener gy
Ġtra ject
Ġment ors
Ġtraged y
Ġc itation
Ġreal ise
ĠB ent
opp y
Ġproject ion
Ġcopy ing
24 4
Ġface book
Ġcollabor ations
ess a
Ġexport ed
Ġdemand ed
Ġd ull
D L
Ġexc use
âķ Ĳ
ric ed
S yn
Ġt an
M IN
Ġst ub
qual ified
Ġlad der
ĠSH IPPING
Ġcontract ing
ab we
Ġveget ation
o fficial
i Ã³n
Ġshowc ases
More over
Ġimag in
) ]
ĠBasket ball
hol m
ĠBroad cast
ĠF ut
ĠW arner
Ġform ulated
Ġ12 4
ĠInte gration
B Y
Ġ25 5
Ġtransl ations
Ġbe e
23 2
Ġc ottage
29 5
s ell
B orn
V AL
Ġspec s
R a
Â §
Ġrein force
? <
le gal
ag le
Ġmush rooms
ĠSym phony
ĠClass es
S ample
ens or
Load ing
Ġhome page
á »
Ġele ven
Ġca ption
ĠHarr ison
ĠMus k
t ags
L in
Ġdifferent ial
Ġchol esterol
j j
cent ered
Ġre ef
ĠP att
ber y
ĠCarl os
Ġmis under
. &
Ġroof s
Ġdisp atched
p ict
Ġattract s
ĠV end
âĢĿ :
B al
ĠRoman ia
i ably
t ree
ĠCommun ities
Ġimmun ity
Ġam p
ĠM aker
j ob
e rer
ĠRon ald
Ġfraud ulent
m ac
Ġtre nding
Ġprivile ges
ĠG arc
Ġst ip
Ġinaug ural
F it
ĠB illy
ur st
i eth
ect ions
z ero
ĠI E
Ġn od
Ġexp on
Ġimpact ing
ĠJew elry
Ġsign atures
Ġcomment ing
ĠAre as
Ġsc attered
ĠOpportun ities
id i
Ġkick ed
Ġinspir ational
arth a
Ġhand crafted
Ġ$ ("
ĠK oh
Ġallow ance
b ia
ĠHold ings
ĠSche me
Ġnot ability
Ġded uction
ï¼ ļ
ĠWy oming
Ġp H
Ï Ĥ
ty pes
RA CT
Y et
E arlier
phan ie
urn ame
ĠPress ure
Ġblow n
p ieces
ĠEm irates
ĠGi ants
omin ium
Av oid
ir ie
box es
G erman
C ould
j oin
Ġdraw er
u art
Ġat e
Ġcr ush
Ġ13 8
Ġaer ial
c opy
am ples
ĠAsh ley
imb abwe
Ġn ic
ĠC arn
ĠA BO
Ġmy riad
ĠG PU
Ġnote book
Ġaccount ed
ak y
Ġc ad
Ġirr igation
^ ^
ĠW inner
14 1
å ®
Ġth ru
Ġcomp artment
ĠV AL
ian e
ĠB ir
ĠCy prus
Ġnot ch
Ð°ÑĤ ÑĮ
der abad
ĠO z
Ġprov ing
in as
Ġwin nings
ĠL aser
ah u
ĠV ine
Ġeduc ating
W ashington
Ġcon tend
Ġheav ier
Str ong
s ales
Ġtra pped
ĠT ot
ĠEX P
ĠFant asy
ic ion
Ġgra ve
Ġobs c
ĠChristian ity
Ġadequ ately
depend ent
ĠM old
B ul
Ġcompan ions
Ġp od
ĠM ON
Ġtrib al
ĠEn sure
b oys
Ġb ang
Ġdepend ency
Ġpat ron
ĠCr ushing
Ġ10 80
r b
stan bul
J P
id ad
Y O
ex port
A ST
":" ","
ĠPart ies
Ġcatalog ue
ĠAutom atic
Ġl anes
m em
Ġworkflow s
n as
ĠRe commend
ĠUb untu
z hou
ĠR ena
Ġscrew s
Ġin duced
Ġ19 61
Ġsoul s
ĠSur face
19 90
M F
N R
s plit
r ants
Ġop ener
ag h
B us
iv able
B oard
19 3
down load
ĠRe fer
it les
Ġcon ve
ĠAct ually
ĠW inds
T ip
ĠH EL
Ġwra pping
ĠQ R
23 7
ĠL LP
Ġus able
Ġcent r
angu ages
Ġalph a
Ġpedest rian
ĠStrateg ies
avil ion
work ers
Ġbra ces
ĠField s
Ġcompet ence
il let
Ġstead ily
ĠK ick
ops is
ot ions
Ġemp athy
ĠD iversity
M ont
ĠFun eral
ĠFor mer
apt op
T ell
Ġlast ed
Ġtr unk
ĠSuper ior
fol k
Ġsm arter
Ġinter iors
Through out
Ġorganiz ers
17 3
Spe ed
Ġsc ra
S us
ri en
Ġhur ricane
Ġbit ter
Ġeat en
ä ½
Ġch mod
ĠIn flu
Ġprotect ions
int ers
Re ference
w idget
as ks
gar ia
s il
Ġgl ac
U X
pe x
ĠMod ule
ĠH ait
ĠC elt
44 3
b ucks
ĠR ush
m ia
Ġcredit ors
w indow
Ge orge
ob j
ĠJul ie
Ġstate wide
Je ff
Ġlock ing
Ġfier ce
Ġdes cent
sc rib
ĠQueens land
im ination
ĠO pp
Ġunder m
Ġallerg ies
30 1
ĠB our
Ġcard iac
in tern
ĠW riters
Ġrent ed
Ġdio xide
f air
ĠPen insula
Ġovers ized
ab e
ST EM
m any
ĠChev rolet
t rain
t im
ON D
ĠMun ich
Ġteen agers
os ion
Ġinterfe re
Ġvot er
] );
Ġo l
-------- ----
Det ermine
ĠAch ieve
C ross
Ġbi ography
ĠCom ing
Ġob esity
P ad
Ġtow ers
Ġstretch ing
ĠE sp
re ason
m ut
H I
ĠCat alog
ĠStart ed
Res ources
15 1
ĠMin imum
Ġarr ays
ĠAf fordable
C V
Ċ ĉ
ĠAb ove
ĠAn cient
Cle ar
health y
uk a
Ġman eu
ĠNew ton
ĠD ee
c ultural
l ibraries
Ġso ak
Ġcat alyst
B reak
CLAIM ER
ĠCost s
th read
the mes
ĠĠĠĠĠĠĠĠ ĠĠĠĠĠ
ar nt
B o
ĠGl obe
Ġcompens ated
Des k
Ġgas oline
Ġfram ing
ĠMac Book
t v
Hot el
Ġor thod
Ġth under
ĠAlex and
ro ts
g gle
Ġtra ct
Ġcontroll ers
Ġencount ers
h ours
C AD
ĠG iving
ĠR ide
ĠP V
Ġor bit
26 6
48 4
ĠAdvant age
Ġrecept or
Ġinsp ires
h ots
Ġstick ing
Ġaffili ation
Ev ents
not es
Beaut iful
Ġrac ism
ĠV enezuel
Ġreject ion
b f
ĠCan vas
Ġhand ic
Ġm ould
pro ved
Ġn ap
Ġmean ings
Som ething
t ube
Ġimpl ant
ĠNon etheless
Ġexpans ive
Ġn aming
cy cling
Ġspark ling
roph ic
L ittle
aj a
ĠFinn ish
Ġcur ved
Ġfle w
pay ment
ili ary
ĠLGBT Q
Ġcom ed
Ġon set
44 4
Ag ain
ĠM arsh
< ![
ĠComp are
ĠPow der
Ġparent al
Ġpreval ent
Ġ2 80
Ġt am
f rac
eng es
Ġpat ri
EN C
Ġplan ets
ĠZ oo
ĠN athan
y on
Ġsc ared
ĠCroat ia
Ġ ....
ĠRet irement
VER T
ĠFor bes
Ġ: :
Ġsens ible
ull ivan
23 3
Ġthere after
Ġweigh ing
Ġab normal
Ġg ems
Ġ16 5
ĠM ile
L ib
ĠVit amin
Ġlack s
Ġimp ose
cl ub
Ġhous ed
Arch ives
ribut ions
Ġelimin ates
Ġlivest ock
Ġsqu ares
ĠS hen
/ *
Ġse wer
Ġacc ents
ver ts
ĠMont gomery
uls ion
} "
ĠB rowse
= #
Ġantib ody
Ġadv ising
Ġb ids
Ġcontract ual
ĠNe il
ĠI G
C over
ĠTre nds
Ġinfringe ment
Ġmill ilit
R ank
Ġarom a
at ri
ass oci
Ġtight ly
Ġcreat ure
Ġwa ited
ĠT i
S uch
Ġacc reditation
ĠLog o
an ical
ĠGe or
ĠN umbers
Ġimpress ions
ĠB TC
b ai
Ġmon ster
ĠGu ild
Ġcard board
M id
Ġadvis able
cycl opedia
Brit ish
Ð¾Ð ±
ĠAdminist rative
Ġobs erving
ond o
ors che
m are
sh ort
Ġdivide nds
26 8
Ġto e
ĠDis ability
Ġsand w
Ġpro c
f ied
35 5
ĠIns ights
Ext ra
Ġtun ing
Ġdrag on
Ġvol atile
Ġexpend itures
ĠW inn
Ġinv asive
Ġmit igation
ĠK umar
ĠP OS
AT ER
Ġcro re
Ġbeat en
P ool
ĠEd wards
W al
v able
ĠB urg
ĠUn ity
Ġmis use
Th omas
ĠImprove ment
25 4
Ġspl ash
ĠKeep ing
icult ural
ĠHe ating
Ġcont ests
Ġdisapp eared
l am
Ġexp ands
Ġhelic opter
aster y
ĠProm otion
ĠBrand on
ĠF IR
22 1
comm it
quest ion
Ġheadqu artered
ĠT us
Ġhe els
oles ale
Ġb iking
Ġsurge on
Ġc el
Ġdr astically
ĠP G
Ġmart ial
fund ed
ĠA AA
ĠX P
Ġro ok
R OR
ĠSl ots
Y e
G rand
24 6
ha ul
ĠInter active
Ġobject ion
ĠAR T
ĠFund ing
in cre
ĠTry ing
Ġge ography
Ġle arnt
Ġv ault
ĠST AT
Ġcounter tops
Ã© t
Ġun matched
Ġpar se
Ġcirc uits
Ġcrew s
M ove
Ġalt itude
b ath
an mar
Ġc iting
Ġ6 50
IC Y
Ġf erry
ĠPast or
B G
ĠW ait
ĠF alse
ĠBudd hist
ĠN T
J on
it ably
Ġpropos ition
Ġinc idence
S ett
Ġtest imonials
24 2
epend ent
Ġstar ring
ĠF ri
Ġy acht
ĠNav igation
N I
po ons
Ġouts ourcing
aj ax
ĠCon sequently
pen cer
ĠCon vert
ac ies
te nder
Ġreduct ions
ins ured
26 7
In sp
ĠC atherine
Ġrest oring
oo ses
ĠDog s
Ġsc oop
ĠPro of
Ġtra ces
iel der
ĠAr bit
ĠW ang
ul se
Ġcontract ed
orn ings
14 2
Ġl ithium
d ouble
M a
v v
Rich ard
pher d
Ġcomb ust
ruct ive
Ù ħ
C reated
Comp et
Ġcompar ative
Ġfle e
ĠAthlet ic
t c
ĠTest ament
S en
ĠD ictionary
G erm
ĠN ex
OW ER
d oll
Ġinst inct
ĠR ET
Ġun fortunate
Ġhead aches
mont on
News letter
Ġsubject ed
Ġfire works
ĠD ocuments
ĠY u
ĠSustain ability
23 9
Ġme g
Ġcommercial ly
som ething
O F
ĠO re
ĠAware ness
ĠOb viously
Ġbenefic iary
in duced
Ġf ixture
Ġd rones
Ġh over
erv atives
Ġs ore
us ername
Ġstra ins
ju ven
Ġfurnish ings
sh ield
Ġb apt
Ġper ceive
Ġin quire
ĠS ed
Ġlower ing
Ġre el
Ġcont amination
ĠCh arge
Ġsp lend
ĠRe ach
Ġsculpt ures
Ġelev ate
ĠConf ed
um i
Ġrev oke
Ġo s
Ġnurs ery
ĠSh akespeare
ograph ies
Ġ iv
Ġmass es
Ac ad
Tw itter
ĠIns pection
Ġboost ing
Ġm uff
Ġconsult ations
id as
bi ased
Ġple asing
Ġhand ler
r h
x sl
Ġparad ise
ĠG ifts
ob ic
Ġunder going
C hat
Ġclean ers
Ġspan ning
Ġsusp icious
Ġle agues
) )/(-
Ġb ip
Ġsatis factory
ĠB ru
Ġp se
Ð» Ð¸
al ine
it an
Ġrem inis
Ġupload ing
ĠL amb
in ventory
ĠR ou
check box
Ġb acon
ĠY E
l ove
Ġd orm
IN ESS
Ġbrack ets
Ġspread sheet
3 000
Ġ= ==
en abled
Trans port
Ġfrag ile
Ġfl ed
M Y
Ġtrans act
ĠUS DA
Ġwork manship
bt n
ay ette
ĠB end
ĠS SD
Ġsurf ing
ong s
Ġimpr ison
Ġch oir
w riters
Ġdoctor al
ĠM akes
b read
step s
Ġro oft
ĠM R
P RE
pre view
ili ans
IT T
W I
Ġthr illing
ĠMov ies
ĠF X
Ġbreast feeding
ĠH unting
Ġsens ation
rect ed
ĠFact s
pe g
Ġepid emic
ĠAng els
Ġbe nd
38 4
Ġauthor ize
ass y
Ġcounsel or
Ġwrit ings
Ġpictures que
ĠRoof ing
Ġeffort lessly
Techn ology
j query
O cc
Ġtax able
Ġball oon
Ġris en
c ross
Ġso othing
Ġcous in
im als
ĠRe ason
Ġw ager
face book
Regist ration
Ġw iki
Ġoptim izing
ĠCam eron
iss ue
P LE
Ġcle arer
Ċ ĊĠĠĠĠĠĠĠĠĠĠĠĠĠĠĠ
Ġhur d
g one
ĠAn aly
ĠE arl
Ġf ighter
ĠK ap
Ġex cerpt
Ġa ston
Ġarbit rary
Ġs ulf
Ġcomput ational
Ġsp ont
heart ed
ut ral
Ġine quality
Ġexam inations
Ġprison ers
Ġdesper ate
Ġexerc ising
li hood
ĠAd ding
Ġ[ "
Ġsound track
dig it
Ġjew el
ange red
Ch inese
ĠCan adians
S creen
Ġadapt ive
ĠSp in
ĠK o
40 8
ĠIll ustr
g ins
ĠKnow ing
Ġ3 20
Ġbad ge
ĠM AC
ĠAl ert
ĠSy rian
ĠC ort
function al
ĠM atter
ĠS aw
Ġmunicipal ities
ĠSome one
ĠPower Point
ĠMalt a
ĠGate way
]] ><![
Ġstream lined
Ġcan al
at ra
net work
ĠIn put
11 00
, âĢ¦
S ound
ĠFound ed
28 6
ĠGene va
Ġget away
Ġrat ios
Ke eping
ĠP VC
h im
H G
ĠNort heast
Ġdump ster
Ġweb inars
Ġsm o
ĠWalk ing
ĠMan agers
Ġc afe
Net work
ĠP am
Ġsk incare
Ġinter change
15 00
ç Ķ
Ġabsor bed
re lease
int ed
ĠSD K
AD A
ĠCharl eston
Ġtag ged
Ġins urer
Ġl ac
V ict
ir teen
Ġcon gest
Ġsk ate
Ġstrateg ically
Ġup ward
d rive
ht m
Ġpre tend
Ġground ed
ĠV S
L T
Ġdoub les
Ġassist ants
ATION AL
N B
Christ mas
ĠÐ½ Ð°
ĠCap acity
D er
W riting
ab ric
Ġin line
.. /
ĠAS AP
Ġge ared
Ġintention ally
Ġpra ised
v id
ĠP ull
ãģ «
ic ator
ĠT B
F eed
ci pe
Ġtravel er
is le
rand om
Ġplaint iff
oll o
d river
fin ished
Ġover ly
ĠN u
Ġped al
. ",
AT CH
ĠHel en
Ġcomprehe nd
ĠDev ices
You ng
Ġplay off
Ġshr ink
18 2
ĠAmeric as
AN A
c ule
Ġhistor ian
aut o
ear ance
Ġm illing
Ġancest ors
Ġb ots
Ġmet ropolitan
Ġst ro
ĠD ed
âĢĶâĢĶâĢĶâĢĶ âĢĶâĢĶâĢĶâĢĶ
Ġ13 9
au er
Ġinher ited
Ġad vers
27 6
n one
Ġattach ments
Ġintent ional
Ġamb ition
Ġpal ace
Ġboy friend
Ġmel ted
Ġaction able
Ġd welling
osa ic
Ġstick er
on str
Ġinstall er
ĠMarket place
Ġtri angle
ĠF oster
ĠDe bt
cont roller
ĠT C
Ġas ym
Ġmat te
Ġ19 2
ĠÐ Ĵ
ge nder
ĠRh ode
ĠDel iver
B ob
Ġphotograph ic
qu arters
Ġfacilit ates
Ġsold ier
Ġâ ĺ
Ġafore mentioned
C ele
Ġhum id
Ġemp owered
Ġob j
ĠIdent ity
ĠPolit ics
ĠI A
Ġrepl ied
Ġast hma
Ġannoun ces
ner g
Ġbreath able
Ġanth rop
ĠJohn ny
ĠS ah
ĠUn limited
ĠLike wise
16 1
ĠMem phis
ĠTal ent
urg ical
ĠI B
uck ed
Ġan kle
Tra de
Ġdef ic
c ott
Ġentire ty
25 8
Ġterror ism
it as
7 20
Ġclass ics
resp onds
Ġlong time
Ġrecogn ising
Ġarg ues
Ġsufficient ly
Ġannoun cing
Ġdown side
g re
âĢ¦ âĢĿ
Man age
Ġaffect ion
ĠR ack
×ķ ×
and em
ĠMar ina
ĠJul ia
Ġcampus es
c ake
ĠRe creation
3 99
cy cles
Ġw ounded
L ibrary
Re v
load ed
Ġren amed
Ch anges
23 1
Ġshort ages
ess ential
ĠFe ature
fl ies
W ay
Ġlearn er
ĠR ust
Ġhead ache
Ġkil omet
ĠG y
ĠT ier
ĠP or
Ġtact ical
Ġhe mp
Ġargu ably
U A
Ġmin isters
Ġpop ulated
ĠSt ruct
met ric
Ġshut down
Pass word
Ġtreat y
est ers
Ġplay offs
âķĲ âķĲ
f re
Ġvegg ies
Ġfoot wear
Ġexplo it
Ġsung lasses
ĠProv iders
od i
Ġwild erness
Ġinfluen cers
ĠGon z
ĠSat is
arr ants
ason ic
Ġl oses
17 2
Ġ Ñĩ
D rop
AA AA
Ð¾ ÑĢ
b ly
Ġmain land
Ġdepend encies
Ste ve
Ġweigh s
ig ating
v m
import ant
U pload
ol t
Ġ12 00
Ġconf irms
Ġstimul us
Ġopp osing
Ġpos ed
ĠG C
Ġsh adows
ĠR uth
O RE
hist ory
ĠFriend ly
B ed
Ġpost ure
Ġshock ed
ĠD ust
ĠÐ½ Ðµ
ĠOwn ers
Ġtri o
__ _
ĠPort able
All ow
ine a
ĠEx ception
Ġatmosp heric
Ġl akh
Ġemerg ence
æ ĸ
ĠSub st
om ore
Ġp addle
Ġcar n
ĠM ans
Ġroutine ly
AC C
Ġge ometric
ex pl
ob iles
Ġcomprom ised
ĠD ennis
us ually
zy me
Ġappra isal
Ġsil icone
Ġasp iring
Ġdecentral ized
Ġawk ward
Ġpredict ive
min ster
sc opy
Ġmar ital
V ENT
Ġapp end
S B
ĠOpen ing
Ġwas ted
s ets
Ġbowl s
sub ject
ĠBas ically
Ġhope ful
Ġgen ius
Ġye ah
Ġtrail ers
he tt
ĠPrior ity
ĠJam ie
rap ist
W ild
hes is
Ġoccup ational
ĠLaure n
ĠG ym
Soft ware
Ġst ellar
d ot
l iving
ĠFour th
Ġforg iveness
Ġsett lements
T oken
G overnment
Ġworks pace
Ġo wing
Ġspeed y
ĠPhil osophy
Ġl azy
br ush
ĠOffic ers
Ġpl astics
r ators
ĠDemocr at
ĠNav al
Ġcalcul ating
Ġboo ster
Ġopen ly
ne eded
G G
im ir
Str ateg
ĠAgric ultural
Ġste ak
FO RE
ss on
co ins
ĠY ang
Ġhomes chool
Ġf et
g irl
ĠL ite
4 20
ĠPol l
ĠV iv
ĠD ial
ĠD one
ids on
Ġ[ ]
ĠV a
ĠWe nd
Ġphenomen a
S ide
ĠHolid ays
Ġplag iarism
Ġmethod ologies
ĠF MG
ĠSh adow
un ched
An aly
struct ed
Ġcr ashed
Ġwh ites
Ġpl ots
Ġche fs
Ġpict ured
å Ī
Ġ19 57
Ġbo ilers
I ll
I ss
or por
ĠSand y
Î ¼
oper ative
IF T
Ġamb ient
Ġdig ging
p ractice
Ġro asted
Get ty
ĠDipl oma
ĠSte vens
arent ly
Ġdirect ing
ĠNor man
ĠSt ir
Ġt ed
ĠM ul
ĠCom pos
Ġpat rons
Ġsche ma
Ġpass ions
y en
F ROM
Ġwhere in
ĠTrans it
Ġr ushing
ĠPhill ips
ĠChild hood
ĠBloom berg
ĠSub scribe
c atching
ĠImm igration
am med
ĠAp ache
Ġ15 5
ĠRem oval
is i
29 7
ĠF I
es ium
m ode
Ġpre fix
in ational
urs or
Ġnost alg
Th us
Ġ13 6
ĠComp ensation
Ġgra pes
ĠWee kend
Ġmillilit res
ĠK in
Ġreal izing
Ġregul ator
EE E
Ġ19 44
ur ous
Ġnegoti ating
Ġterm inated
Ġredes ign
ĠPRO VID
25 3
ĠRe ed
bo hyd
v s
b ane
W he
Ġ19 48
Ġtax ation
Ġsim ulations
Ġ19 58
Ġst ance
27 7
ĠCollect ions
e ks
ĠSign ature
Ġt enth
Ġinf ants
ĠU TC
Ġplay ful
E conom
i Äĩ
Ġnurt ure
ĠBro oks
lev ard
ĠTrip advisor
Link s
we bsite
Ġenerg ies
Ġche es
ĠReg istry
Ġin duction
b ach
ĠLead ing
ĠH amm
Ġgr ind
Ġor ch
Ġdynam ically
Ġmort gages
Ġrese m
Ġcum ulative
Ġimpl ants
Ġpill ows
ĠCrit ical
ĠSp ider
ĠDiv ine
N F
ĠG or
Ġtransl ates
Ġpe ek
ĠSa aS
div ision
ar gs
ĠPl ants
W all
M ode
Ġfig uring
j ah
Ġl oos
Ġcart oon
get Element
ect ed
Ġn p
Ġweight ed
Ġdiscover ies
equ al
bel iev
Ġ ul
Ġcircumst ance
Ins urance
all i
Ġam er
Ġenact ed
op a
Ġauthor ised
> ,
AL S
b ind
ĠSh aring
ĠAb raham
s eries
WH ERE
Ġconstruct ive
Se ason
ĠRena issance
Ġemphas ized
In side
ĠProgram ming
Ġremind ers
k an
ĠF itz
Ġmap le
Ġvisual s
Ġ13 7
m ove
c od
Ġmiss ile
ãĤ ĭ
Ġsp ans
G ar
Ġconstruct ing
Ð¾Ð ½
Ġn inet
- (
Ġl iner
IC H
Ø ±
Ġter ra
ĠN y
ins ic
ĠG ambling
c aster
Ġprof iciency
Ġeconom ically
ĠD ell
ro v
t ub
m oon
Cont ainer
Ġp ian
ĠPr im
Ġinadequ ate
Ġsuscept ible
ĠCo pper
ĠJO IN
Ġprom in
Ġconsolid ated
ĠSP EC
ĠL iz
28 7
ĠSc out
Ġteach ings
ĠVolunte er
ĠEr n
ĠPet e
H en
so ver
Ġrec alled
ĠMach ines
P ot
p ic
O ps
ĠR ica
Ġuncertain ties
k u
48 5
ĠMill enn
Ġdisrupt ive
ĠT ah
Ġl ubric
Ġsl opes
an ol
J es
ĠRes idents
av ier
ab stract
oo oo
un ing
ãģ Ĺ
ĠLuc as
Ġt ide
Ġtra ff
ĠĠĠĠĠĠĠĠĠĠĠĠĠĠĠĠĠĠĠĠĠĠĠĠĠĠĠĠĠĠĠĠ ĠĠĠĠĠĠĠĠĠĠĠĠĠĠĠĠĠĠĠĠĠĠĠĠĠĠĠĠĠĠĠĠ
Ð ¶
Ġr im
ĠV lad
ĠNich olas
Ġre usable
Ġod or
Ġsu pre
grad ation
R oad
Ġlifes pan
su pp
Ġhel m
Ġdecl ining
Ġret ains
M ajor
wh y
Ġadvance ments
Ġstamp ed
Pol ice
ĠBlue host
Ġhead line
Ġquiet ly
#### ####
ĠS it
R F
IF E
Ġtra der
Ġbless ings
nt h
Ġbefore hand
Ġtem ples
Ġbarrel s
ĠMap le
W inter
EN ER
ĠY ale
te ous
Ġcurtain s
Ñģ Ñı
Ġprepar ations
Ġtra gic
em ia
pre t
Ġmind fulness
Ġelev ator
n c
ĠEm bass
Ġpl edge
ĠHop kins
ĠG and
l ia
Ġident ities
Ġwr ink
Ġdeduct ed
27 2
N ative
Ġcomp ute
Ġ12 9
Ġgl itter
Ġf lesh
l ap
ĠMod els
ĠÂ ½
Ġcurs or
ov ie
the med
Ġ14 7
Ġcomp ares
ĠExt reme
Ġwas ting
Ġrest ing
ĠRe cipe
ĠA K
Qu antity
ĠPr ayer
Ġ19 56
gu ards
ok ia
Bet ter
Ġreward ed
ul ators
bu y
Ġcooper ate
Ġteam mates
ĠL oop
Ġgener ators
ĠSal v
for cing
ĠLaw s
Ġcarp ets
S er
P ict
30 7
29 8
Ġco ats
Ġsequ el
Ġp ne
ĠMe aning
ĠLeban on
Ġcor responds
Ġseek ers
Ġcar b
Ch oosing
ren n
Ġenhance ments
ĠE ld
l ene
Ġ( [
Ġ14 8
ĠA way
Ġstand alone
39 6
Ġt ribe
ĠPr ide
Ġw ished
Ġexp ires
u u
w ave
ĠL ines
yl um
ĠFle et
19 98
Ġvac ant
ĠVal ues
Ġha ul
Col lege
ass ed
Mult iple
ĠTerm inal
ould er
ĠBu yers
Ġcr imin
t ake
Ġdownt ime
Ġcontin ental
Ġtw itter
Ġg it
ix on
w agen
Ġsur render
at omy
Ġp estic
Ġmet ap
3 10
Ġveget arian
par se
Ġpione ering
ĠArt ificial
Ġsp inal
ĠP om
ĠRod rig
Ġdatas ets
Ġen ric
ous ands
40 1
ĠG ay
feren cing
Ġ< ->
Ġg i
par ing
ĠBe er
e ous
Art icles
ĠHy undai
E Y
pack ed
or ical
ist ine
art icles
Ġdemonstr ations
Ġh alls
ĠC NC
ĠR angers
ĠSet ting
ĠPri x
ĠK Y
ĠE ston
Bu ilt
UM M
Ġfl ush
ĠBal i
ĠBut ler
ĠView s
Custom ers
u ating
Ġselect ive
Ġu b
T re
Ġcompr ise
Ġ13 2
J oe
ĠUn its
ĠAud it
Ġsubs et
ĠAl cohol
ir ate
ĠT A
Ġscan ner
Ġtravell ed
Ġcont em
dem ark
ĠJe remy
Ġencomp asses
g rand
gener ated
Ġch assis
Ġsuccess or
Ġpun ishment
Ġdeleg ates
Ġch ooses
ĠCustom s
ric ia
Ġvulner abilities
ok a
idel ity
Sm ith
erm ined
ĠViet namese
Ġnob le
Ġtroubleshoot ing
getElement ById
es cope
ĠAd min
Ġorg ans
Ġsil ly
"] =
Ġf ills
Ġse iz
50 4
ĠL ac
ĠRes idence
ony ms
ĠC raw
Ġfold ed
ĠIn k
ĠCo x
Ġn ylon
ĠB ald
and el
Ġd ancers
Ġintroduct ory
ĠC urt
Ġtrib es
Ġmut ations
Care er
ĠHis panic
inst ein
Z E
l ings
Ġorganiz er
Ġconvin cing
Ġcompens ate
ens en
Ġche ss
ĠChen nai
Ġsp y
C arl
bed room
ĠP ixel
ĠLe o
Ġcommod ities
il ot
ĠG oth
itt ings
Ġblank ets
ĠĠĠĠĠĠĠĠ ĠĠĠĠĠĠ
Ġ19 47
ĠPack ers
art a
ĠL ithuan
pos al
Ġrecon struction
Ġunpredict able
Christ ian
J ournal
Ġlawsu its
F IN
Austral ia
Ġw reck
ĠAlex a
w d
ĠD EC
ĠInvest ments
ĠTan zan
27 3
umb ent
ĠAcc ident
ĠLic ensed
Ġmotor ists
Ġw ired
ĠDem and
Ġperform er
Ġpair ing
ol or
ĠS or
Ġf ights
" ))
Ġtermin ology
ĠW elsh
Ġimpair ment
Ġbel ts
Ġlegisl ature
Ġnort heast
Ñģ Ðº
im an
o qu
Ġjoy ful
Ġsacr ific
ĠIs le
! ),
Ġfil ming
ĠAM D
Ġgrand parents
ns ic
ĠAD D
Ġdev ote
ig ger
Ġm ug
Ġaw aken
Ent ry
ĠML B
ou x
n l
ĠGr ill
Tra ining
ro ots
il ib
aste red
Ġbeh ave
in arian
ĠT D
Ġteen ager
end ars
ij i
ĠPrint ing
Ġe commerce
Ù Ĩ
Ġcongreg ation
Ġparagraph s
Ġfl aws
25 7
g rown
Ġcl ues
AC CEPT
Ġsupre me
ĠAb original
Ġstr angers
zz y
ĠGet ty
Ġmechan ic
st akes
Ġres iding
fil m
ĠMach inery
Ġra ils
29 6
ĠSund ays
Ġl ymph
ĠPur ple
Ġboo lean
Ġgener osity
Ġestim ation
ĠW ool
Ġf art
Ġswe eping
Ġcall back
ĠD ining
w hether
Ġup wards
ĠBoo st
}} {{
d k
ĠBl ake
Ġcommand er
ech o
ĠExhib ition
Ġp enny
ĠM ouse
ĠN um
Ġrep roduct
ĠSil icon
rodu cing
ty ard
ĠF ishing
l iter
upd ated
Ġch ase
ur bs
Ġra iny
Ġstr anger
ilt ers
b ike
Ġforth coming
ĠM ull
ile m
Ġsp ill
Ġviol in
ĠC od
te enth
Ġus eless
ĠCol umn
Ġple as
prov ided
ĠB ears
Ġens ured
ĠEth ics
ĠS elling
Ġeffort less
bb ing
Gener ally
Dim ensions
ĠES G
Ġg amb
Ġsm iles
Ġnit rogen
ĠAT M
RE T
l ayer
U lt
ot on
ĠTig ers
am pton
Ġpron ounced
gr ass
ĠRay mond
Ġey el
ĠM ol
Elect ric
ĠM ED
F resh
ĠD ame
Re ceive
ĠSubs cription
ĠInit ial
ig ion
h d
* .
ĠH ilton
l b
cl amation
Ġrenov ations
Marketing Marketing
Ġp antry
ĠN ormal
Ġtax payer
Sc ience
ĠRock y
cert ified
ĠSand ers
ĠD UI
c b
38 5
it ary
} $
asp oon
ĠK erala
ĠLog istics
Ġ19 59
35 7
ĠP ip
Ġart isans
Ġlearn s
od o
ĠNEW S
ask at
ĠCher ry
re a
Ġrest ruct
ĠAr med
law s
ĠMechan ical
4 99
ĠNS W
Ġacad emy
ĠEx ercise
ĠAl fred
Ġbroadcast ing
Ġfresh man
c ounter
us a
ĠAltern ative
M oving
Be an
Ġtut oring
Ġst akes
elect ric
ĠPre viously
in ers
quir ies
op ath
B ey
Ġspecific s
b low
t urn
um bs
P aper
g overn
umb ling
le arn
ard i
s ix
Ġmod elling
Ġreceipt s
ĠR ah
Tex as
ĠW ake
the m
reg ister
Ġprinc ip
Ġjo ke
um ed
Ġlabor atories
Dep artment
cer ies
Ġus ability
Ġk icks
ro ps
Ġor b
enn a
60 5
Ġrespond s
ĠMoroc co
UL D
Ġroyal ty
out ed
Ġfin als
Ġf right
ĠN Z
Ġda wn
Ġwith drawn
Ġcow ork
Ġne on
P ast
Ġslow ing
ĠSt ress
g b
Ġfe ast
Ġdetect or
Sec ure
T B
hand ed
27 9
Î »
c ot
Pro t
Ġborrow ed
est hes
30 9
r unning
Ġmy st
Ġinf ring
Ġsa us
29 4
Ġspread s
ĠAd ded
Ġlive lihood
A UT
Ċ ĉĉ
R ate
zer bai
ann ot
Ġxml ns
Ġpublic ity
Ð¾ ÑĤ
En sure
26 9
line ar
Ġinc ub
Ġimpl icit
Ġapp ar
e als
oot ing
ĠI stanbul
ĠJoh ann
Ð¸ Ð¼
icular ly
and om
Ġcaut ious
en o
ograph s
ĠG OP
ĠH ang
Ġs odium
Ġclin icians
ĠL ocks
ĠS erve
ĠU X
Ġshare holder
tr l
yn amic
Ġart isan
Ġgraph s
AM S
ĠC edar
Ġen v
Ġwheel chair
Ġpar as
ĊĠĠĠĠĠĠĠĠĠĠĠĠĠĠĠĠĠĠĠĠĠĠĠĠ ĠĠĠĠĠĠĠĠĠĠĠĠĠĠĠĠ
And rew
connect ion
ĠDyn amics
O O
res olution
A sh
gl ass
ĠHer oes
ĠWOR K
rehens ive
Preferences Preferences
os l
Ġguid eline
ĠUlt imately
E ver
Ad ding
ĠMc L
u ces
Ġturn around
Ġha irst
Ġhook s
âĢ Ĳ
Ġmom s
ĠA ub
Ã ¦
Ġd ummy
Ġdipl omatic
icul ously
Ġsaf est
Ġd read
ĠE ight
Ġthere in
ĠRe ality
ĠLu is
Ġ( /
oy age
{{ /
Ġsc ans
Ġquestion ed
â ģ
Ġreal ised
en ers
ĠPr inciples
Ġend urance
ĠSem ester
Ġmar athon
Ġb ark
BL IC
pl er
Ġdep icted
ik er
Ġz inc
Ġm alf
Ġal uminium
Ġh o
Ab ility
Ġhierarch y
ĠUn known
ert on
K it
P os
ĊĠĠĠĠĠĠĠĠ ĠĠĠĠĠĠ
ĠHy derabad
b ons
Ġinconven ience
Ġtodd ler
is ites
âĺħâĺħ âĺħâĺħ
ĠHug hes
Ġpor celain
ĠIN S
Ġdeb ates
Ġvolunt arily
ĠOrgan izations
ut ion
ĠSpons or
Ġmess y
Ġfr ank
Ġp ap
ĠF ixed
ĠT ak
ĠAct ual
le en
Ġtun es
Ġ19 55
Ġpe ndant
ham mad
Ġstir ring
ĠBry an
ĠBook ing
ri ans
link ed
Ġper mitting
Ġprem ature
ĠS CH
ĠEmbass y
ĠRoc hester
ĠLouis ville
ĠDyn amic
ĠB ecome
Pre ferred
Ġpl aque
ĠG reens
T ri
ram s
Ġfl ies
AT T
ĠKe ys
US INESS
/( (-
Ġt u
ĠG ates
Ġattack ing
Ġdess erts
Ġpro ps
Ġmed iation
ĠDay ton
orth y
ĠOl ive
Ġquot ation
Ġv ene
Ġunf amiliar
Ġpost age
Ġber ries
Ġwe ars
Ġun to
t ar
Ġbear ings
) $
ne e
ĠPerson ally
IC A
ote ch
ĠRap id
ĠSu ff
ĠS ER
sh ipping
ĠI con
Ġcor al
Part y
ĠRe form
e nder
ĠF ew
Ġgen ome
Ġstart ers
ĠEm peror
Cong ratulations
Ġsimilar ities
ks wagen
iz ar
ĠCan al
Ġr ushed
Prem ium
Const ruction
Ġto ggle
col ored
f ragment
W AR
Ġcit rus
is ive
Ġdifferent iate
w ent
ĠDec ision
Ġcomp uls
Ġaccident al
Ġfull est
ĠWh is
Ġre cess
ĠMe g
Ġinstruct ed
Ġinf er
h aus
Ġequ als
70 4
Ġsurvey ed
J ose
h s
ah an
ing les
Ġc ove
Ġam ino
O p
ĠFarm ers
Ġ- --
Ġran ch
25 9
Ġmos qu
Ġye ast
Ġexped ition
ĠR ams
ett i
b ee
ĠG az
Ġab ras
ĠAv ailability
yst er
affe ine
Ġpsych ic
Ġc ough
ĠEffect s
Ġstret ches
th ora
Ġsk ies
28 9
ĠRat ings
ĠD odge
ver b
n u
ĠJ ake
G s
Ġrain bow
Pro file
Sc ore
Ġsmo other
St reet
Ġw ounds
os hi
Ġluc rative
8 50
Inte gr
Ġun e
IL S
ĠI CT
D ream
N um
ĠUN ESCO
Ġkey note
Ġform ulas
Ġillustr ates
Ġmer cy
Ġlay ered
ĠFac ilities
ĠSk i
iz ontal
ĠChe ese
Ġhe el
ans om
il ant
ĠC ay
ĠUnivers ities
ĠZ imbabwe
ĠN W
Ġsett ling
ĠHar vey
ĠEd monton
Ġfil tered
36 4
ab l
Ġyog urt
Ġad orn
Ġpull s
Ġse als
RE AD
Ġanim ations
pl ess
Ġorganis ms
ĠW ritten
Decl ension
s ince
ĠBul garia
ĠLore m
Z ip
Ġstuff ed
At l
ĠC arr
ĠD rivers
ĠDi agn
Aud io
ve nd
Ġprivile ged
ĠB id
w ra
ĠContract or
ĠMe ga
ĠMer chand
) \
ighth ouse
P ython
VA IL
ĠS ara
Ġun biased
AR C
w en
ĠCh oosing
An alytics
m ort
Ġallev iate
Ġvent ures
t ask
Ġcop ing
ĠVe hicles
Option al
Ġprevent ive
ancell or
Ġbe ers
45 9
c ool
nder ing
Ġw ip
ĠS id
\ ":
F all
k ov
U l
ĠMin utes
ĠMonth s
Ġbelie ving
ĠDe ck
ĠAs ide
ĠCalcul ator
â ĨĴ
Ġble nding
Ġincl ined
Ġantib odies
Ġt a
Ð¾Ð ¹
Ġa ux
Ġdon ating
F air
ĠFin ancing
Ġsandw iches
ĠL ives
Ġemp ire
Ġelect oral
B io
Ġcomp ressed
Ġstitch ing
Ġaud its
@ "
Ġwh ichever
she ll
oc om
as per
Ġ16 8
ĠG ain
ĠLif etime
Ġrehe ars
36 8
Ġemb ell
ĠM ist
3 15
Ġaccum ulation
he res
Ġambass ador
Ġwra ps
pres so
Ġstim ulation
ĠHor izon
Ġrefuge e
Ġembra ced
orks hire
Ġsent enced
Ġmar ry
Ġg arn
ĠPOL ICY
Russ ian
Ġmaj ors
man uel
Ġpil gr
ĠP P
Ġb ackend
Ġfacilit ated
Ġcompos itions
Ġ19 46
it ars
ou g
Statistics Statistics
ĠHe aling
W AY
ĠM ig
b ags
ĠCh ip
dist ance
act ly
log o
Ġthr ill
Ġfire arms
Ġtre asures
UP DATE
W ritten
Ġdeck s
Ġhist ories
ĠSt ructure
ĠPl umbing
ĠB AS
Ġ13 3
Ġde com
ĊĠĊĠĊĠĊĠ ĊĠĊĠĊĠĊĠ
ĠH ook
Ġfil t
ĠT RA
ĠD ATA
ĠP I
Ġd ocs
ĠK end
Ġprecip itation
00 2
ag ain
Ġcentral ized
ĠB ach
D am
Ġfemin ine
Ġform ulation
Ġgod s
Ġend uring
In c
Ġtime frame
ĠE ug
R ating
ern ate
ring ton
m embers
s ong
r ina
od ial
]] >
Are a
T CHA
ri ages
Ġstain ed
Ġmonu ment
ĠColle ges
Comp are
ven ile
Ġmanip ulation
p rivacy
Inst ructions
ĠDo ors
f ar
P ers
ĠK er
Ġf oo
Ġster ling
ĠK nown
ish able
b ies
ctor al
f ashion
EN G
19 1
Ġbod ily
Rem ote
regist ered
Ġrev ital
d n
he y
V O
Ġv ague
ĠD HL
ĠLyn n
ĠA U
UG H
F W
ĠP orsche
sec ure
Ġlife cycle
ĠÎ ¼
Ġb ore
ĠLA W
Ġconsequ ently
as px
ĠProm o
[...]
