{
    "<|endoftext|>": 0,
    "!": 1,
    "\"": 2,
    "#": 3,
    "$": 4,
    "%": 5,
    "&": 6,
    "'": 7,
    "(": 8,
    ")": 9,
    "*": 10,
    "+": 11,
    ",": 12,
    "-": 13,
    ".": 14,
    "/": 15,
    "0": 16,
    "1": 17,
    "2": 18,
    "3": 19,
    "4": 20,
    "5": 21,
    "6": 22,
    "7": 23,
    "8": 24,
    "9": 25,
    ":": 26,
    ";": 27,
    "<": 28,
    "=": 29,
    ">": 30,
    "?": 31,
    "@": 32,
    "A": 33,
    "B": 34,
    "C": 35,
    "D": 36,
    "E": 37,
    "F": 38,
    "G": 39,
    "H": 40,
    "I": 41,
    "J": 42,
    "K": 43,
    "L": 44,
    "M": 45,
    "N": 46,
    "O": 47,
    "P": 48,
    "Q": 49,
    "R": 50,
    "S": 51,
    "T": 52,
    "U": 53,
    "V": 54,
    "W": 55,
    "X": 56,
    "Y": 57,
    "Z": 58,
    "[": 59,
    "\\": 60,
    "]": 61,
    "^": 62,
    "_": 63,
    "`": 64,
    "a": 65,
    "b": 66,
    "c": 67,
    "d": 68,
    "e": 69,
    "f": 70,
    "g": 71,
    "h": 72,
    "i": 73,
    "j": 74,
    "k": 75,
    "l": 76,
    "m": 77,
    "n": 78,
    "o": 79,
    "p": 80,
    "q": 81,
    "r": 82,
    "s": 83,
    "t": 84,
    "u": 85,
    "v": 86,
    "w": 87,
    "x": 88,
    "y": 89,
    "z": 90,
    "{": 91,
    "|": 92,
    "}": 93,
    "~": 94,
    "¡": 95,
    "¢": 96,
    "£": 97,
    "¤": 98,
    "¥": 99,
    "¦": 100,
    "§": 101,
    "¨": 102,
    "©": 103,
    "ª": 104,
    "«": 105,
    "¬": 106,
    "®": 107,
    "¯": 108,
    "°": 109,
    "±": 110,
    "²": 111,
    "³": 112,
    "´": 113,
    "µ": 114,
    "¶": 115,
    "·": 116,
    "¸": 117,
    "¹": 118,
    "º": 119,
    "»": 120,
    "¼": 121,
    "½": 122,
    "¾": 123,
    "¿": 124,
    "À": 125,
    "Á": 126,
    "Â": 127,
    "Ã": 128,
    "Ä": 129,
    "Å": 130,
    "Æ": 131,
    "Ç": 132,
    "È": 133,
    "É": 134,
    "Ê": 135,
    "Ë": 136,
    "Ì": 137,
    "Í": 138,
    "Î": 139,
    "Ï": 140,
    "Ð": 141,
    "Ñ": 142,
    "Ò": 143,
    "Ó": 144,
    "Ô": 145,
    "Õ": 146,
    "Ö": 147,
    "×": 148,
    "Ø": 149,
    "Ù": 150,
    "Ú": 151,
    "Û": 152,
    "Ü": 153,
    "Ý": 154,
    "Þ": 155,
    "ß": 156,
    "à": 157,
    "á": 158,
    "â": 159,
    "ã": 160,
    "ä": 161,
    "å": 162,
    "æ": 163,
    "ç": 164,
    "è": 165,
    "é": 166,
    "ê": 167,
    "ë": 168,
    "ì": 169,
    "í": 170,
    "î": 171,
    "ï": 172,
    "ð": 173,
    "ñ": 174,
    "ò": 175,
    "ó": 176,
    "ô": 177,
    "õ": 178,
    "ö": 179,
    "÷": 180,
    "ø": 181,
    "ù": 182,
    "ú": 183,
    "û": 184,
    "ü": 185,
    "ý": 186,
    "þ": 187,
    "ÿ": 188,
    "Ā": 189,
    "ā": 190,
    "Ă": 191,
    "ă": 192,
    "Ą": 193,
    "ą": 194,
    "Ć": 195,
    "ć": 196,
    "Ĉ": 197,
    "ĉ": 198,
    "Ċ": 199,
    "ċ": 200,
    "Č": 201,
    "č": 202,
    "Ď": 203,
    "ď": 204,
    "Đ": 205,
    "đ": 206,
    "Ē": 207,
    "ē": 208,
    "Ĕ": 209,
    "ĕ": 210,
    "Ė": 211,
    "ė": 212,
    "Ę": 213,
    "ę": 214,
    "Ě": 215,
    "ě": 216,
    "Ĝ": 217,
    "ĝ": 218,
    "Ğ": 219,
    "ğ": 220,
    "Ġ": 221,
    "ġ": 222,
    "Ģ": 223,
    "ģ": 224,
    "Ĥ": 225,
    "ĥ": 226,
    "Ħ": 227,
    "ħ": 228,
    "Ĩ": 229,
    "ĩ": 230,
    "Ī": 231,
    "ī": 232,
    "Ĭ": 233,
    "ĭ": 234,
    "Į": 235,
    "į": 236,
    "İ": 237,
    "ı": 238,
    "Ĳ": 239,
    "ĳ": 240,
    "Ĵ": 241,
    "ĵ": 242,
    "Ķ": 243,
    "ķ": 244,
    "ĸ": 245,
    "Ĺ": 246,
    "ĺ": 247,
    "Ļ": 248,
    "ļ": 249,
    "Ľ": 250,
    "ľ": 251,
    "Ŀ": 252,
    "ŀ": 253,
    "Ł": 254,
    "ł": 255,
    "Ń": 256,
    "Ġt": 257,
    "Ġa": 258,
    "in": 259,
    "he": 260,
    "re": 261,
    "on": 262,
    "er": 263,
    "Ġthe": 264,
    "Ġs": 265,
    "at": 266,
    "or": 267,
    "Ġc": 268,
    "ou": 269,
    "nd": 270,
    "Ġw": 271,
    "es": 272,
    "it": 273,
    "is": 274,
    "en": 275,
    "Ġp": 276,
    "Ġf": 277,
    "Ġo": 278,
    "ing": 279,
    "Ġb": 280,
    "al": 281,
    "an": 282,
    "ed": 283,
    "Ġto": 284,
    "Ġand": 285,
    "ar": 286,
    "Ġm": 287,
    "Ġin": 288,
    "Ġof": 289,
    "ic": 290,
    "ion": 291,
    "Ġd": 292,
    "le": 293,
    "om": 294,
    "as": 295,
    "Ġh": 296,
    "ent": 297,
    "Ġth": 298,
    "il": 299,
    "Ġy": 300,
    "ro": 301,
    "Ġre": 302,
    "ct": 303,
    "ve": 304,
    "st": 305,
    "Ġe": 306,
    "Ġl": 307,
    "Ġyou": 308,
    "Ġn": 309,
    "et": 310,
    "ĠĠ": 311,
    "âĢ": 312,
    "Ġis": 313,
    "Ġg": 314,
    "ĠT": 315,
    "ly": 316,
    "Ġfor": 317,
    "ĠS": 318,
    "id": 319,
    "ĠI": 320,
    "us": 321,
    "Ġbe": 322,
    "Ġon": 323,
    "ot": 324,
    "ce": 325,
    "ation": 326,
    "ol": 327,
    "ĠC": 328,
    "ow": 329,
    "ay": 330,
    "im": 331,
    "ĠA": 332,
    "ig": 333,
    "ch": 334,
    "ra": 335,
    "ith": 336,
    "ver": 337,
    "el": 338,
    "ur": 339,
    "ut": 340,
    "Ġst": 341,
    "Ġwith": 342,
    "am": 343,
    "Ġthat": 344,
    "Ġpro": 345,
    "ad": 346,
    "ir": 347,
    "ers": 348,
    "ul": 349,
    "Ġan": 350,
    "se": 351,
    "ĠM": 352,
    "ĠP": 353,
    "Ġare": 354,
    "Ġas": 355,
    "Ġor": 356,
    "if": 357,
    "Ġit": 358,
    "ate": 359,
    "Ġal": 360,
    "ill": 361,
    "Ġcon": 362,
    "un": 363,
    "ess": 364,
    "ge": 365,
    "âĢĻ": 366,
    "Ġ1": 367,
    "pp": 368,
    "ment": 369,
    "her": 370,
    "our": 371,
    "Ġwe": 372,
    "ĠB": 373,
    "est": 374,
    "Ġcom": 375,
    "Ġyour": 376,
    "ĠW": 377,
    "oo": 378,
    "out": 379,
    "Ġ2": 380,
    "ab": 381,
    "ter": 382,
    "Ġwh": 383,
    "Ġ(": 384,
    "ke": 385,
    "ri": 386,
    "Ġha": 387,
    "ore": 388,
    "Ġex": 389,
    "Ġ-": 390,
    "qu": 391,
    "ĠD": 392,
    "ac": 393,
    "ĠThe": 394,
    "ort": 395,
    "Ġv": 396,
    "ity": 397,
    "ĠF": 398,
    "Ġus": 399,
    "ĠĠĠĠ": 400,
    "rom": 401,
    "ist": 402,
    "Ġne": 403,
    "ies": 404,
    "Ġhe": 405,
    "em": 406,
    "pe": 407,
    "ure": 408,
    "ive": 409,
    "Ġat": 410,
    "ĠH": 411,
    "ĠL": 412,
    "ĠR": 413,
    "igh": 414,
    "Ġse": 415,
    "ant": 416,
    "Ġde": 417,
    "Ġcan": 418,
    "art": 419,
    "um": 420,
    "oc": 421,
    "ld": 422,
    "ust": 423,
    "nt": 424,
    "Ġthis": 425,
    "op": 426,
    "ain": 427,
    "Ġfrom": 428,
    "Ġby": 429,
    "ĠE": 430,
    "and": 431,
    "Ġhave": 432,
    "os": 433,
    "00": 434,
    "Ġwill": 435,
    "Ġsu": 436,
    "ĠN": 437,
    "Ġnot": 438,
    "ĠG": 439,
    "Ġr": 440,
    "Ġsh": 441,
    "th": 442,
    "iv": 443,
    "Ġch": 444,
    "ud": 445,
    "res": 446,
    "ĠO": 447,
    "ect": 448,
    "ial": 449,
    "od": 450,
    "Ġu": 451,
    "per": 452,
    "all": 453,
    "ĠâĢ": 454,
    "ight": 455,
    "Ġle": 456,
    "ome": 457,
    "pt": 458,
    "ard": 459,
    "Ġwas": 460,
    "age": 461,
    "ine": 462,
    "ide": 463,
    "ost": 464,
    "Ġwor": 465,
    "red": 466,
    "pl": 467,
    "Ġpl": 468,
    "ions": 469,
    "Ġad": 470,
    "ag": 471,
    "ice": 472,
    "Ġall": 473,
    "ie": 474,
    "ook": 475,
    "rou": 476,
    "te": 477,
    "for": 478,
    "Ġab": 479,
    "able": 480,
    "The": 481,
    "Ġcomp": 482,
    "ite": 483,
    "ear": 484,
    "ĠU": 485,
    "du": 486,
    "Ġour": 487,
    "ould": 488,
    "og": 489,
    "are": 490,
    "gh": 491,
    "ip": 492,
    "cc": 493,
    "ak": 494,
    "ther": 495,
    "ated": 496,
    "act": 497,
    "Ġen": 498,
    "Ġhas": 499,
    "iz": 500,
    "ff": 501,
    "ell": 502,
    "ast": 503,
    "ail": 504,
    "Ġj": 505,
    "Ġwhe": 506,
    "ich": 507,
    "Ġdo": 508,
    "cl": 509,
    "ime": 510,
    "form": 511,
    "Ġcont": 512,
    "Ġcl": 513,
    "ally": 514,
    "ake": 515,
    "ase": 516,
    "Ġk": 517,
    "ind": 518,
    "ĠJ": 519,
    "Ġim": 520,
    "Ġ+": 521,
    "Ġ3": 522,
    "ack": 523,
    "so": 524,
    "Ġ20": 525,
    "ance": 526,
    "ry": 527,
    "ue": 528,
    "Ġmore": 529,
    "ĠIn": 530,
    "ib": 531,
    "ans": 532,
    "very": 533,
    "Ġtheir": 534,
    "Ġapp": 535,
    "ult": 536,
    "Ġout": 537,
    "one": 538,
    "ign": 539,
    "ĠTh": 540,
    "Ġte": 541,
    "erv": 542,
    "Ġres": 543,
    "Ġ=": 544,
    "ations": 545,
    "Ġme": 546,
    "Ġwork": 547,
    "Ġup": 548,
    "ong": 549,
    "Ġso": 550,
    "Ġbut": 551,
    "ia": 552,
    "ire": 553,
    "ber": 554,
    "ĠY": 555,
    "ction": 556,
    "ous": 557,
    "ll": 558,
    "ary": 559,
    "Ġany": 560,
    "ach": 561,
    "ame": 562,
    "Ġun": 563,
    "Ġman": 564,
    "Ġalso": 565,
    "âĢĿ": 566,
    "ub": 567,
    "ace": 568,
    "ount": 569,
    "ass": 570,
    "Ġwhich": 571,
    "ree": 572,
    "Ġone": 573,
    "ence": 574,
    "vel": 575,
    "Ġoff": 576,
    "Ġthey": 577,
    "Ġqu": 578,
    "ile": 579,
    "ood": 580,
    "'s": 581,
    "Ġother": 582,
    "Ġper": 583,
    "Ġfe": 584,
    "port": 585,
    "ark": 586,
    "ap": 587,
    "ical": 588,
    "reat": 589,
    "..": 590,
    "av": 591,
    "ru": 592,
    "ike": 593,
    "ĠSt": 594,
    "ick": 595,
    "Ġpart": 596,
    "Ġtime": 597,
    "ents": 598,
    "ose": 599,
    "ition": 600,
    "Ġabout": 601,
    "Ġnew": 602,
    "Ġdis": 603,
    "ck": 604,
    "ors": 605,
    "fe": 606,
    "ays": 607,
    "ep": 608,
    "**": 609,
    "ĠK": 610,
    "Ġint": 611,
    "ĠV": 612,
    "Ġacc": 613,
    "ress": 614,
    "bs": 615,
    "ĠĠĠ": 616,
    "Ġprov": 617,
    "Ġ4": 618,
    "Ġmy": 619,
    "Ġuse": 620,
    "Ġtra": 621,
    "Ġar": 622,
    "Ġcomm": 623,
    "Ġyear": 624,
    "ings": 625,
    "Ġneed": 626,
    "com": 627,
    "ory": 628,
    "low": 629,
    "ĠWe": 630,
    "Ġev": 631,
    "ĠIt": 632,
    "Ġ5": 633,
    "Ġgo": 634,
    "ove": 635,
    "clud": 636,
    "ond": 637,
    "ren": 638,
    "Ġget": 639,
    "Ġspe": 640,
    "ĠâĢľ": 641,
    "ens": 642,
    "now": 643,
    "Ġif": 644,
    "Ġwho": 645,
    "Ġmay": 646,
    "ord": 647,
    "Ġwhen": 648,
    "nder": 649,
    ").": 650,
    "lp": 651,
    "ĠĠĠĠĠĠĠĠ": 652,
    "Ġsome": 653,
    "ild": 654,
    "Ġlike": 655,
    "Ġsc": 656,
    "int": 657,
    "ĠCh": 658,
    "Ġpre": 659,
    "lic": 660,
    "Ġserv": 661,
    "Ġsp": 662,
    "ments": 663,
    "Ġhelp": 664,
    "vers": 665,
    "Ġprodu": 666,
    "Ġdes": 667,
    "Ġthem": 668,
    "Ġadd": 669,
    "Ġover": 670,
    "ces": 671,
    "Ġag": 672,
    "ram": 673,
    "Ġem": 674,
    "Ġits": 675,
    "formation": 676,
    "ater": 677,
    "Ġbeen": 678,
    "Ġsa": 679,
    "hat": 680,
    "Ġ\"": 681,
    "row": 682,
    "ĠThis": 683,
    "lect": 684,
    "Ġtr": 685,
    "Ġcol": 686,
    "ices": 687,
    "rough": 688,
    "ish": 689,
    "ang": 690,
    "Ġhow": 691,
    "Ġthere": 692,
    "Ġpr": 693,
    "ink": 694,
    "ning": 695,
    "ov": 696,
    "Ġinclud": 697,
    "oy": 698,
    "ound": 699,
    "ual": 700,
    "ates": 701,
    "ne": 702,
    "ject": 703,
    "ob": 704,
    "Ġthan": 705,
    "Ġro": 706,
    "rent": 707,
    "iew": 708,
    "cess": 709,
    "Ġind": 710,
    "Ġpe": 711,
    "Ġcons": 712,
    "irst": 713,
    "cial": 714,
    "ities": 715,
    "ons": 716,
    "20": 717,
    "Ġhis": 718,
    "Ġrec": 719,
    "Ġam": 720,
    "Ġexper": 721,
    "ific": 722,
    "Ġwhat": 723,
    "xt": 724,
    "Ġknow": 725,
    "Ġ201": 726,
    "ĠRe": 727,
    "own": 728,
    "tern": 729,
    "Ġmake": 730,
    "Ġinformation": 731,
    "ont": 732,
    "pport": 733,
    "iness": 734,
    "ple": 735,
    "Ġthese": 736,
    "Ġinto": 737,
    "ough": 738,
    "end": 739,
    "Ġthrough": 740,
    "Ġbu": 741,
    "ph": 742,
    "Ġonly": 743,
    "ft": 744,
    "Ġmost": 745,
    "ata": 746,
    "old": 747,
    "fter": 748,
    "use": 749,
    "Ġwould": 750,
    "Ġwere": 751,
    "ful": 752,
    "ility": 753,
    "ks": 754,
    "ople": 755,
    "ian": 756,
    "ĠYou": 757,
    "Ġbet": 758,
    "erm": 759,
    "ience": 760,
    "usiness": 761,
    "Ġco": 762,
    "ise": 763,
    "Ġ0": 764,
    "Ġunder": 765,
    "we": 766,
    "erson": 767,
    "ric": 768,
    "ĠâĢĵ": 769,
    "Ġno": 770,
    "wn": 771,
    "Ġact": 772,
    "any": 773,
    "Ġfirst": 774,
    "Ġreg": 775,
    "urn": 776,
    "ange": 777,
    "hed": 778,
    "Ġdif": 779,
    "ert": 780,
    "Ġjust": 781,
    "ious": 782,
    "ating": 783,
    "ible": 784,
    "Ġwell": 785,
    "itt": 786,
    "Ġass": 787,
    "Ġrequ": 788,
    "ures": 789,
    "Ġ19": 790,
    "Ġ6": 791,
    "Th": 792,
    "ĠHe": 793,
    "Ġtw": 794,
    "Ġevery": 795,
    "mer": 796,
    "In": 797,
    "yst": 798,
    "ade": 799,
    "Ġrel": 800,
    "Ġinv": 801,
    "Ġpeople": 802,
    "Ġwebs": 803,
    "ased": 804,
    "Ġstud": 805,
    "Ġlook": 806,
    "ew": 807,
    "iss": 808,
    "les": 809,
    "round": 810,
    "ative": 811,
    "Ġproduct": 812,
    "ational": 813,
    "ustom": 814,
    "Ġph": 815,
    "Ġbec": 816,
    "ss": 817,
    "ced": 818,
    "Ġ$": 819,
    "hen": 820,
    "Ġloc": 821,
    "velop": 822,
    "ract": 823,
    "Ġhad": 824,
    "Ġwant": 825,
    "Ġpos": 826,
    "ool": 827,
    "cre": 828,
    "olog": 829,
    "Ġset": 830,
    "get": 831,
    "Ġbl": 832,
    "Ġimp": 833,
    "pect": 834,
    "aw": 835,
    "Ġmany": 836,
    "Ġbusiness": 837,
    "Ġinst": 838,
    "als": 839,
    "fore": 840,
    "oth": 841,
    "ily": 842,
    "ystem": 843,
    "der": 844,
    "Ġshould": 845,
    "Ġrem": 846,
    "line": 847,
    "Ġke": 848,
    "arket": 849,
    "Ġher": 850,
    "its": 851,
    "riv": 852,
    "Ġac": 853,
    "eth": 854,
    "uring": 855,
    "Ġsee": 856,
    "Ġwebsite": 857,
    "ting": 858,
    "ular": 859,
    "Ġprovid": 860,
    "Ġbest": 861,
    "day": 862,
    "ĠPro": 863,
    "Ġsuch": 864,
    "Ġ&": 865,
    "Ġtwo": 866,
    "ĠUn": 867,
    "hip": 868,
    "ics": 869,
    "und": 870,
    "ied": 871,
    "Ġav": 872,
    "ork": 873,
    "Ġyears": 874,
    "rib": 875,
    "Ġback": 876,
    "ause": 877,
    "Ġhigh": 878,
    "Ġperson": 879,
    "Ġent": 880,
    "ient": 881,
    "ĠCom": 882,
    "Ġ7": 883,
    "arch": 884,
    "Ġcook": 885,
    "Ġsm": 886,
    "ife": 887,
    "Ġfin": 888,
    "Ġins": 889,
    "Ġra": 890,
    "ident": 891,
    "alth": 892,
    "cy": 893,
    "rit": 894,
    "ty": 895,
    "ts": 896,
    "ĠIf": 897,
    "ps": 898,
    "chn": 899,
    "ener": 900,
    "Ġeff": 901,
    "Ġsec": 902,
    "Ġused": 903,
    "Ġdesign": 904,
    "ption": 905,
    "ock": 906,
    "ited": 907,
    "ax": 908,
    "Ġgreat": 909,
    "Ġwhere": 910,
    "Ġret": 911,
    "Ġway": 912,
    "ec": 913,
    "Ġdiffe": 914,
    "gram": 915,
    "lease": 916,
    "oint": 917,
    "Ġdata": 918,
    "10": 919,
    "Ġtrans": 920,
    "aking": 921,
    "Ġpur": 922,
    "Ġfind": 923,
    "ward": 924,
    "Ġmod": 925,
    "Ġinte": 926,
    "Ġval": 927,
    "Ġvery": 928,
    "Ġown": 929,
    "We": 930,
    "Ġdevelop": 931,
    "),": 932,
    "ble": 933,
    "Ġfl": 934,
    "Ġafter": 935,
    "ollow": 936,
    "Ġplay": 937,
    "Ġnum": 938,
    "ath": 939,
    "gan": 940,
    "Ġ10": 941,
    "view": 942,
    "Ġgu": 943,
    "Ġcustom": 944,
    "Ġstart": 945,
    "What": 946,
    "ys": 947,
    "Ġright": 948,
    "Ġcre": 949,
    "Ġ8": 950,
    "ower": 951,
    "--": 952,
    "ateg": 953,
    "uch": 954,
    "Ġsub": 955,
    "ize": 956,
    "Ġvis": 957,
    "Ġhome": 958,
    "Ġfun": 959,
    "ng": 960,
    "ef": 961,
    "elf": 962,
    "Ġgood": 963,
    "22": 964,
    "ages": 965,
    "Ġread": 966,
    "ull": 967,
    "ality": 968,
    "Ġthen": 969,
    "io": 970,
    "Ġprocess": 971,
    "Ġsupport": 972,
    "Ġmon": 973,
    "ĊĠĠĠ": 974,
    "hes": 975,
    "19": 976,
    "Ġart": 977,
    "This": 978,
    "Ġatt": 979,
    "tt": 980,
    "ring": 981,
    "air": 982,
    "Ġdet": 983,
    "ĠFor": 984,
    "Ġform": 985,
    "irect": 986,
    "Ġmarket": 987,
    "ank": 988,
    "Ġsystem": 989,
    "ublic": 990,
    "Ġmin": 991,
    "Ġcar": 992,
    "Ġeven": 993,
    "Ġaut": 994,
    "Ġcommun": 995,
    "...": 996,
    "'t": 997,
    "Ġvar": 998,
    "Ġsim": 999,
    "Ġche": 1000,
    "ues": 1001,
    "Ġtake": 1002,
    "Ġdec": 1003,
    "Ġcould": 1004,
    "Ġexperience": 1005,
    "Ġlong": 1006,
    "Ġsaid": 1007,
    "Ġusing": 1008,
    "Ġmade": 1009,
    "Ġadv": 1010,
    "000": 1011,
    "Ġdisc": 1012,
    "Ġprof": 1013,
    "ĠLet": 1014,
    "ash": 1015,
    "ix": 1016,
    "Ġfam": 1017,
    "Ġcur": 1018,
    "Ġavail": 1019,
    "Ġed": 1020,
    "chool": 1021,
    "Ġcomple": 1022,
    "Ġshe": 1023,
    "Ġdoes": 1024,
    "ever": 1025,
    "Ġnow": 1026,
    "arn": 1027,
    "Ġpres": 1028,
    "Ġfollow": 1029,
    "Ġ9": 1030,
    "Ġworld": 1031,
    "Ġdel": 1032,
    "Ġeach": 1033,
    "Ġday": 1034,
    "Ġtechn": 1035,
    "Ġdifferent": 1036,
    "pen": 1037,
    "Ġteam": 1038,
    "Ġpol": 1039,
    "Ġmed": 1040,
    "ivers": 1041,
    "Ġbefore": 1042,
    "Ġmem": 1043,
    "rest": 1044,
    "Ġeas": 1045,
    "ines": 1046,
    "up": 1047,
    "ner": 1048,
    "Ġcookies": 1049,
    "ional": 1050,
    "Ġhere": 1051,
    "olut": 1052,
    "Ġty": 1053,
    "Ġcall": 1054,
    "Ġprogram": 1055,
    "led": 1056,
    "Ġrep": 1057,
    "Ġdown": 1058,
    "Ġrece": 1059,
    "ives": 1060,
    "ug": 1061,
    "ized": 1062,
    "ven": 1063,
    "Ġlist": 1064,
    "Ġinter": 1065,
    "oad": 1066,
    "Ġprovide": 1067,
    "Ġshow": 1068,
    "Ġwhile": 1069,
    "Ġdon": 1070,
    "Ġmuch": 1071,
    "Ġcare": 1072,
    "Ġservice": 1073,
    "Ġorder": 1074,
    "ict": 1075,
    "Ġend": 1076,
    "alk": 1077,
    "az": 1078,
    "11": 1079,
    "Ġchar": 1080,
    "Ġexp": 1081,
    "Ġlead": 1082,
    "land": 1083,
    "ired": 1084,
    "Ġcount": 1085,
    "other": 1086,
    "atch": 1087,
    "ween": 1088,
    "Ġimport": 1089,
    "ason": 1090,
    "Ġsign": 1091,
    "ee": 1092,
    "Ġavailable": 1093,
    "Ġhand": 1094,
    "Ġsur": 1095,
    "ince": 1096,
    "ĠĠĠĠĠĠĠ": 1097,
    "Ġbecause": 1098,
    "Ġservices": 1099,
    "Ġbeing": 1100,
    "Ġthose": 1101,
    "ature": 1102,
    "Ġcompany": 1103,
    "ouse": 1104,
    "ier": 1105,
    "ĠDe": 1106,
    "amp": 1107,
    "Ġlife": 1108,
    "ale": 1109,
    "ually": 1110,
    "ital": 1111,
    "ify": 1112,
    "ex": 1113,
    "read": 1114,
    "oun": 1115,
    "ode": 1116,
    "21": 1117,
    "Ġaccess": 1118,
    "Ġpay": 1119,
    "ins": 1120,
    "iel": 1121,
    "Ġser": 1122,
    "Ġbetween": 1123,
    "Ġnumber": 1124,
    "ĠAs": 1125,
    "ĠAl": 1126,
    "Ġref": 1127,
    "ology": 1128,
    "de": 1129,
    "Ġfree": 1130,
    "(-": 1131,
    "ern": 1132,
    "ĊĠĠĠĠĠĠĠĠ": 1133,
    "ĠSh": 1134,
    "Let": 1135,
    "Ġallow": 1136,
    "ĠNew": 1137,
    "Ġappro": 1138,
    "akes": 1139,
    "iet": 1140,
    "Ġwee": 1141,
    "Ġwithout": 1142,
    "Ġresult": 1143,
    "Ġproject": 1144,
    "ER": 1145,
    "Ġhealth": 1146,
    "Ġfact": 1147,
    "Ġincluding": 1148,
    "stand": 1149,
    "ms": 1150,
    "ĠAn": 1151,
    "ĠAnd": 1152,
    "Ġstr": 1153,
    "Ġcour": 1154,
    "ĠAr": 1155,
    "Ġgener": 1156,
    "pr": 1157,
    "Ġob": 1158,
    "ave": 1159,
    "Ġoffer": 1160,
    "Ġtop": 1161,
    "Ġcle": 1162,
    "Ġclass": 1163,
    "iqu": 1164,
    "Ġagain": 1165,
    "Ġplace": 1166,
    "Ġsame": 1167,
    "ploy": 1168,
    "Ġmain": 1169,
    "Ġsk": 1170,
    "ivid": 1171,
    "Ġext": 1172,
    "12": 1173,
    "Ġresp": 1174,
    "St": 1175,
    "Ġi": 1176,
    "Ġspec": 1177,
    "Ġboth": 1178,
    "Ġpartic": 1179,
    "ĠCl": 1180,
    "Ġonline": 1181,
    "rand": 1182,
    "ok": 1183,
    "imes": 1184,
    "ĠAd": 1185,
    "els": 1186,
    "Ġ200": 1187,
    "ined": 1188,
    "ruct": 1189,
    "ways": 1190,
    "Ġlar": 1191,
    "ential": 1192,
    "Ġplan": 1193,
    "Ġopt": 1194,
    "Ġcor": 1195,
    "uc": 1196,
    "Ġgl": 1197,
    "way": 1198,
    "ets": 1199,
    "Ġposs": 1200,
    "Ġstate": 1201,
    ".âĢĿ": 1202,
    "ants": 1203,
    "Ġchild": 1204,
    "ather": 1205,
    "Ġbo": 1206,
    "Ġproper": 1207,
    "con": 1208,
    "50": 1209,
    "Ġaround": 1210,
    "Ġpost": 1211,
    "Ġbuild": 1212,
    "nect": 1213,
    "bers": 1214,
    "Ġsmall": 1215,
    "ness": 1216,
    "ining": 1217,
    "cept": 1218,
    "Ġorgan": 1219,
    "arm": 1220,
    "Ġexam": 1221,
    "ered": 1222,
    "ars": 1223,
    "If": 1224,
    "uss": 1225,
    "Ġlast": 1226,
    "Ġbook": 1227,
    "âĢľ": 1228,
    "Ġrun": 1229,
    "ipp": 1230,
    "Ġmust": 1231,
    "ield": 1232,
    "Ġdef": 1233,
    "Ġduring": 1234,
    "ww": 1235,
    "ross": 1236,
    "ton": 1237,
    "over": 1238,
    "Ġ[": 1239,
    "Ġfound": 1240,
    "Ġ/": 1241,
    "Ġmonth": 1242,
    "âĢ¦": 1243,
    "ware": 1244,
    "Ġinvest": 1245,
    "less": 1246,
    ");": 1247,
    "Ġcost": 1248,
    "ien": 1249,
    "Ġiss": 1250,
    "pend": 1251,
    "pos": 1252,
    "Ġapplic": 1253,
    "ird": 1254,
    "Ġkeep": 1255,
    "Ġproducts": 1256,
    "ik": 1257,
    "Ġsite": 1258,
    "Ġwithin": 1259,
    "erg": 1260,
    "ically": 1261,
    "Ġcontin": 1262,
    "the": 1263,
    "Ġthink": 1264,
    "orth": 1265,
    "roup": 1266,
    "Ġinf": 1267,
    "ĠEx": 1268,
    "Ġfil": 1269,
    "Ġdirect": 1270,
    "ames": 1271,
    "Ġinterest": 1272,
    "Ġconf": 1273,
    "RE": 1274,
    "ĠSe": 1275,
    "Ġperform": 1276,
    "Ġopen": 1277,
    "Ġ'": 1278,
    "Ġimportant": 1279,
    "Ġpersonal": 1280,
    "ĠWh": 1281,
    "ten": 1282,
    "Ġterm": 1283,
    "riend": 1284,
    "Ġ12": 1285,
    "ving": 1286,
    "Ġinc": 1287,
    "Ġquest": 1288,
    "ute": 1289,
    "ĠPl": 1290,
    "Ġdist": 1291,
    "IN": 1292,
    "ients": 1293,
    "30": 1294,
    "Ġaddition": 1295,
    "ĠQ": 1296,
    "Ġprot": 1297,
    "ĠInd": 1298,
    "Ġreport": 1299,
    "iving": 1300,
    "Ġdid": 1301,
    "Ġpat": 1302,
    "ural": 1303,
    "Ġest": 1304,
    "ved": 1305,
    "Ġoper": 1306,
    "ability": 1307,
    ")/": 1308,
    "dition": 1309,
    "ccess": 1310,
    "ider": 1311,
    "Ġprofess": 1312,
    "Ġincre": 1313,
    "It": 1314,
    "15": 1315,
    "Ġcent": 1316,
    "ĠHow": 1317,
    "Ġeffect": 1318,
    "ĠThey": 1319,
    "Ġreturn": 1320,
    "cri": 1321,
    "ished": 1322,
    "Ġcurrent": 1323,
    "Ġ18": 1324,
    "Ġpass": 1325,
    "ists": 1326,
    "Ġreal": 1327,
    "vent": 1328,
    "Ġpublic": 1329,
    "Ġgra": 1330,
    "ĠWhat": 1331,
    "Ġpoint": 1332,
    "ator": 1333,
    "eng": 1334,
    "feren": 1335,
    "iversity": 1336,
    "ON": 1337,
    "ĠSu": 1338,
    "Ġsom": 1339,
    "Ġimpro": 1340,
    "Ġrese": 1341,
    "Ġgrow": 1342,
    "Ġwater": 1343,
    "Ġthree": 1344,
    "Ġdays": 1345,
    "Ġrest": 1346,
    "Ġlot": 1347,
    "Ġworking": 1348,
    "meric": 1349,
    "Ġfew": 1350,
    "aut": 1351,
    "Ġvalue": 1352,
    "Ġsoc": 1353,
    ",\"": 1354,
    "Ġwr": 1355,
    "Re": 1356,
    "Ġstand": 1357,
    "ote": 1358,
    "Ġable": 1359,
    "ĠOn": 1360,
    "Ġstill": 1361,
    "Ġcert": 1362,
    "Ġitem": 1363,
    "=\"": 1364,
    "Ġstore": 1365,
    "Ġve": 1366,
    "ission": 1367,
    "Ġ{": 1368,
    "Ġequ": 1369,
    "Ġfamily": 1370,
    "ery": 1371,
    "Ġsure": 1372,
    "Ġ<": 1373,
    "aterial": 1374,
    "ĠBut": 1375,
    "ĊĠĠĠĠĠĠĠ": 1376,
    "arly": 1377,
    "Ġalways": 1378,
    "ĠThere": 1379,
    "rol": 1380,
    "16": 1381,
    "rid": 1382,
    "to": 1383,
    "ision": 1384,
    "Ġlove": 1385,
    "ases": 1386,
    "ified": 1387,
    "Ġsecond": 1388,
    "ah": 1389,
    "Ġspecial": 1390,
    "ration": 1391,
    "Ġschool": 1392,
    "Ġlevel": 1393,
    "Ġunderstand": 1394,
    "of": 1395,
    "ĠLe": 1396,
    "18": 1397,
    "icle": 1398,
    "iver": 1399,
    "icy": 1400,
    "gest": 1401,
    "You": 1402,
    "ĊĠ": 1403,
    "atures": 1404,
    "Ġcheck": 1405,
    "Ġbetter": 1406,
    "Ġtest": 1407,
    "co": 1408,
    "ĠUS": 1409,
    "man": 1410,
    "aj": 1411,
    "Ġnext": 1412,
    "14": 1413,
    "Ġindust": 1414,
    "ared": 1415,
    "Ġgive": 1416,
    "au": 1417,
    "Ġhapp": 1418,
    "work": 1419,
    "AT": 1420,
    "Ġfull": 1421,
    "Ġfunction": 1422,
    "Ġeng": 1423,
    "Ġline": 1424,
    "agement": 1425,
    "ites": 1426,
    "ards": 1427,
    "Ġquality": 1428,
    "Ġvisit": 1429,
    "ĠAll": 1430,
    "Ġintern": 1431,
    "13": 1432,
    "ĠTo": 1433,
    "ization": 1434,
    "ours": 1435,
    "ling": 1436,
    "ails": 1437,
    "How": 1438,
    "Ġexpl": 1439,
    "Ġide": 1440,
    "oney": 1441,
    "Ġaccount": 1442,
    "Ġproble": 1443,
    "ral": 1444,
    "inal": 1445,
    "Ġpurch": 1446,
    "ted": 1447,
    "ĠBe": 1448,
    "me": 1449,
    "Ġmult": 1450,
    "oot": 1451,
    "Ġfeel": 1452,
    "Ġ15": 1453,
    "ately": 1454,
    "ĠTe": 1455,
    "duct": 1456,
    "pro": 1457,
    "itions": 1458,
    "Ġstudents": 1459,
    "thing": 1460,
    "Ġcreate": 1461,
    "Ġconst": 1462,
    "ĠAmeric": 1463,
    ",âĢĿ": 1464,
    "lection": 1465,
    "Ġname": 1466,
    "Ġemploy": 1467,
    "comm": 1468,
    "ĠCol": 1469,
    "acy": 1470,
    "cul": 1471,
    "Ġreally": 1472,
    "Ġpower": 1473,
    "Ġchange": 1474,
    "cent": 1475,
    "\":": 1476,
    "ron": 1477,
    "ium": 1478,
    "Ġcontact": 1479,
    "Ġactiv": 1480,
    "Ġbas": 1481,
    "Ġlaw": 1482,
    "Ġanal": 1483,
    "Ġben": 1484,
    "Ġbel": 1485,
    "ody": 1486,
    "hor": 1487,
    "tain": 1488,
    "ior": 1489,
    "__": 1490,
    "Ġthough": 1491,
    "Ġprom": 1492,
    "Ġhim": 1493,
    "Ġthings": 1494,
    "Ġconnect": 1495,
    "Ġarea": 1496,
    "iron": 1497,
    "Ġsince": 1498,
    "Ġtry": 1499,
    "ĠIs": 1500,
    "ĠBl": 1501,
    "ĠSc": 1502,
    "Ġpage": 1503,
    "Ġpract": 1504,
    "part": 1505,
    "cing": 1506,
    "Ġgoing": 1507,
    "Ġleg": 1508,
    "17": 1509,
    "reen": 1510,
    "Ġmaterial": 1511,
    "Ġmight": 1512,
    "Ġcr": 1513,
    "Ġbig": 1514,
    "sh": 1515,
    "Ġmat": 1516,
    "Ġcome": 1517,
    "Ġlocal": 1518,
    "lish": 1519,
    "Ġlink": 1520,
    "Ġbased": 1521,
    "Ġview": 1522,
    "orn": 1523,
    "ĠCon": 1524,
    "Ġspecific": 1525,
    "Ġchang": 1526,
    "Ġcontent": 1527,
    "ethod": 1528,
    "oci": 1529,
    "ense": 1530,
    "Ġpop": 1531,
    "Ġprotect": 1532,
    "ividual": 1533,
    "let": 1534,
    "illion": 1535,
    "ES": 1536,
    "fect": 1537,
    "Ġfac": 1538,
    "ising": 1539,
    "ĠThese": 1540,
    "Ġneeds": 1541,
    "oor": 1542,
    "Ġgame": 1543,
    "ittle": 1544,
    "Ġel": 1545,
    "Ġsl": 1546,
    "Ġinclude": 1547,
    "Ġ.": 1548,
    "Ġtri": 1549,
    "Ġfollowing": 1550,
    "itive": 1551,
    "Ġresearch": 1552,
    "ocus": 1553,
    "gin": 1554,
    "Ġlight": 1555,
    "ething": 1556,
    "Ġens": 1557,
    "Ġcase": 1558,
    "Ġmeet": 1559,
    "//": 1560,
    "self": 1561,
    "Ġsupp": 1562,
    "ique": 1563,
    "joy": 1564,
    "ger": 1565,
    "ember": 1566,
    "Ġfriend": 1567,
    "bo": 1568,
    "ves": 1569,
    "Ġcommunity": 1570,
    "oss": 1571,
    "ribut": 1572,
    "Ġless": 1573,
    "ĠWith": 1574,
    "ĠServ": 1575,
    "por": 1576,
    "Ġanother": 1577,
    "Ġcommon": 1578,
    "27": 1579,
    "Ġreview": 1580,
    "ently": 1581,
    "Ġpossible": 1582,
    "ĠCan": 1583,
    "Ġcap": 1584,
    "vert": 1585,
    "ĠMan": 1586,
    "Ġrequire": 1587,
    "app": 1588,
    "ran": 1589,
    "Ġmaking": 1590,
    "Ġlooking": 1591,
    "min": 1592,
    "ĠSp": 1593,
    "Ġtoo": 1594,
    "Ġdev": 1595,
    "ories": 1596,
    "Ġcreat": 1597,
    "ills": 1598,
    "Ġvide": 1599,
    "ains": 1600,
    "Ġann": 1601,
    "ĠPh": 1602,
    "ĠRes": 1603,
    "be": 1604,
    "ategory": 1605,
    "med": 1606,
    "Ġz": 1607,
    "ĠSo": 1608,
    "urity": 1609,
    "Ġaff": 1610,
    "Ġlearn": 1611,
    "Ġmus": 1612,
    "Ġpresent": 1613,
    "Ġeasy": 1614,
    "ries": 1615,
    "ĠComm": 1616,
    "here": 1617,
    "ĠZ": 1618,
    "ppose": 1619,
    "Ġindividual": 1620,
    "Ġput": 1621,
    "ream": 1622,
    "Ġcomplete": 1623,
    "arning": 1624,
    "raph": 1625,
    "fer": 1626,
    "Ġ14": 1627,
    "iety": 1628,
    "Ġsuccess": 1629,
    "Ġweek": 1630,
    "Ġ30": 1631,
    "Ġsomething": 1632,
    "orm": 1633,
    "ource": 1634,
    "ency": 1635,
    "Ġbuy": 1636,
    "25": 1637,
    "Ġmet": 1638,
    "Ġnon": 1639,
    "Ġelect": 1640,
    "Ġthird": 1641,
    "rows": 1642,
    "Ġbenef": 1643,
    "tend": 1644,
    "viron": 1645,
    "Ġdevelopment": 1646,
    "Ġemail": 1647,
    "outh": 1648,
    "Ġhard": 1649,
    "pportun": 1650,
    "ĠOur": 1651,
    "Ġsal": 1652,
    "Ġair": 1653,
    "fact": 1654,
    "Ġevent": 1655,
    "Ġlarge": 1656,
    "place": 1657,
    "Ġuser": 1658,
    "Ġhead": 1659,
    "Ġrecord": 1660,
    "ieve": 1661,
    "ism": 1662,
    "put": 1663,
    "Ġphot": 1664,
    "Ġhist": 1665,
    "ĠOr": 1666,
    "oose": 1667,
    "ination": 1668,
    "vern": 1669,
    "Ġdig": 1670,
    "Ġfeatures": 1671,
    "Wh": 1672,
    "Ġlim": 1673,
    "Ġ16": 1674,
    "ym": 1675,
    "Ġpriv": 1676,
    "Ġdem": 1677,
    "ived": 1678,
    "Ġlittle": 1679,
    "ĠShe": 1680,
    "Ġaddress": 1681,
    "Ġmoney": 1682,
    "uro": 1683,
    "Ġfocus": 1684,
    "ĠUniversity": 1685,
    "ĊĊ": 1686,
    "Ġmov": 1687,
    "Ġtoday": 1688,
    "As": 1689,
    "24": 1690,
    "apt": 1691,
    "cessary": 1692,
    "commend": 1693,
    "âĢĶ": 1694,
    "Ġsay": 1695,
    "Ġwin": 1696,
    "Ġsolut": 1697,
    "mber": 1698,
    "Ġx": 1699,
    "Ġtyp": 1700,
    "alcul": 1701,
    "ĠâĢĺ": 1702,
    "23": 1703,
    "Ġimprove": 1704,
    "gle": 1705,
    "Ġeduc": 1706,
    "Ġsocial": 1707,
    "yle": 1708,
    "anies": 1709,
    "aster": 1710,
    "ĠâĢĶ": 1711,
    "99": 1712,
    "Ġpa": 1713,
    "Ġ13": 1714,
    "ering": 1715,
    "par": 1716,
    "Ġold": 1717,
    "aff": 1718,
    "ury": 1719,
    "Ġident": 1720,
    "ina": 1721,
    "Ġhig": 1722,
    "ised": 1723,
    "Ġmethod": 1724,
    "Ġenjoy": 1725,
    "ention": 1726,
    "iven": 1727,
    "load": 1728,
    "uture": 1729,
    "AN": 1730,
    "OR": 1731,
    "Ġask": 1732,
    "AR": 1733,
    "ancial": 1734,
    "Ġ|": 1735,
    "Ġ2022": 1736,
    "ources": 1737,
    "ĠCent": 1738,
    "Ġopportun": 1739,
    "Ġcourse": 1740,
    "sc": 1741,
    "Ġgovern": 1742,
    "Ġprice": 1743,
    "Ġbre": 1744,
    "rist": 1745,
    "ney": 1746,
    "Pro": 1747,
    "Ġtool": 1748,
    "ocu": 1749,
    "redit": 1750,
    "ann": 1751,
    "Ġfood": 1752,
    "Ġnet": 1753,
    "Ġlet": 1754,
    "Ġexpect": 1755,
    "Ġsoft": 1756,
    "Ġacross": 1757,
    "Ġindustry": 1758,
    "urance": 1759,
    "âĢĵ": 1760,
    "Ġbelow": 1761,
    "Ġtype": 1762,
    "ush": 1763,
    "Ġplease": 1764,
    "Ġsever": 1765,
    "oh": 1766,
    "ID": 1767,
    "Ġmembers": 1768,
    "Ġpack": 1769,
    "vironment": 1770,
    "Ġmeans": 1771,
    "Ġfund": 1772,
    "Ġkey": 1773,
    "ott": 1774,
    "Ġsing": 1775,
    "Ġchildren": 1776,
    "aim": 1777,
    "Ġbro": 1778,
    "Ġfour": 1779,
    "----": 1780,
    "Ġcustomers": 1781,
    "Ġtimes": 1782,
    "Ġperfect": 1783,
    "Ġwrit": 1784,
    "Ġ11": 1785,
    "Ġroom": 1786,
    "ĠEng": 1787,
    "ĠCont": 1788,
    "Ġjo": 1789,
    "pecial": 1790,
    "ĠTr": 1791,
    "arent": 1792,
    "Ġgroup": 1793,
    "ĠApp": 1794,
    "Ġgr": 1795,
    "Ġbeh": 1796,
    "://": 1797,
    "verage": 1798,
    "ners": 1799,
    "Ġoffers": 1800,
    "olve": 1801,
    "Ġexce": 1802,
    "Ġexample": 1803,
    "EN": 1804,
    "Ġrecommend": 1805,
    "Ġorig": 1806,
    "Ġrespons": 1807,
    "ding": 1808,
    "resent": 1809,
    "Ġdri": 1810,
    "Ġshare": 1811,
    "not": 1812,
    "Ġdiscuss": 1813,
    "Ġseveral": 1814,
    "ope": 1815,
    "Ġtoget": 1816,
    "Ġtogether": 1817,
    "Ġvers": 1818,
    "On": 1819,
    "40": 1820,
    "Ġtem": 1821,
    "urther": 1822,
    "side": 1823,
    "An": 1824,
    "ording": 1825,
    "Ġconsider": 1826,
    "Ġpot": 1827,
    "Ġinstall": 1828,
    "For": 1829,
    "Ġpick": 1830,
    "Ex": 1831,
    "fort": 1832,
    "Ġcontrol": 1833,
    "IT": 1834,
    "rap": 1835,
    "ajor": 1836,
    "rict": 1837,
    "til": 1838,
    "ĠAm": 1839,
    "att": 1840,
    "Ġbrand": 1841,
    "Ġrequest": 1842,
    "Ġalong": 1843,
    "Ġcompanies": 1844,
    "Ġoften": 1845,
    "60": 1846,
    "conom": 1847,
    "ats": 1848,
    "Ġess": 1849,
    "Ġ17": 1850,
    "Ġ:": 1851,
    "iple": 1852,
    "urs": 1853,
    "Ġbr": 1854,
    "He": 1855,
    "Ġfuture": 1856,
    "Ġnever": 1857,
    "ĠWhen": 1858,
    "ĠHowever": 1859,
    "by": 1860,
    "oice": 1861,
    "Ġtreat": 1862,
    "Ġtax": 1863,
    "Ġupd": 1864,
    "ured": 1865,
    "ibility": 1866,
    "Ġcertain": 1867,
    "AL": 1868,
    "Ġ}": 1869,
    "Ġfield": 1870,
    "Ġcollect": 1871,
    "ST": 1872,
    "Ġprofessional": 1873,
    "Ġagainst": 1874,
    "Ġcomes": 1875,
    "lev": 1876,
    "Ġselect": 1877,
    "roll": 1878,
    "ilities": 1879,
    "Ġnews": 1880,
    "Ġshort": 1881,
    "ift": 1882,
    "play": 1883,
    "Ġlive": 1884,
    "atic": 1885,
    "Ġhouse": 1886,
    "Ġhum": 1887,
    "Ġbeaut": 1888,
    "Ġcountry": 1889,
    "Ġprovided": 1890,
    "ĠYour": 1891,
    "ged": 1892,
    "Ġ100": 1893,
    "Ġweb": 1894,
    "lished": 1895,
    "iod": 1896,
    "Ġrequired": 1897,
    "Ġspace": 1898,
    "ĠTra": 1899,
    "Ġquick": 1900,
    "Ġreceive": 1901,
    "Ġlow": 1902,
    "Ch": 1903,
    "Ġdra": 1904,
    "utes": 1905,
    "itor": 1906,
    "err": 1907,
    "iting": 1908,
    "ights": 1909,
    "vious": 1910,
    "Ġmakes": 1911,
    "omen": 1912,
    "Ġmove": 1913,
    "ready": 1914,
    "\",": 1915,
    "Ġland": 1916,
    "Ġpast": 1917,
    "ĠAss": 1918,
    "Ġtre": 1919,
    "Ġbecome": 1920,
    "ĠPol": 1921,
    "Ġhaving": 1922,
    "Ġtext": 1923,
    "Ġbrows": 1924,
    "Ġpri": 1925,
    "Ġstep": 1926,
    "Ġwhy": 1927,
    "Ġtechnology": 1928,
    "aces": 1929,
    "Ġocc": 1930,
    "indow": 1931,
    "room": 1932,
    "ĠComp": 1933,
    "ino": 1934,
    "()": 1935,
    "sw": 1936,
    "ograph": 1937,
    "Ġturn": 1938,
    "ably": 1939,
    "atform": 1940,
    "Ġris": 1941,
    "ĠAt": 1942,
    "ffic": 1943,
    "UT": 1944,
    "rop": 1945,
    "Ġuntil": 1946,
    "wards": 1947,
    "Ġpain": 1948,
    "ĠNo": 1949,
    "Ġparticular": 1950,
    "irm": 1951,
    "Com": 1952,
    "ĠPr": 1953,
    "Ġredu": 1954,
    "80": 1955,
    "ledge": 1956,
    "yn": 1957,
    "Ġes": 1958,
    "Ġvideo": 1959,
    "une": 1960,
    "Ġ24": 1961,
    "ED": 1962,
    "Ġstudy": 1963,
    "Ġclean": 1964,
    "ances": 1965,
    "ids": 1966,
    "Ġpar": 1967,
    "ĠInst": 1968,
    "Ġmajor": 1969,
    "Ġkind": 1970,
    "ront": 1971,
    "Ġproperty": 1972,
    "Ġport": 1973,
    "Ġhours": 1974,
    "ots": 1975,
    "asing": 1976,
    "Ġlog": 1977,
    "Ġprovides": 1978,
    "Ġfore": 1979,
    "Ġothers": 1980,
    "Ġrange": 1981,
    "cer": 1982,
    "Ġresults": 1983,
    "ai": 1984,
    "Ġquestions": 1985,
    "aring": 1986,
    "Ġseason": 1987,
    "ipping": 1988,
    "Ġamount": 1989,
    "imate": 1990,
    "Ġabove": 1991,
    "ufact": 1992,
    "Ġdue": 1993,
    "ĠUnited": 1994,
    "Ġcompet": 1995,
    "ley": 1996,
    "ches": 1997,
    "olid": 1998,
    "obal": 1999,
    ")*": 2000,
    "Ġcomb": 2001,
    "Ġauthor": 2002,
    "Ġdocu": 2003,
    "Ġalready": 2004,
    "ĠMed": 2005,
    "Ġenvironment": 2006,
    "</": 2007,
    "Ġcode": 2008,
    "Ġoffic": 2009,
    "Ġvarious": 2010,
    "Ġclos": 2011,
    "arr": 2012,
    "ĠIntern": 2013,
    "IC": 2014,
    "Ġoption": 2015,
    "ification": 2016,
    "val": 2017,
    "Ġsw": 2018,
    "Ġtrack": 2019,
    "Ġensure": 2020,
    "Ġfinancial": 2021,
    "ĠCo": 2022,
    "ference": 2023,
    "Ġhold": 2024,
    "Ġla": 2025,
    "Ġfile": 2026,
    "Ġce": 2027,
    "Ġjob": 2028,
    "Ġcustomer": 2029,
    "ead": 2030,
    "osp": 2031,
    "ĠUs": 2032,
    "Ġaway": 2033,
    "Ġnecessary": 2034,
    "To": 2035,
    "Ġchall": 2036,
    "Ġgot": 2037,
    "abor": 2038,
    "rt": 2039,
    "Ġmusic": 2040,
    "Ġunique": 2041,
    "cription": 2042,
    "Ġclick": 2043,
    "iable": 2044,
    "Ġworks": 2045,
    "Ġword": 2046,
    "ental": 2047,
    "clus": 2048,
    "Ġseem": 2049,
    "book": 2050,
    "Su": 2051,
    "ci": 2052,
    "Ġitems": 2053,
    "Ġstrateg": 2054,
    "Ġparticip": 2055,
    "Sh": 2056,
    "ape": 2057,
    "Ġdone": 2058,
    "Ġsell": 2059,
    "Ġmanagement": 2060,
    "time": 2061,
    "ĠMar": 2062,
    "003": 2063,
    "ĠThat": 2064,
    "ilt": 2065,
    "ither": 2066,
    "ump": 2067,
    "ges": 2068,
    "ides": 2069,
    "Ġdeal": 2070,
    "Ġside": 2071,
    "When": 2072,
    "There": 2073,
    "ĠCO": 2074,
    "Ġbring": 2075,
    "Ġtravel": 2076,
    "Ġmess": 2077,
    "Ġmillion": 2078,
    "Ġ25": 2079,
    "Ġsug": 2080,
    "\\/": 2081,
    "Ġperiod": 2082,
    "eral": 2083,
    "ĠFl": 2084,
    "Ġmeas": 2085,
    "Ġincludes": 2086,
    "ĠEuro": 2087,
    "Ġsit": 2088,
    "Ġoptions": 2089,
    "Ad": 2090,
    "opp": 2091,
    "Ġsearch": 2092,
    "Ġcommunic": 2093,
    "ĠFe": 2094,
    "ĠMay": 2095,
    "ister": 2096,
    "Ġenc": 2097,
    "ively": 2098,
    "28": 2099,
    "Ġele": 2100,
    "Ġprob": 2101,
    "angu": 2102,
    "Ġremain": 2103,
    "Ġcity": 2104,
    "avor": 2105,
    "Ġsize": 2106,
    "ĠPlease": 2107,
    "aging": 2108,
    "Ġissues": 2109,
    "ĠX": 2110,
    "crib": 2111,
    "ips": 2112,
    ".\"": 2113,
    "26": 2114,
    "ogn": 2115,
    "Ġchoose": 2116,
    "Ġcalled": 2117,
    "Ġmedia": 2118,
    "Ġproblem": 2119,
    "Ġpub": 2120,
    "iam": 2121,
    "Ġdate": 2122,
    "Ġlo": 2123,
    "br": 2124,
    "come": 2125,
    "Ġmind": 2126,
    "Ġperformance": 2127,
    "Ġimpact": 2128,
    "Ġleast": 2129,
    "Ġcredit": 2130,
    "Ġvol": 2131,
    "Ġpurchase": 2132,
    "Ġenerg": 2133,
    "ĠChrist": 2134,
    "orld": 2135,
    "Ġapplication": 2136,
    "ask": 2137,
    "Ġsecurity": 2138,
    "'re": 2139,
    "ĠCar": 2140,
    "Ġmonths": 2141,
    "enn": 2142,
    "iful": 2143,
    "Ġplatform": 2144,
    "Ġassist": 2145,
    "Ġreason": 2146,
    "ivery": 2147,
    "oogle": 2148,
    "Ġbuilding": 2149,
    "Ġusers": 2150,
    "CT": 2151,
    "ili": 2152,
    "Category": 2153,
    "back": 2154,
    "irt": 2155,
    "Ġdesigned": 2156,
    "oid": 2157,
    "&#": 2158,
    "Ġgovernment": 2159,
    "Ġeconom": 2160,
    "Ġprint": 2161,
    "Ġmultiple": 2162,
    "Ġtot": 2163,
    "Ġmar": 2164,
    "cle": 2165,
    "Ġmean": 2166,
    "Ġsum": 2167,
    "ĠState": 2168,
    "Ġgetting": 2169,
    "Ġcharact": 2170,
    "Our": 2171,
    "Ġgiven": 2172,
    "Ġpolicy": 2173,
    "Ġgames": 2174,
    "Ġobject": 2175,
    "nov": 2176,
    "ones": 2177,
    "Ġet": 2178,
    "Ġvia": 2179,
    "hers": 2180,
    "Ġstrong": 2181,
    "ees": 2182,
    "Ġexperien": 2183,
    "hest": 2184,
    "Ġsubject": 2185,
    "35": 2186,
    "ford": 2187,
    "Ġknown": 2188,
    "obile": 2189,
    "uck": 2190,
    "itted": 2191,
    "Ġterms": 2192,
    "Ġcamp": 2193,
    "htt": 2194,
    "Ġbegin": 2195,
    "Ġleft": 2196,
    "Ġautom": 2197,
    "IS": 2198,
    "ĠEn": 2199,
    "AS": 2200,
    "ĠCount": 2201,
    "ĠNe": 2202,
    "Ġrelations": 2203,
    "sel": 2204,
    "Ġagree": 2205,
    "Ġcond": 2206,
    "ĊĠĠĠĠĠĠĠĠĠĠĠ": 2207,
    "lege": 2208,
    "ze": 2209,
    "Ġcard": 2210,
    "Ġfurther": 2211,
    "Ġminutes": 2212,
    "Ġtalk": 2213,
    "atural": 2214,
    "Ġhot": 2215,
    "ruction": 2216,
    "alf": 2217,
    "Ġ2021": 2218,
    "ored": 2219,
    "ĠMy": 2220,
    "Ġareas": 2221,
    "Ġstat": 2222,
    "iles": 2223,
    "Ġsingle": 2224,
    "alculate": 2225,
    "Ġsend": 2226,
    "Ġappear": 2227,
    "Ġdetails": 2228,
    "ports": 2229,
    "Ġenergy": 2230,
    "Ġ#": 2231,
    "ĠGu": 2232,
    "ĠAmerican": 2233,
    "Ġwhether": 2234,
    "ane": 2235,
    "Ġrepresent": 2236,
    "ober": 2237,
    "ĠDes": 2238,
    "45": 2239,
    "Ġonce": 2240,
    "opy": 2241,
    "ched": 2242,
    "idd": 2243,
    "anks": 2244,
    "Ġfar": 2245,
    "Ġtraining": 2246,
    "ĠDo": 2247,
    "ibr": 2248,
    "Ġlat": 2249,
    "Ġcult": 2250,
    "Ġsimple": 2251,
    "Ġconc": 2252,
    "Ġ2020": 2253,
    "Ġapply": 2254,
    "ulation": 2255,
    "Ġsignific": 2256,
    "Ġbase": 2257,
    "icated": 2258,
    "Ġclose": 2259,
    "ray": 2260,
    ".,": 2261,
    "ler": 2262,
    "af": 2263,
    "Ġinsurance": 2264,
    "33": 2265,
    "Ġdam": 2266,
    "ators": 2267,
    "Ġarticle": 2268,
    "son": 2269,
    "Ġinit": 2270,
    "ĠÂ": 2271,
    "Ġpotential": 2272,
    "Ġsoftware": 2273,
    "29": 2274,
    "Ġblog": 2275,
    "ety": 2276,
    "Ġenough": 2277,
    "Ġmodel": 2278,
    "ires": 2279,
    "))": 2280,
    "Ġpie": 2281,
    "Ġcolor": 2282,
    "Ġaud": 2283,
    "ply": 2284,
    "Ġmanufact": 2285,
    "Ġadditional": 2286,
    "ples": 2287,
    "Ġbody": 2288,
    "most": 2289,
    "Ġever": 2290,
    "Ġstay": 2291,
    "raft": 2292,
    "ĠStates": 2293,
    "Ġearly": 2294,
    "Ġaccept": 2295,
    "Ġcou": 2296,
    "aps": 2297,
    "Ġstarted": 2298,
    "Ġfre": 2299,
    "emic": 2300,
    "Ġmach": 2301,
    "ĠTH": 2302,
    "gr": 2303,
    "rodu": 2304,
    "Ġmot": 2305,
    "idence": 2306,
    "Ġessential": 2307,
    "ĠEurope": 2308,
    "ĠÐ": 2309,
    "ohn": 2310,
    "Ġthing": 2311,
    "Ġstaff": 2312,
    "Ġconsum": 2313,
    "Ġprior": 2314,
    "Cl": 2315,
    "Ġdepend": 2316,
    "Ġphys": 2317,
    "ilar": 2318,
    "Ġveh": 2319,
    "70": 2320,
    "ued": 2321,
    "Ġeverything": 2322,
    "lex": 2323,
    "Ġ50": 2324,
    "pose": 2325,
    "Ġamong": 2326,
    "Ġdiff": 2327,
    "Ġsuper": 2328,
    "www": 2329,
    "aged": 2330,
    "Ġhistory": 2331,
    "Ġmarketing": 2332,
    "Ġseries": 2333,
    "Ġdoing": 2334,
    "Ġage": 2335,
    "Ġdeterm": 2336,
    "Ġchanges": 2337,
    "ĠDis": 2338,
    "Ġknowledge": 2339,
    "ctor": 2340,
    "Ġcomput": 2341,
    "Ġbit": 2342,
    "uation": 2343,
    "Ġach": 2344,
    "Ġpress": 2345,
    "36": 2346,
    "ipment": 2347,
    "Ġbeautiful": 2348,
    "Ġcompl": 2349,
    "ourn": 2350,
    "aken": 2351,
    "ĠBo": 2352,
    "icles": 2353,
    "Ġpopular": 2354,
    "arl": 2355,
    "Ġclients": 2356,
    "oll": 2357,
    "ables": 2358,
    "Ġuses": 2359,
    "Ġstory": 2360,
    "new": 2361,
    "Ġquestion": 2362,
    "Ġhost": 2363,
    "icro": 2364,
    "Ġsafe": 2365,
    "ilit": 2366,
    "ĠMe": 2367,
    "fully": 2368,
    "ĠBy": 2369,
    "ĠNational": 2370,
    "Ġregard": 2371,
    "Ġlearning": 2372,
    "rect": 2373,
    "ION": 2374,
    "ĠOne": 2375,
    "ians": 2376,
    "Ġevents": 2377,
    "Ab": 2378,
    "ĠMin": 2379,
    "pecially": 2380,
    "Ġways": 2381,
    "90": 2382,
    "ĠSchool": 2383,
    "Ġcontain": 2384,
    "Ġcreated": 2385,
    "'m": 2386,
    "ands": 2387,
    "Ġansw": 2388,
    "75": 2389,
    "unch": 2390,
    "ball": 2391,
    "resh": 2392,
    "Ġsignificant": 2393,
    "umb": 2394,
    "rug": 2395,
    "Ġcrit": 2396,
    "Ġsystems": 2397,
    "Ġdoesn": 2398,
    "Ġwon": 2399,
    "Ġwide": 2400,
    "aching": 2401,
    "ager": 2402,
    "ensive": 2403,
    "Ġfriends": 2404,
    "Ġestab": 2405,
    "imum": 2406,
    "Ġcut": 2407,
    "aus": 2408,
    "Is": 2409,
    "arget": 2410,
    "ĠCity": 2411,
    "Ġcoll": 2412,
    "ura": 2413,
    "go": 2414,
    "ĠEm": 2415,
    "Ġnetwork": 2416,
    "Ġoffice": 2417,
    "Ġactivities": 2418,
    "AC": 2419,
    "Ġactually": 2420,
    "Ġwa": 2421,
    "ĠPart": 2422,
    "org": 2423,
    "icult": 2424,
    "Con": 2425,
    "Ġrisk": 2426,
    "Ġeffort": 2427,
    "augh": 2428,
    "ume": 2429,
    "ĠMore": 2430,
    "Ġassoci": 2431,
    "Ġclaim": 2432,
    "agn": 2433,
    "earch": 2434,
    "eter": 2435,
    "qrt": 2436,
    "RO": 2437,
    "Ġinvol": 2438,
    "Ġrelationship": 2439,
    "Ġdigital": 2440,
    "LE": 2441,
    "Ġself": 2442,
    "Ġneeded": 2443,
    "ĠAg": 2444,
    "Ġexist": 2445,
    "Ġincrease": 2446,
    "Ġnight": 2447,
    "face": 2448,
    "Ġcontinue": 2449,
    "illed": 2450,
    "ĠNot": 2451,
    "mit": 2452,
    "ene": 2453,
    "anced": 2454,
    "Ġentire": 2455,
    "Ġmen": 2456,
    "Ġmom": 2457,
    "Ġyoung": 2458,
    "Ġfive": 2459,
    "ecut": 2460,
    "Ġcannot": 2461,
    "Ġoriginal": 2462,
    "Ġadded": 2463,
    "Ġengine": 2464,
    "Ġreceived": 2465,
    "44": 2466,
    "Ġtable": 2467,
    "Ġful": 2468,
    "Ġcontract": 2469,
    "itle": 2470,
    "Ġextra": 2471,
    "Ġstyle": 2472,
    "Ġeducation": 2473,
    "ĠQu": 2474,
    "Ġlater": 2475,
    "Ġbreak": 2476,
    "Ġallows": 2477,
    "ĠIm": 2478,
    "ĠCal": 2479,
    "text": 2480,
    "Ġfeature": 2481,
    "Ġdeb": 2482,
    "Ġrate": 2483,
    "ditional": 2484,
    "Ġaffect": 2485,
    "sp": 2486,
    "ground": 2487,
    "urch": 2488,
    "Ġphone": 2489,
    "Ġbrowser": 2490,
    "ging": 2491,
    "plement": 2492,
    "itut": 2493,
    "Ġ(-": 2494,
    "ief": 2495,
    "Ġcomfort": 2496,
    "Ġreplace": 2497,
    "gra": 2498,
    "based": 2499,
    "Ġstruct": 2500,
    "Ġrespect": 2501,
    "Ġskills": 2502,
    "Ġeither": 2503,
    "Ġste": 2504,
    "Ġlegal": 2505,
    "minist": 2506,
    "Ġsales": 2507,
    "ĠChe": 2508,
    "Ġnear": 2509,
    "Al": 2510,
    "Ġposition": 2511,
    "onse": 2512,
    "ules": 2513,
    "Ġtell": 2514,
    "Ġ,": 2515,
    "reg": 2516,
    "Ġhuman": 2517,
    "Ġanaly": 2518,
    "98": 2519,
    "yl": 2520,
    "cript": 2521,
    "Ġsays": 2522,
    "Ġflow": 2523,
    "Ġproviding": 2524,
    "Ġgeneral": 2525,
    "Ġyet": 2526,
    "ĠService": 2527,
    "Ġsuggest": 2528,
    "Ġtaking": 2529,
    "ING": 2530,
    "'ve": 2531,
    "Ġversion": 2532,
    "atory": 2533,
    "Ġsent": 2534,
    "Ġconsent": 2535,
    "Ġrelated": 2536,
    "ĠSte": 2537,
    "aving": 2538,
    "Ġlangu": 2539,
    "though": 2540,
    "Ġant": 2541,
    "Ġder": 2542,
    "ĠWorld": 2543,
    "Ġprivate": 2544,
    "oud": 2545,
    "Ġcover": 2546,
    "ĠGod": 2547,
    "Ġetc": 2548,
    "Ġaf": 2549,
    "ĠReg": 2550,
    "Ġcas": 2551,
    "Ġsett": 2552,
    "Ġdelivery": 2553,
    "Ġprevious": 2554,
    "ferences": 2555,
    "my": 2556,
    "ada": 2557,
    "Ġtypes": 2558,
    "'ll": 2559,
    "itten": 2560,
    "With": 2561,
    "arant": 2562,
    "ysis": 2563,
    "Ġtotal": 2564,
    "Ġdiv": 2565,
    "Ġmaterials": 2566,
    "cast": 2567,
    "Ġeffic": 2568,
    "Ġhigher": 2569,
    "Ġdownload": 2570,
    "Ġdr": 2571,
    "ux": 2572,
    "All": 2573,
    "izing": 2574,
    "ctions": 2575,
    "Ġrecogn": 2576,
    "Ġdisplay": 2577,
    "Ġliving": 2578,
    "ĠAfter": 2579,
    "Ġcir": 2580,
    "ĠStud": 2581,
    "Ġpercent": 2582,
    "Ġheart": 2583,
    "OT": 2584,
    "Ġprojects": 2585,
    "ault": 2586,
    "Ġexc": 2587,
    "Ġrole": 2588,
    "Ġbar": 2589,
    "Ġsimilar": 2590,
    "Ġissue": 2591,
    "ĠBu": 2592,
    "48": 2593,
    "Ġparent": 2594,
    "Ġdifficult": 2595,
    "Ġ*": 2596,
    "Ġconditions": 2597,
    "Ġwriting": 2598,
    "Ġmember": 2599,
    "Ġadvert": 2600,
    "Ġnatural": 2601,
    "Ġsat": 2602,
    "epend": 2603,
    "aily": 2604,
    "Ġespecially": 2605,
    "Ġexpress": 2606,
    "oved": 2607,
    "38": 2608,
    "ĠWest": 2609,
    "ĠâĢ¦": 2610,
    "Ġproduction": 2611,
    "ĠJan": 2612,
    "Ġcurrently": 2613,
    "Ġsound": 2614,
    "reet": 2615,
    "ey": 2616,
    "Ġopportunity": 2617,
    "Ġparty": 2618,
    "Ġpaper": 2619,
    "95": 2620,
    "Ġdi": 2621,
    "Ġinfl": 2622,
    "Ġwhole": 2623,
    "Ġfactors": 2624,
    "Ġincluded": 2625,
    "ĠNorth": 2626,
    "ĠSouth": 2627,
    "Ġmaintain": 2628,
    "ĠYork": 2629,
    "UR": 2630,
    "orage": 2631,
    "right": 2632,
    "ule": 2633,
    "Ġaccording": 2634,
    "Tr": 2635,
    "gress": 2636,
    "Ġthroughout": 2637,
    "Ã©": 2638,
    "Ġut": 2639,
    "Ġclear": 2640,
    "Ġvariety": 2641,
    "Ġwomen": 2642,
    "Ġcell": 2643,
    "Ġhy": 2644,
    "Ġofficial": 2645,
    "amb": 2646,
    "Ġhowever": 2647,
    "Ġcosts": 2648,
    "Ġfavor": 2649,
    "ĠGoogle": 2650,
    "Ġlatest": 2651,
    "Ġglobal": 2652,
    "Ġgrowth": 2653,
    "medi": 2654,
    "Ġlikely": 2655,
    "ĠPre": 2656,
    "Ġmiss": 2657,
    "pre": 2658,
    "inc": 2659,
    "Ġspend": 2660,
    "Ġwalk": 2661,
    "Ġtools": 2662,
    "ĠDep": 2663,
    "Ġhappen": 2664,
    "ĠAf": 2665,
    "ĠSuppose": 2666,
    "ille": 2667,
    "Ġfinal": 2668,
    "Ġyourself": 2669,
    "Ġabs": 2670,
    "ĠOct": 2671,
    "Ġsaf": 2672,
    "Ġey": 2673,
    "ises": 2674,
    "set": 2675,
    "Ġlocated": 2676,
    "Ġfit": 2677,
    "Ġsimply": 2678,
    "Ġlocation": 2679,
    "AM": 2680,
    "ĠĊ": 2681,
    "Ġannoun": 2682,
    "ĠJohn": 2683,
    "itch": 2684,
    "cont": 2685,
    "Ġinternational": 2686,
    "Ġsol": 2687,
    "Ġmedical": 2688,
    "Ġimplement": 2689,
    "ĠAct": 2690,
    "65": 2691,
    "ops": 2692,
    "pri": 2693,
    "37": 2694,
    "alse": 2695,
    "ony": 2696,
    "Ġproblems": 2697,
    "Ġreading": 2698,
    "astic": 2699,
    "ĠOff": 2700,
    "Ġtook": 2701,
    "Ġsubs": 2702,
    "coming": 2703,
    "Ġ2019": 2704,
    "imal": 2705,
    "che": 2706,
    "Ġeveryone": 2707,
    "Ġfront": 2708,
    "Ġ...": 2709,
    "Ġprograms": 2710,
    "200": 2711,
    "Ġregular": 2712,
    "Ġdocument": 2713,
    "Ġaction": 2714,
    "Ġfoot": 2715,
    "Ġaccom": 2716,
    "Ġbenefits": 2717,
    "Ġsomeone": 2718,
    "ĠHealth": 2719,
    "Ġdom": 2720,
    "mod": 2721,
    "Ġred": 2722,
    "Ġpartners": 2723,
    "Ġchalleng": 2724,
    "Ġpractice": 2725,
    "Ġlic": 2726,
    "Ġpositive": 2727,
    "where": 2728,
    "aur": 2729,
    "mission": 2730,
    "ung": 2731,
    "Ġbox": 2732,
    "ming": 2733,
    "Ġbelieve": 2734,
    "Ġ40": 2735,
    "ĠGl": 2736,
    "Ġseen": 2737,
    "Ġcame": 2738,
    "Ð¾": 2739,
    "Ġwond": 2740,
    "ET": 2741,
    "just": 2742,
    "Ġregist": 2743,
    "ided": 2744,
    "Suppose": 2745,
    "ivity": 2746,
    "Ġerr": 2747,
    "oon": 2748,
    "Ġtru": 2749,
    "rain": 2750,
    "Ġfall": 2751,
    "ĠCounty": 2752,
    "Ġusually": 2753,
    "Ġfast": 2754,
    "Ġstandard": 2755,
    "ival": 2756,
    "Ġpict": 2757,
    "ders": 2758,
    "Ġforward": 2759,
    "li": 2760,
    "oura": 2761,
    "selves": 2762,
    "ĠServices": 2763,
    "Ġrunning": 2764,
    "100": 2765,
    "Ġhope": 2766,
    "head": 2767,
    "aced": 2768,
    "ĠFin": 2769,
    "ession": 2770,
    "osed": 2771,
    "ĠJu": 2772,
    "ox": 2773,
    "ĠHigh": 2774,
    "ouch": 2775,
    "Ġcharacter": 2776,
    "Ġeasily": 2777,
    "Ġtaken": 2778,
    "Ġbasic": 2779,
    "ĠAust": 2780,
    "Ġcases": 2781,
    "ml": 2782,
    "Ġexpert": 2783,
    "34": 2784,
    "Ġbed": 2785,
    "cies": 2786,
    "Ġlay": 2787,
    "Ġidea": 2788,
    "Ġimage": 2789,
    "ĠSome": 2790,
    "ĠĠĠĠĠĠĠĠĠĠĠĠĠĠĠĠ": 2791,
    "Ġtakes": 2792,
    "Ġloss": 2793,
    "ĠAN": 2794,
    "overed": 2795,
    "Ġdeg": 2796,
    "Ġoutside": 2797,
    "Ġbuilt": 2798,
    "Ġsolutions": 2799,
    "Ġready": 2800,
    "irl": 2801,
    "Ġsolution": 2802,
    "uary": 2803,
    "ĠIN": 2804,
    "hib": 2805,
    "Ġpoints": 2806,
    "\">": 2807,
    "Ġlonger": 2808,
    "Ġhom": 2809,
    "Ġpurpose": 2810,
    "Ġrequirements": 2811,
    "ĠAut": 2812,
    "Ġprep": 2813,
    "Ġ21": 2814,
    "olution": 2815,
    "ĠCenter": 2816,
    "ĠRead": 2817,
    "rivacy": 2818,
    "Ġsoon": 2819,
    "Ġdirectly": 2820,
    "iter": 2821,
    "Ġqual": 2822,
    "ĠPark": 2823,
    "Ġshipping": 2824,
    "Ġsites": 2825,
    "urer": 2826,
    "Ġwatch": 2827,
    "indows": 2828,
    "ĠPres": 2829,
    "Ġtrust": 2830,
    "wh": 2831,
    "Ġleaders": 2832,
    "Ġmark": 2833,
    "Ġexcell": 2834,
    "ovember": 2835,
    "Ġequipment": 2836,
    "Ġtarget": 2837,
    "ole": 2838,
    "Ġresources": 2839,
    "Cont": 2840,
    "Ġsafety": 2841,
    "ison": 2842,
    "orks": 2843,
    "hold": 2844,
    "Ġthought": 2845,
    "Ġprim": 2846,
    "Ġfram": 2847,
    "ĠAb": 2848,
    "Ġdevice": 2849,
    "ĠRep": 2850,
    "Ġvac": 2851,
    "uff": 2852,
    "ĠAssoci": 2853,
    "Ġded": 2854,
    "88": 2855,
    "Ġpan": 2856,
    "Ġface": 2857,
    "Ġupon": 2858,
    "Ġstudent": 2859,
    "39": 2860,
    "Ġprevent": 2861,
    "ĠPer": 2862,
    "Ġdou": 2863,
    "Ġcountries": 2864,
    "Ph": 2865,
    "rew": 2866,
    "Ġenter": 2867,
    "ection": 2868,
    "Ġtreatment": 2869,
    "igation": 2870,
    "US": 2871,
    "Ġinvestment": 2872,
    "Ġnational": 2873,
    "Ġleading": 2874,
    "Ġelse": 2875,
    "reme": 2876,
    "ailed": 2877,
    "oring": 2878,
    "Ġinnov": 2879,
    "Ġarch": 2880,
    "Ġapproach": 2881,
    "ĠAug": 2882,
    "Ġoil": 2883,
    "leased": 2884,
    "',": 2885,
    "Ġhtt": 2886,
    "Ġtrue": 2887,
    "\":\"": 2888,
    "ĠPe": 2889,
    "era": 2890,
    "AP": 2891,
    "ĠSept": 2892,
    "Ġsource": 2893,
    "cember": 2894,
    "\",\"": 2895,
    "Ġinside": 2896,
    "Ġdifferen": 2897,
    "Ġbank": 2898,
    "Ġscreen": 2899,
    "Ġsave": 2900,
    "word": 2901,
    "ĠĠĠĠĠ": 2902,
    "year": 2903,
    "Ġheld": 2904,
    "wise": 2905,
    "Ġability": 2906,
    "ĠArt": 2907,
    "Ġdeliver": 2908,
    "Ġquickly": 2909,
    "Ġhelps": 2910,
    "ties": 2911,
    "Ġorganization": 2912,
    "Ġchoice": 2913,
    "Ġround": 2914,
    "atter": 2915,
    "ĠInt": 2916,
    "Ġpers": 2917,
    "Ġconcern": 2918,
    "Ġcollection": 2919,
    "Ġpatients": 2920,
    "Res": 2921,
    "Ġmatter": 2922,
    "ĠSm": 2923,
    "Ġplayers": 2924,
    "Ġcopy": 2925,
    "Ġearn": 2926,
    "str": 2927,
    "Ġop": 2928,
    "Ġroad": 2929,
    "Ġbusinesses": 2930,
    "Ġrecent": 2931,
    "Ġmatch": 2932,
    "Ġshall": 2933,
    "ĠCor": 2934,
    "UTC": 2935,
    "Ġtrying": 2936,
    "____": 2937,
    "Ġshows": 2938,
    "press": 2939,
    "Ġcorrect": 2940,
    "rel": 2941,
    "php": 2942,
    "pril": 2943,
    "ĠCompany": 2944,
    "55": 2945,
    "Ġemb": 2946,
    "Ġsix": 2947,
    "Ġemployees": 2948,
    "Ġq": 2949,
    "umn": 2950,
    "Ġmobile": 2951,
    "ĠAcc": 2952,
    "!!": 2953,
    "Ġpayment": 2954,
    "light": 2955,
    "ĠDr": 2956,
    "Ġnote": 2957,
    "Ġdefin": 2958,
    "Ġalmost": 2959,
    "hing": 2960,
    "66": 2961,
    "Ġinsp": 2962,
    "Ġ2018": 2963,
    "ĠOut": 2964,
    "ustain": 2965,
    "Ġeffective": 2966,
    "ĠEd": 2967,
    "Ġattend": 2968,
    "rive": 2969,
    "ĠMarch": 2970,
    "itting": 2971,
    "Ġdescrib": 2972,
    "Ġcareer": 2973,
    "Ġneg": 2974,
    "ĠOf": 2975,
    "vis": 2976,
    "ĠGe": 2977,
    "ĠJune": 2978,
    "Ġanything": 2979,
    "Ġprices": 2980,
    "erve": 2981,
    "ĠIndia": 2982,
    "ederal": 2983,
    "Ġpolit": 2984,
    "77": 2985,
    "VID": 2986,
    "Ġwritten": 2987,
    "Ġhighly": 2988,
    "Ġparts": 2989,
    "Ġcaus": 2990,
    "Ġbott": 2991,
    "Ġconsult": 2992,
    "ried": 2993,
    "ĠHere": 2994,
    "roid": 2995,
    "ĠTw": 2996,
    "Ġsection": 2997,
    "ana": 2998,
    "Ġgoal": 2999,
    "Un": 3000,
    "ĠVal": 3001,
    "oes": 3002,
    "azing": 3003,
    "inary": 3004,
    "Ġcondition": 3005,
    "Ġpark": 3006,
    "Ġdidn": 3007,
    "ĠSoc": 3008,
    "ales": 3009,
    "ĠPolicy": 3010,
    "About": 3011,
    "Ġpo": 3012,
    "bl": 3013,
    "itc": 3014,
    "Ġcele": 3015,
    "ension": 3016,
    "Ġfire": 3017,
    "Ġtour": 3018,
    "LL": 3019,
    "Ġhalf": 3020,
    "ĠWhile": 3021,
    "Ġexact": 3022,
    "gu": 3023,
    "erc": 3024,
    "ĠCons": 3025,
    "Ġquite": 3026,
    "Ġguarant": 3027,
    "rown": 3028,
    "change": 3029,
    "OS": 3030,
    "Ġmodern": 3031,
    "64": 3032,
    "Ġrout": 3033,
    "oom": 3034,
    "Ġhappy": 3035,
    "So": 3036,
    "Ġworth": 3037,
    "airs": 3038,
    "Ġdecision": 3039,
    "Ġsens": 3040,
    "Ġcomputer": 3041,
    "Ġlower": 3042,
    "Ð°": 3043,
    "cil": 3044,
    "etimes": 3045,
    "ests": 3046,
    "Ġsepar": 3047,
    "ĠFrom": 3048,
    "ĠDay": 3049,
    "Ġsche": 3050,
    "Ġcand": 3051,
    "istic": 3052,
    "Ġago": 3053,
    "Be": 3054,
    "Ġintrodu": 3055,
    "Ġanalysis": 3056,
    "artment": 3057,
    "Ġaverage": 3058,
    "elcome": 3059,
    "elt": 3060,
    "==": 3061,
    "Ðµ": 3062,
    "poses": 3063,
    "Ġsle": 3064,
    "ters": 3065,
    "su": 3066,
    "Ġwent": 3067,
    "Ġpromot": 3068,
    "Ġobtain": 3069,
    "ĠNovember": 3070,
    "Ġver": 3071,
    "atives": 3072,
    "empt": 3073,
    "Ġdrive": 3074,
    "Ġlimited": 3075,
    "ĠInternational": 3076,
    "Ġpath": 3077,
    "ength": 3078,
    "ĠDirect": 3079,
    "At": 3080,
    "And": 3081,
    "Ġ22": 3082,
    "roups": 3083,
    "Ġstored": 3084,
    "Ġinteract": 3085,
    "Ġappl": 3086,
    "Ġlanguage": 3087,
    "Ġstorage": 3088,
    "Ġbal": 3089,
    "Ġprofession": 3090,
    "urg": 3091,
    "Ġorganiz": 3092,
    "ertain": 3093,
    "Ġcoun": 3094,
    "arth": 3095,
    "Ġwhite": 3096,
    "ĠAir": 3097,
    "Ġcommer": 3098,
    "nds": 3099,
    "uge": 3100,
    "Ġreach": 3101,
    "atur": 3102,
    "Ġ23": 3103,
    "hel": 3104,
    "Ġspeak": 3105,
    "Ġhon": 3106,
    "ĠDecember": 3107,
    "ĠOctober": 3108,
    "Ġindividuals": 3109,
    "Ġdest": 3110,
    "Ġfilm": 3111,
    "ĠBusiness": 3112,
    "ological": 3113,
    "EO": 3114,
    "idered": 3115,
    "Ġmax": 3116,
    "ĠJuly": 3117,
    "ĠSec": 3118,
    "ought": 3119,
    "Ġplans": 3120,
    "Ġworked": 3121,
    "Ġregul": 3122,
    "ava": 3123,
    "Te": 3124,
    "Ġsale": 3125,
    "reng": 3126,
    "mail": 3127,
    "Ġimmedi": 3128,
    "Ġrights": 3129,
    "Ġcreating": 3130,
    "ĠSeptember": 3131,
    "Ġfeed": 3132,
    "Ġcoming": 3133,
    "Ġmessage": 3134,
    "Ġground": 3135,
    "itable": 3136,
    "hood": 3137,
    "Ġ2017": 3138,
    "asons": 3139,
    "Ġ28": 3140,
    "iring": 3141,
    "Ġleave": 3142,
    "Ġdaily": 3143,
    "ĠEnglish": 3144,
    "Ġcam": 3145,
    "Ġteac": 3146,
    "AD": 3147,
    "Ġweeks": 3148,
    "Ġapplications": 3149,
    "Ġhighest": 3150,
    "Ġderiv": 3151,
    "cret": 3152,
    "Ġblock": 3153,
    "Ġnorm": 3154,
    "Ġlab": 3155,
    "Ġcontribut": 3156,
    "itute": 3157,
    "Ġnav": 3158,
    "raw": 3159,
    "Ġencoura": 3160,
    "Ġvehicle": 3161,
    "ĠProgram": 3162,
    "aries": 3163,
    "Ġspeed": 3164,
    "(\"": 3165,
    "Ġdriv": 3166,
    "mon": 3167,
    "Ġachieve": 3168,
    "Ġâ": 3169,
    "Ġboard": 3170,
    "ht": 3171,
    "Ġlevels": 3172,
    "68": 3173,
    "ek": 3174,
    "Ġfix": 3175,
    "azon": 3176,
    "Ġanswer": 3177,
    "iol": 3178,
    "ĠGroup": 3179,
    "By": 3180,
    "Ġwords": 3181,
    "Ġblack": 3182,
    "aign": 3183,
    "Ġcenter": 3184,
    "Ġappropri": 3185,
    "ĠMon": 3186,
    "IP": 3187,
    "My": 3188,
    "Ġcommit": 3189,
    "ĠApril": 3190,
    "board": 3191,
    "Ġill": 3192,
    "Ġconduct": 3193,
    "Ġsym": 3194,
    "Ġdraw": 3195,
    "Ġlives": 3196,
    "Ġresponsible": 3197,
    "Ġopportunities": 3198,
    "arter": 3199,
    "....": 3200,
    "levant": 3201,
    "ĠTHE": 3202,
    "istics": 3203,
    "78": 3204,
    "Ġgen": 3205,
    "32": 3206,
    "Ġplant": 3207,
    "ĠJust": 3208,
    "Ġdeveloped": 3209,
    "unction": 3210,
    "Ġinj": 3211,
    "ĠNet": 3212,
    "Ġrather": 3213,
    "ma": 3214,
    "Ġ2016": 3215,
    "Ġindepend": 3216,
    "Ġindic": 3217,
    "Ġwall": 3218,
    "izes": 3219,
    "oman": 3220,
    "ĠWill": 3221,
    "Ġdivid": 3222,
    "Ġpurposes": 3223,
    "ĠAmerica": 3224,
    "ĠOver": 3225,
    "ournal": 3226,
    "Ġavoid": 3227,
    "Ġpublished": 3228,
    "Ġinstead": 3229,
    "Ġmor": 3230,
    "Ġanyone": 3231,
    "De": 3232,
    "EC": 3233,
    "fl": 3234,
    "Ġexcellent": 3235,
    "aly": 3236,
    "sqrt": 3237,
    "ese": 3238,
    "ĠBar": 3239,
    "But": 3240,
    "ilies": 3241,
    "ĠSw": 3242,
    "Ġdeep": 3243,
    "Ġrad": 3244,
    "ded": 3245,
    "isc": 3246,
    "ĠJanuary": 3247,
    "Ġmachine": 3248,
    "Ġlinks": 3249,
    "Ġideas": 3250,
    "Ġderivative": 3251,
    "Ġfully": 3252,
    "Ġcommercial": 3253,
    "Des": 3254,
    "Ġrates": 3255,
    "Ġ26": 3256,
    "Ġgives": 3257,
    "Ġmeeting": 3258,
    "vey": 3259,
    "Ġassess": 3260,
    "ibrary": 3261,
    "Ġclient": 3262,
    "iction": 3263,
    "Ġtechnical": 3264,
    "opping": 3265,
    "iddle": 3266,
    "Ġcomplex": 3267,
    "ĠUK": 3268,
    "Please": 3269,
    "Ġcy": 3270,
    ")/(": 3271,
    "Ġbooks": 3272,
    "ĠHis": 3273,
    "Ġconsidered": 3274,
    "Ġisn": 3275,
    "Ġlif": 3276,
    "Ġprime": 3277,
    "iance": 3278,
    "Ġrecently": 3279,
    "Ġbehind": 3280,
    "idents": 3281,
    "ĠAugust": 3282,
    "key": 3283,
    "Ġmix": 3284,
    "Ġobs": 3285,
    "No": 3286,
    "iforn": 3287,
    "Your": 3288,
    "Ġstock": 3289,
    "Ġsun": 3290,
    "Ġactivity": 3291,
    "ellow": 3292,
    "Ġaim": 3293,
    "Ġfirm": 3294,
    "isions": 3295,
    "ĠCommun": 3296,
    "ĠNow": 3297,
    "Ġrent": 3298,
    "amed": 3299,
    "Ġdistribut": 3300,
    "):": 3301,
    "off": 3302,
    "lement": 3303,
    "Ġcal": 3304,
    "udget": 3305,
    "oph": 3306,
    "ares": 3307,
    "illing": 3308,
    "ached": 3309,
    "bor": 3310,
    "ĠEl": 3311,
    "ipped": 3312,
    "ĠInformation": 3313,
    "hern": 3314,
    "Ġcause": 3315,
    "Ġbi": 3316,
    "pper": 3317,
    "Ġprobably": 3318,
    "49": 3319,
    "Ġprem": 3320,
    "vest": 3321,
    "--------": 3322,
    "Ġfig": 3323,
    "Ġplanning": 3324,
    "ĠAre": 3325,
    "New": 3326,
    "itchen": 3327,
    "comes": 3328,
    "ĠSystem": 3329,
    "Ġge": 3330,
    "duc": 3331,
    "Ġemerg": 3332,
    "ĠDepartment": 3333,
    "Ġtown": 3334,
    "Ġidentify": 3335,
    "ĠInc": 3336,
    "Ġenh": 3337,
    "ari": 3338,
    "PS": 3339,
    "Ġ27": 3340,
    "na": 3341,
    "ifornia": 3342,
    "Ġadvice": 3343,
    "Ġ--": 3344,
    "Ġunderstanding": 3345,
    "wide": 3346,
    "nes": 3347,
    "Ġdeath": 3348,
    "Ġgradu": 3349,
    "Ġwrite": 3350,
    "ype": 3351,
    "irth": 3352,
    "Ġfiles": 3353,
    "Ġinvolved": 3354,
    "Ġconsist": 3355,
    "Ġtouch": 3356,
    "Ġexpected": 3357,
    "Â®": 3358,
    "Ġinternet": 3359,
    "ĠSer": 3360,
    "47": 3361,
    "ster": 3362,
    "Ġwood": 3363,
    "ĠAc": 3364,
    "ĠAfric": 3365,
    "Ġadminist": 3366,
    "Ġimages": 3367,
    "ude": 3368,
    "tters": 3369,
    "pd": 3370,
    "Ġtraditional": 3371,
    "Ġfavorite": 3372,
    "Ġstreng": 3373,
    "ening": 3374,
    "ĠPresident": 3375,
    "Ġguid": 3376,
    "One": 3377,
    "Ġimm": 3378,
    "Ġamazing": 3379,
    "Ġtransfer": 3380,
    "Ġadvant": 3381,
    "Ġreplacement": 3382,
    "Col": 3383,
    "ologies": 3384,
    "Ġintegr": 3385,
    "IM": 3386,
    "Ġplaces": 3387,
    "Ġpropos": 3388,
    "Ġwonder": 3389,
    "Ġconstruction": 3390,
    "ĠFeb": 3391,
    "des": 3392,
    "Se": 3393,
    "Ġinform": 3394,
    "ĠLaw": 3395,
    "Ġcool": 3396,
    "ĠHouse": 3397,
    "Ġmention": 3398,
    "Ġrelease": 3399,
    "arest": 3400,
    "Ġdivided": 3401,
    "Ġwish": 3402,
    "gy": 3403,
    "like": 3404,
    "Ġ2015": 3405,
    "Ġgroups": 3406,
    "Ġkids": 3407,
    "Ġloan": 3408,
    "Ġcollabor": 3409,
    "col": 3410,
    "Ġwanted": 3411,
    "ĠMarket": 3412,
    "tr": 3413,
    "rast": 3414,
    "ENT": 3415,
    "ĠDet": 3416,
    "Ġweight": 3417,
    "mb": 3418,
    "Ġones": 3419,
    "ha": 3420,
    "Ġcompon": 3421,
    "Ġ60": 3422,
    "Ġphysical": 3423,
    "EM": 3424,
    "Ġsupply": 3425,
    "Ġheav": 3426,
    "Ġcash": 3427,
    "ades": 3428,
    "Ġseek": 3429,
    "Ġstop": 3430,
    "Ġmass": 3431,
    "Ġload": 3432,
    "uel": 3433,
    "Ġcirc": 3434,
    "aves": 3435,
    "Ġaware": 3436,
    "Ġexecut": 3437,
    "ĠAustral": 3438,
    "apan": 3439,
    "Ġguide": 3440,
    "ĠPar": 3441,
    "elling": 3442,
    "erous": 3443,
    "Ġcharge": 3444,
    "Ġattention": 3445,
    "Ġsummer": 3446,
    "ĠDon": 3447,
    "Ġep": 3448,
    "Ġbus": 3449,
    "Ġestate": 3450,
    "ĠTechn": 3451,
    "Ġresponse": 3452,
    "Ġeval": 3453,
    "Ġregion": 3454,
    "Ġdat": 3455,
    "Ġsustain": 3456,
    "Ġregarding": 3457,
    "ĠHome": 3458,
    "irit": 3459,
    "Ġfresh": 3460,
    "Ġsong": 3461,
    "ÑĤ": 3462,
    "aches": 3463,
    "Ġitself": 3464,
    "ĠMc": 3465,
    "sequ": 3466,
    "Ġdepart": 3467,
    "ĠSan": 3468,
    "ĠCOVID": 3469,
    "CO": 3470,
    "range": 3471,
    "Ġsatis": 3472,
    "sy": 3473,
    "Ġcomment": 3474,
    "ĠProf": 3475,
    "Ġgoals": 3476,
    ".)": 3477,
    "chan": 3478,
    "ancing": 3479,
    "Ġacqu": 3480,
    "ĠHer": 3481,
    "eed": 3482,
    "Ġsuccessful": 3483,
    "overn": 3484,
    "Ġthous": 3485,
    "ĠGener": 3486,
    "ags": 3487,
    "Ġinflu": 3488,
    "Ġdise": 3489,
    "ĠGerm": 3490,
    "care": 3491,
    "Ġsituation": 3492,
    "ography": 3493,
    "46": 3494,
    "opt": 3495,
    "Ġdamage": 3496,
    "iff": 3497,
    "Ġrelevant": 3498,
    "Ġscore": 3499,
    "Ġbroad": 3500,
    "ube": 3501,
    "ĠTrans": 3502,
    "riday": 3503,
    "ĠAP": 3504,
    "ĠOF": 3505,
    "ĠCook": 3506,
    "Ġstates": 3507,
    "Ġadjust": 3508,
    "Ġtas": 3509,
    "0000": 3510,
    "mitted": 3511,
    "Ġsqu": 3512,
    "ĠFr": 3513,
    "Ġbutton": 3514,
    "96": 3515,
    "ĠUse": 3516,
    "Ġsil": 3517,
    "Ġtemper": 3518,
    "ague": 3519,
    "Ġvalues": 3520,
    "Ġdog": 3521,
    "ridge": 3522,
    "Ġowners": 3523,
    "31": 3524,
    "Ġseems": 3525,
    "Ġgain": 3526,
    "ĠCanada": 3527,
    "Ġpiece": 3528,
    "Ġcelebr": 3529,
    "Ġextreme": 3530,
    "ica": 3531,
    "ett": 3532,
    "ĠCalifornia": 3533,
    "box": 3534,
    "Ġnature": 3535,
    "Ġfamilies": 3536,
    "Ġmoment": 3537,
    "Ġnearest": 3538,
    "olute": 3539,
    "App": 3540,
    "Ġpred": 3541,
    "ams": 3542,
    "Ġremember": 3543,
    "rack": 3544,
    ")/(-": 3545,
    "Ġappropriate": 3546,
    "Ġplaying": 3547,
    "ĠGet": 3548,
    "Ġinterested": 3549,
    "ĠCoun": 3550,
    "Ġasked": 3551,
    "Ġprotection": 3552,
    "97": 3553,
    "ĠTV": 3554,
    "dom": 3555,
    "Ġdevices": 3556,
    "Ġbehav": 3557,
    "Us": 3558,
    "ĠCour": 3559,
    "imately": 3560,
    "ĠDel": 3561,
    "odes": 3562,
    "itation": 3563,
    "ĠRuss": 3564,
    "Get": 3565,
    "Ġconcept": 3566,
    "Ġaward": 3567,
    "ĠCollege": 3568,
    "Ġinitial": 3569,
    "order": 3570,
    "Im": 3571,
    "Ġcourt": 3572,
    "itect": 3573,
    "Ġbad": 3574,
    "Ġformer": 3575,
    "Ġgift": 3576,
    "Ġadvertising": 3577,
    "ĠBro": 3578,
    "Ġmethods": 3579,
    "Ġsense": 3580,
    "Ġmeasure": 3581,
    "Ġprogress": 3582,
    "ication": 3583,
    "Pl": 3584,
    "Ġlate": 3585,
    "Ġtransport": 3586,
    "oe": 3587,
    "oke": 3588,
    "Ġconvers": 3589,
    "Ġincreasing": 3590,
    "ĠPa": 3591,
    "Ġpaid": 3592,
    "Ġfloor": 3593,
    "Ġextend": 3594,
    "Ġcampaign": 3595,
    "Ġlooks": 3596,
    "Ġpages": 3597,
    "After": 3598,
    "ronic": 3599,
    "Ġaltern": 3600,
    "ruary": 3601,
    "Ġfactor": 3602,
    "Ġcarry": 3603,
    "Ġactive": 3604,
    "tty": 3605,
    "Ġfees": 3606,
    "icip": 3607,
    "Ġrefer": 3608,
    "yond": 3609,
    "Ġmount": 3610,
    "Ġdemand": 3611,
    "ĠChina": 3612,
    "Ġoffered": 3613,
    "ĠData": 3614,
    "dule": 3615,
    "igate": 3616,
    "ĠAmazon": 3617,
    "Ġstarting": 3618,
    "Ġthemselves": 3619,
    "Ġtold": 3620,
    "Ġsubst": 3621,
    "Ġskin": 3622,
    "Ġreflect": 3623,
    "Ġfrequ": 3624,
    "EL": 3625,
    "Ġprec": 3626,
    "Ġwebsites": 3627,
    "ashing": 3628,
    "arily": 3629,
    "Ġhistor": 3630,
    "Ġtal": 3631,
    "AB": 3632,
    "Ġcouple": 3633,
    "omin": 3634,
    "mas": 3635,
    "urb": 3636,
    "Ġdegree": 3637,
    "down": 3638,
    "ceed": 3639,
    "Ġchance": 3640,
    "Ġswe": 3641,
    "Ġsold": 3642,
    "Ġsmart": 3643,
    "Ġincome": 3644,
    "Ġbenefit": 3645,
    "ĠKe": 3646,
    "Ġ2014": 3647,
    "Ġten": 3648,
    "Ġexisting": 3649,
    "ooth": 3650,
    "Ġerror": 3651,
    "Ġnotice": 3652,
    "Ġassociated": 3653,
    "Ġdifference": 3654,
    "ishing": 3655,
    "Ġcontinu": 3656,
    "Ġ@": 3657,
    "undred": 3658,
    "Ġreduce": 3659,
    "Ġpattern": 3660,
    "alt": 3661,
    "ĠRed": 3662,
    "Ġserve": 3663,
    "Ġrev": 3664,
    "Ġgiving": 3665,
    "ret": 3666,
    "ĠEuropean": 3667,
    "Ġbasis": 3668,
    "Ġsam": 3669,
    "ternal": 3670,
    "Ġgold": 3671,
    "force": 3672,
    "Ġstream": 3673,
    "Ġtowards": 3674,
    "Ġrestaur": 3675,
    "reci": 3676,
    "Ġgrowing": 3677,
    "ĠDesign": 3678,
    "85": 3679,
    "istry": 3680,
    "Ġdecl": 3681,
    "arrant": 3682,
    "ourney": 3683,
    "Ġeconomic": 3684,
    "Ġinstitut": 3685,
    "ĠTO": 3686,
    "acity": 3687,
    "ĠDevelop": 3688,
    "âĢ¦]": 3689,
    "Ġcompletely": 3690,
    "Ġhous": 3691,
    "Calculate": 3692,
    "Ġcry": 3693,
    "Ġbackground": 3694,
    "ĠFirst": 3695,
    "ara": 3696,
    "oday": 3697,
    "Ġreported": 3698,
    "Ġbudget": 3699,
    "Ġball": 3700,
    "onus": 3701,
    "Ġvirt": 3702,
    "atically": 3703,
    "Ġcapt": 3704,
    "Ġafford": 3705,
    "Ġbecame": 3706,
    "rial": 3707,
    "Sim": 3708,
    "nded": 3709,
    "IL": 3710,
    "dd": 3711,
    "Ġsecure": 3712,
    "ĠSub": 3713,
    "tics": 3714,
    "Ġgreen": 3715,
    "Ġdiscussion": 3716,
    "nown": 3717,
    "Ġstrategy": 3718,
    "ribute": 3719,
    "ĠFace": 3720,
    "Ġrespond": 3721,
    "ĠBest": 3722,
    "Ġoffering": 3723,
    "house": 3724,
    "Ġteams": 3725,
    "Ġcommunication": 3726,
    "Ġsteps": 3727,
    "/(-": 3728,
    "Ġletters": 3729,
    "iding": 3730,
    "porate": 3731,
    "idential": 3732,
    "ĠBlack": 3733,
    "Ġreleased": 3734,
    "Ð¸": 3735,
    "ĠSim": 3736,
    "Ġholid": 3737,
    "Ġcross": 3738,
    "Ġexplain": 3739,
    "Ġattract": 3740,
    "Ġstress": 3741,
    "enge": 3742,
    "Ġorganizations": 3743,
    "itter": 3744,
    "Ġoverall": 3745,
    "ĠMus": 3746,
    "Ġdry": 3747,
    "ĠSk": 3748,
    "Ġlargest": 3749,
    "Ġrepl": 3750,
    "Ġeasier": 3751,
    "01": 3752,
    "Ġviol": 3753,
    "ham": 3754,
    "ida": 3755,
    "Ġhosp": 3756,
    "Ġnice": 3757,
    "wood": 3758,
    "\".": 3759,
    "Ġparents": 3760,
    "div": 3761,
    "Ġhelping": 3762,
    "Ġtrip": 3763,
    "Ġmag": 3764,
    "Ġappe": 3765,
    "ville": 3766,
    "Ġmodels": 3767,
    "ĠWork": 3768,
    "aling": 3769,
    "ĠAM": 3770,
    "ĊĠĠĠĠĠĠĠĠĠĠĠĠĠĠĠ": 3771,
    "Ġbegan": 3772,
    "Ġexclus": 3773,
    "Ġcasino": 3774,
    "aker": 3775,
    "Ġreviews": 3776,
    "ĠPort": 3777,
    "nding": 3778,
    "Ġorders": 3779,
    "ãģ": 3780,
    "Ġcandid": 3781,
    "Ġsources": 3782,
    "ses": 3783,
    "Ġroll": 3784,
    "Ġculture": 3785,
    "https": 3786,
    "Ġutil": 3787,
    "Ġprivacy": 3788,
    "ocal": 3789,
    "uk": 3790,
    "enty": 3791,
    "Ġhuge": 3792,
    "ondon": 3793,
    "Ġvalid": 3794,
    "ĠJapan": 3795,
    "Ġheat": 3796,
    "hens": 3797,
    "Ġmoving": 3798,
    "cell": 3799,
    "En": 3800,
    "Ġlost": 3801,
    "itely": 3802,
    "Ġ29": 3803,
    "tee": 3804,
    "Ġtick": 3805,
    "Ġaspect": 3806,
    "add": 3807,
    "Ġprofessionals": 3808,
    "Ġnothing": 3809,
    "Ġsetting": 3810,
    "ipe": 3811,
    "eria": 3812,
    "ĠAlso": 3813,
    "Ġtitle": 3814,
    "Ġsports": 3815,
    "more": 3816,
    "inter": 3817,
    "Ġdele": 3818,
    "Ġcomments": 3819,
    "Ġnumbers": 3820,
    "Ġdoor": 3821,
    "ĠFree": 3822,
    "Ġgreater": 3823,
    "Ġ[âĢ¦]": 3824,
    "iation": 3825,
    "Ġproced": 3826,
    "Ġinstruct": 3827,
    "Ġassign": 3828,
    "Ġstra": 3829,
    "Ġclin": 3830,
    "zz": 3831,
    "enior": 3832,
    "Ġfunctional": 3833,
    "ĠDist": 3834,
    "Ġcoverage": 3835,
    "Ġattempt": 3836,
    "Ġmill": 3837,
    "ester": 3838,
    "67": 3839,
    "icies": 3840,
    "ris": 3841,
    "Ġaffili": 3842,
    "ĠAny": 3843,
    "Ġparticularly": 3844,
    "Ġled": 3845,
    "('": 3846,
    "bit": 3847,
    "ocks": 3848,
    "View": 3849,
    "Ġsettings": 3850,
    "Ġconnection": 3851,
    "Ġchallenges": 3852,
    "Ġstories": 3853,
    "Ġexperts": 3854,
    "ĠKing": 3855,
    "Ġden": 3856,
    "hips": 3857,
    "SS": 3858,
    "Ġincreased": 3859,
    "arden": 3860,
    "Ġexpand": 3861,
    "amic": 3862,
    "ĠEduc": 3863,
    "cel": 3864,
    "Ġupdate": 3865,
    "ama": 3866,
    "Ġbiggest": 3867,
    "ĠMod": 3868,
    "Ġstructure": 3869,
    "Ġsn": 3870,
    "Ġjoin": 3871,
    "tenance": 3872,
    "Ġinteresting": 3873,
    "Ġpretty": 3874,
    "Ġ2013": 3875,
    "Ġefficient": 3876,
    "venue": 3877,
    "ĠIns": 3878,
    "Ġphotos": 3879,
    "Do": 3880,
    "Ġhands": 3881,
    "Ġfair": 3882,
    "Ġuseful": 3883,
    "Ġhundred": 3884,
    "Ġtrade": 3885,
    "idth": 3886,
    "Ġparties": 3887,
    "Ġfine": 3888,
    "ĠMr": 3889,
    "Ġcompleted": 3890,
    "âĢĭ": 3891,
    "term": 3892,
    "Ġpartner": 3893,
    "iant": 3894,
    "bon": 3895,
    "ĠAng": 3896,
    "Ġslow": 3897,
    "ĠFebruary": 3898,
    "action": 3899,
    "ĠThen": 3900,
    "Ġgoes": 3901,
    "enses": 3902,
    "ĠAND": 3903,
    "Ġmanage": 3904,
    "ĠIT": 3905,
    "Ġelectric": 3906,
    "Ġappreci": 3907,
    "ĠIndian": 3908,
    "name": 3909,
    "âĢĿ.": 3910,
    "CH": 3911,
    "ĊĠĠĠĠĠĠĠĠĠĠĠĠĠĠĠĠ": 3912,
    "ĠMost": 3913,
    "Ġabsolute": 3914,
    "arc": 3915,
    "rep": 3916,
    "includ": 3917,
    "Ġstatus": 3918,
    "Ġpicked": 3919,
    "Ġ2012": 3920,
    "Ġwarm": 3921,
    "ocol": 3922,
    "Ġconven": 3923,
    "umber": 3924,
    "Ġprocessing": 3925,
    "Ġmonitor": 3926,
    "Ġinterview": 3927,
    "Ġexperienced": 3928,
    "ĠFriday": 3929,
    "Ġstatement": 3930,
    "ĠEvery": 3931,
    "Ġschools": 3932,
    "Ġcat": 3933,
    "Ġhair": 3934,
    "Ġhealthy": 3935,
    "Ġfail": 3936,
    "Ġselection": 3937,
    "Ġrequires": 3938,
    "Ġshown": 3939,
    "Ġneigh": 3940,
    "Ġannounced": 3941,
    "True": 3942,
    "aint": 3943,
    "Ġkitchen": 3944,
    "ĠNews": 3945,
    "ĠBoard": 3946,
    "Ġdetermine": 3947,
    "ĠBrit": 3948,
    "ilitary": 3949,
    "Ġcateg": 3950,
    "Ġattack": 3951,
    "These": 3952,
    "ults": 3953,
    "ĠHar": 3954,
    "useum": 3955,
    "Ġoccur": 3956,
    "Ġappoint": 3957,
    "iment": 3958,
    "43": 3959,
    "Ġlisted": 3960,
    "Ġexerc": 3961,
    "Ġplayer": 3962,
    "Ġcapital": 3963,
    "Ġestablished": 3964,
    "âĢ¢": 3965,
    "encies": 3966,
    "Ġexplore": 3967,
    "ibly": 3968,
    "05": 3969,
    "Ġprimary": 3970,
    "Ġfab": 3971,
    "onday": 3972,
    "rag": 3973,
    "],": 3974,
    "ĠPost": 3975,
    "urning": 3976,
    "ĠWeb": 3977,
    "ruit": 3978,
    "ĠPat": 3979,
    "ĠPlay": 3980,
    "Ġbeyond": 3981,
    "Ġmanufacturer": 3982,
    "Ġ//": 3983,
    "edding": 3984,
    "Ġmeaning": 3985,
    "Ġelements": 3986,
    "Ġstudies": 3987,
    "ĠLa": 3988,
    "Ġcommunities": 3989,
    "Ġprefer": 3990,
    "ĠAssociation": 3991,
    "Ġunit": 3992,
    "Or": 3993,
    "ĠList": 3994,
    "Ġund": 3995,
    "Ġdream": 3996,
    "Ġarriv": 3997,
    "mat": 3998,
    "ecause": 3999,
    "Ġimmediately": 4000,
    "Ġassum": 4001,
    "Ġcollege": 4002,
    "sych": 4003,
    "rench": 4004,
    "Ġoutd": 4005,
    "Ġult": 4006,
    "42": 4007,
    "Ġjourney": 4008,
    "prise": 4009,
    "ĠWhich": 4010,
    "ĠWar": 4011,
    "Ġoperations": 4012,
    "Ġhomes": 4013,
    "Ġship": 4014,
    "Ġopp": 4015,
    "Ġrefund": 4016,
    "class": 4017,
    "IV": 4018,
    "ĠDav": 4019,
    "Ġscience": 4020,
    "Ġaccur": 4021,
    "uration": 4022,
    "issions": 4023,
    "Ġpackage": 4024,
    "Ġexperiences": 4025,
    "Ġgas": 4026,
    "lim": 4027,
    "Ġdedicated": 4028,
    "Ġcompos": 4029,
    "ĠYear": 4030,
    "phone": 4031,
    "andemic": 4032,
    "ĠManagement": 4033,
    "LC": 4034,
    "Name": 4035,
    "Ġbatter": 4036,
    "Ġsort": 4037,
    "ashion": 4038,
    "aby": 4039,
    "IG": 4040,
    "irus": 4041,
    "Qu": 4042,
    "hether": 4043,
    "rought": 4044,
    "Ġdecided": 4045,
    "Ġserious": 4046,
    "Ġdemon": 4047,
    "ĠGovern": 4048,
    "ĠBook": 4049,
    "Ġacad": 4050,
    "met": 4051,
    "Ġshared": 4052,
    "ĠCustom": 4053,
    "Ġsometimes": 4054,
    "ĠMich": 4055,
    "Not": 4056,
    "Ġstage": 4057,
    "Ġannual": 4058,
    "Ġbirth": 4059,
    "unt": 4060,
    "ĠFacebook": 4061,
    "Ġsus": 4062,
    "Ġmid": 4063,
    "Ġserver": 4064,
    "Ġcritical": 4065,
    "Ġrules": 4066,
    "Ġwar": 4067,
    "Ġflex": 4068,
    "Ġmorning": 4069,
    "list": 4070,
    "Ġhour": 4071,
    "Ġmission": 4072,
    "Ġlimit": 4073,
    "Ġsleep": 4074,
    "lin": 4075,
    "ĠGra": 4076,
    "Ġbeginning": 4077,
    "attle": 4078,
    "ĠST": 4079,
    "bu": 4080,
    "Ġexactly": 4081,
    "ĠAnt": 4082,
    "Ġrepair": 4083,
    "abase": 4084,
    "Ġlines": 4085,
    "Ar": 4086,
    "Ġselected": 4087,
    "List": 4088,
    "ĠLondon": 4089,
    "Ġreasons": 4090,
    "uth": 4091,
    "Ġgirl": 4092,
    "ĠEach": 4093,
    "Here": 4094,
    "Ġhit": 4095,
    "gen": 4096,
    "Ġpressure": 4097,
    "Ġopin": 4098,
    "chol": 4099,
    "Ġreports": 4100,
    "used": 4101,
    "CC": 4102,
    "Ġcomfortable": 4103,
    "Ġsurface": 4104,
    "Ġretail": 4105,
    "Ġpatient": 4106,
    "ĊĊĠĠĠ": 4107,
    "ĠPM": 4108,
    "UN": 4109,
    "Ġcategory": 4110,
    "Ġchann": 4111,
    "antly": 4112,
    "home": 4113,
    "rem": 4114,
    "Ġremove": 4115,
    "Ġ31": 4116,
    "Ġproperties": 4117,
    "ĠInternet": 4118,
    "58": 4119,
    "Ġideal": 4120,
    "Ġfee": 4121,
    "Ġsession": 4122,
    "();": 4123,
    "Ġallowed": 4124,
    "inding": 4125,
    "57": 4126,
    "ĠResearch": 4127,
    "unday": 4128,
    "Ġsav": 4129,
    "ĠPlan": 4130,
    "Ġglass": 4131,
    "free": 4132,
    "False": 4133,
    "Ġstri": 4134,
    "Ġproperly": 4135,
    "Ġpolitical": 4136,
    "Ġotherwise": 4137,
    "Ġeffects": 4138,
    "Ġwrong": 4139,
    "Ġbath": 4140,
    "ously": 4141,
    "MS": 4142,
    "Ġpolicies": 4143,
    "ĠBank": 4144,
    "Ġsuppl": 4145,
    "Ġmechan": 4146,
    "soft": 4147,
    "iency": 4148,
    "erved": 4149,
    "ersonal": 4150,
    "talk": 4151,
    "Ġmulti": 4152,
    "Ġimpress": 4153,
    "Ġestablish": 4154,
    "icing": 4155,
    "Ġshop": 4156,
    "56": 4157,
    "Ġefforts": 4158,
    "Ġorigin": 4159,
    "ences": 4160,
    "Ġlength": 4161,
    "Ġpractices": 4162,
    "Ġ2010": 4163,
    "sec": 4164,
    "Ġanim": 4165,
    "Ġstandards": 4166,
    "Ġunits": 4167,
    "Ġsaw": 4168,
    "urrent": 4169,
    "osure": 4170,
    "Ġcontains": 4171,
    "Ġarticles": 4172,
    "rapy": 4173,
    "Ġ>": 4174,
    "pite": 4175,
    "ĠFound": 4176,
    "ocation": 4177,
    "Ġbottom": 4178,
    "aming": 4179,
    "**(-": 4180,
    "Ġformat": 4181,
    "ĠGreat": 4182,
    "Ġ||": 4183,
    "Ġreve": 4184,
    "Ġbrok": 4185,
    "Ġiniti": 4186,
    "plate": 4187,
    "Ġenable": 4188,
    "html": 4189,
    "Ġearl": 4190,
    "Ġsequ": 4191,
    "oices": 4192,
    "iability": 4193,
    "pped": 4194,
    "Ġtips": 4195,
    "Ġeye": 4196,
    "Ġowner": 4197,
    "ils": 4198,
    "Ġcookie": 4199,
    "500": 4200,
    "Ġindependent": 4201,
    "41": 4202,
    "Ġdiscount": 4203,
    "ĠPay": 4204,
    "Ġrock": 4205,
    "Ġcards": 4206,
    "Ġpassion": 4207,
    "ĠOther": 4208,
    "Âł": 4209,
    "Ġscient": 4210,
    "ĠII": 4211,
    "ĠLear": 4212,
    "Ġaw": 4213,
    "Ġweather": 4214,
    "Ġfunctions": 4215,
    "RA": 4216,
    "ifications": 4217,
    "Ġadvance": 4218,
    "Ġcompared": 4219,
    "Ġdigit": 4220,
    "ĠOffice": 4221,
    "plify": 4222,
    "ancy": 4223,
    "Ġfunds": 4224,
    "While": 4225,
    "Ġcru": 4226,
    "orge": 4227,
    "Ġnation": 4228,
    "Ġnormal": 4229,
    "ĠRet": 4230,
    "oul": 4231,
    "standing": 4232,
    "ĠCalculate": 4233,
    "ĠMany": 4234,
    "itors": 4235,
    "edia": 4236,
    "ĠPhil": 4237,
    "ĠCouncil": 4238,
    "Ġspot": 4239,
    "Ġdepos": 4240,
    "haps": 4241,
    "ero": 4242,
    "Ġthinking": 4243,
    "Ġvisitors": 4244,
    "amily": 4245,
    "Ġclub": 4246,
    "abilities": 4247,
    "top": 4248,
    "Ġchanged": 4249,
    "field": 4250,
    "Ġfarm": 4251,
    "Ñģ": 4252,
    "Ġdefinitely": 4253,
    "Ð¾Ð": 4254,
    "Ġestim": 4255,
    "Ġproduce": 4256,
    "Ġgets": 4257,
    "ĊĠĠĠĠĠ": 4258,
    "olf": 4259,
    "Ġhotel": 4260,
    "Ġjud": 4261,
    "ĠID": 4262,
    "ĠBra": 4263,
    "Ġ2011": 4264,
    "ĠCare": 4265,
    "pa": 4266,
    "Ġprovider": 4267,
    "Ġgraph": 4268,
    "net": 4269,
    "lying": 4270,
    "ĠEast": 4271,
    "Ġbillion": 4272,
    "iques": 4273,
    "Ġdrink": 4274,
    "âĢĿ,": 4275,
    "Ġhear": 4276,
    "ĠOnce": 4277,
    "aturday": 4278,
    "Ġmicro": 4279,
    ")?": 4280,
    "ĠCr": 4281,
    "Ġplayed": 4282,
    "state": 4283,
    "Ġspread": 4284,
    "Ġloved": 4285,
    "\\\\": 4286,
    "band": 4287,
    "oos": 4288,
    "iverse": 4289,
    "Ġfurn": 4290,
    "gg": 4291,
    "Ġtechnologies": 4292,
    "Ġcontroll": 4293,
    "Ġtesting": 4294,
    "Ġwarrant": 4295,
    "76": 4296,
    "Ġhor": 4297,
    "pon": 4298,
    "Ġcreative": 4299,
    "Ġpool": 4300,
    "ĠGr": 4301,
    "works": 4302,
    "Ġter": 4303,
    "Ġnames": 4304,
    "ira": 4305,
    "ĠTex": 4306,
    "porary": 4307,
    "From": 4308,
    "Le": 4309,
    "Ġpandemic": 4310,
    "party": 4311,
    "ĠAdd": 4312,
    "Ġtim": 4313,
    "with": 4314,
    "Ġtraffic": 4315,
    "ivil": 4316,
    "OL": 4317,
    "see": 4318,
    "ffee": 4319,
    "Ġphoto": 4320,
    "ĠCle": 4321,
    "Ġfederal": 4322,
    "Ġhttps": 4323,
    "Ġexchange": 4324,
    "Ġcapacity": 4325,
    "Ġincor": 4326,
    "Read": 4327,
    "Ġple": 4328,
    "Ġapart": 4329,
    "Ġcovered": 4330,
    "Ġmother": 4331,
    "Ġactual": 4332,
    "mark": 4333,
    "Ġdoll": 4334,
    "Ġsurround": 4335,
    "Ġbonus": 4336,
    "ĠIS": 4337,
    "Ġoptim": 4338,
    "Bl": 4339,
    "Ġdocuments": 4340,
    "Ġhandle": 4341,
    "Ġarray": 4342,
    "lands": 4343,
    "Ġwww": 4344,
    "ĠBr": 4345,
    "Ġschedule": 4346,
    "Ġextremely": 4347,
    "ĠVis": 4348,
    "Ġplaced": 4349,
    "Ġrecords": 4350,
    "ĠWindows": 4351,
    "Ne": 4352,
    "Ġpros": 4353,
    "Ġsmaller": 4354,
    "kend": 4355,
    "Ġviews": 4356,
    "itiz": 4357,
    "ĠEducation": 4358,
    "Ġ198": 4359,
    "ĠStreet": 4360,
    "acing": 4361,
    "Ġwear": 4362,
    "oly": 4363,
    "PA": 4364,
    "ĠChristmas": 4365,
    "ĠRem": 4366,
    "Ġtried": 4367,
    "Ġforms": 4368,
    "2022": 4369,
    "anging": 4370,
    "Ġsy": 4371,
    "px": 4372,
    "Ġpowerful": 4373,
    "pective": 4374,
    "Ġfill": 4375,
    "bum": 4376,
    "Ġdouble": 4377,
    "ĠSpe": 4378,
    "Ġlack": 4379,
    "Ġcolors": 4380,
    "Ġdisease": 4381,
    "ĠClass": 4382,
    "atively": 4383,
    "ĠTerm": 4384,
    "ios": 4385,
    "Ġshopping": 4386,
    "94": 4387,
    "Ġprocesses": 4388,
    "Ġsty": 4389,
    "ror": 4390,
    "ico": 4391,
    "Ġtransl": 4392,
    "Why": 4393,
    "Ġserved": 4394,
    "Ġwindow": 4395,
    "ĠFlor": 4396,
    "Ġspent": 4397,
    "Ġupdated": 4398,
    "Ġadvanced": 4399,
    "Ġhelped": 4400,
    "ĠDirector": 4401,
    "Ġadvantage": 4402,
    "Ġwait": 4403,
    "ĠRec": 4404,
    "ĠInter": 4405,
    "gage": 4406,
    "Ġcertainly": 4407,
    "Ġthousands": 4408,
    "Ġpet": 4409,
    "orial": 4410,
    "Ġmaintenance": 4411,
    "ĠBel": 4412,
    "ĠAS": 4413,
    "Ġtruly": 4414,
    "mm": 4415,
    "Ġpicture": 4416,
    "uality": 4417,
    "Ġclasses": 4418,
    "fit": 4419,
    "icon": 4420,
    "Ġing": 4421,
    "Ġdeveloping": 4422,
    "DI": 4423,
    "Ġliter": 4424,
    "http": 4425,
    "ĠProduct": 4426,
    "DA": 4427,
    "imin": 4428,
    "Ġgenerally": 4429,
    "ÑĢ": 4430,
    "ament": 4431,
    "Ġfinish": 4432,
    "Ġdecor": 4433,
    "ĠOpen": 4434,
    "td": 4435,
    "ĠPrivacy": 4436,
    "Ġlarger": 4437,
    "Ġcraft": 4438,
    "Ġpow": 4439,
    "Ġnamed": 4440,
    "ĠRE": 4441,
    "Ġjobs": 4442,
    "ĠReview": 4443,
    "93": 4444,
    "Ġsuff": 4445,
    "rehens": 4446,
    "Ġvary": 4447,
    "ashington": 4448,
    "oto": 4449,
    "eds": 4450,
    "Ġnut": 4451,
    "Ġpieces": 4452,
    "Ġwonderful": 4453,
    "Ġblood": 4454,
    "Ġemot": 4455,
    "Ġspirit": 4456,
    "ĠDevelopment": 4457,
    "Ġfa": 4458,
    "Ġdrug": 4459,
    "itude": 4460,
    "Ġarchitect": 4461,
    "ATION": 4462,
    "Ġconfig": 4463,
    "AG": 4464,
    "Ġ35": 4465,
    "ĠSince": 4466,
    "ĠPublic": 4467,
    "Ġsector": 4468,
    "ĠGold": 4469,
    "oles": 4470,
    "Ġsem": 4471,
    "ĠGeneral": 4472,
    "oyal": 4473,
    "Ġworkers": 4474,
    "agram": 4475,
    "que": 4476,
    "Ġmer": 4477,
    "ny": 4478,
    "ĠOR": 4479,
    "unte": 4480,
    "Ġnearly": 4481,
    "Ð½": 4482,
    "TH": 4483,
    "Ġcontext": 4484,
    "urt": 4485,
    "Ġgrant": 4486,
    "ald": 4487,
    "ĠSee": 4488,
    "Ġguarantee": 4489,
    "ĠMicro": 4490,
    "Ġdark": 4491,
    "ructure": 4492,
    "Sp": 4493,
    "ĠOnline": 4494,
    "Ġreliable": 4495,
    "Ġgar": 4496,
    "Ġdiscover": 4497,
    "Ġbrought": 4498,
    "Ġproduced": 4499,
    "iced": 4500,
    ")*(": 4501,
    "Ġcalcul": 4502,
    "Ġvideos": 4503,
    "Ġpen": 4504,
    "body": 4505,
    "inner": 4506,
    "resp": 4507,
    "ervation": 4508,
    "08": 4509,
    "Ġoccas": 4510,
    "Ġintended": 4511,
    "OW": 4512,
    "ĠMonday": 4513,
    "ĠCheck": 4514,
    "Ġinstallation": 4515,
    "requ": 4516,
    "ĠMem": 4517,
    "ĠEven": 4518,
    "ĠMet": 4519,
    "orrow": 4520,
    "Ġspecifically": 4521,
    "Ġapprox": 4522,
    "ĠHot": 4523,
    "Ġevidence": 4524,
    "ĠArch": 4525,
    "Ġexhib": 4526,
    "Ġclosed": 4527,
    "Ġdead": 4528,
    "ĠTime": 4529,
    "Ġassistance": 4530,
    "Ġri": 4531,
    "apter": 4532,
    "ĠInstitute": 4533,
    "ĠAv": 4534,
    "ĠGreen": 4535,
    "Ġble": 4536,
    "iture": 4537,
    "Ġautomatically": 4538,
    "Ġfight": 4539,
    "isl": 4540,
    "Ġproviders": 4541,
    "ĠTexas": 4542,
    "Ġchallenge": 4543,
    "Ġadding": 4544,
    "ĠPC": 4545,
    "Ġstrength": 4546,
    "Ġvot": 4547,
    "pm": 4548,
    "rupt": 4549,
    "Ġbuying": 4550,
    "ĠSunday": 4551,
    "Ind": 4552,
    "Ġdriving": 4553,
    "Ġoperating": 4554,
    "Ġhelpful": 4555,
    "arge": 4556,
    "Ġbelie": 4557,
    "aled": 4558,
    "Ġsharing": 4559,
    "Ġinput": 4560,
    "Ġgreatest": 4561,
    "pload": 4562,
    "unk": 4563,
    "Ġdemonstr": 4564,
    "mp": 4565,
    "BC": 4566,
    "Ġ2008": 4567,
    "Ġtrain": 4568,
    "ranch": 4569,
    "Ġband": 4570,
    "eters": 4571,
    "ups": 4572,
    "dem": 4573,
    "ref": 4574,
    "Ġstraight": 4575,
    "Ġreturned": 4576,
    "Ġpopulation": 4577,
    "ordin": 4578,
    "Ġpresented": 4579,
    "ĠGo": 4580,
    "Ġ80": 4581,
    "Ġagreement": 4582,
    "Ġevalu": 4583,
    "Ġcloud": 4584,
    "oop": 4585,
    "irection": 4586,
    "ellig": 4587,
    "::": 4588,
    "Ġmis": 4589,
    "Ġ90": 4590,
    "Ġminimum": 4591,
    "Ġtemperature": 4592,
    "ivered": 4593,
    "akers": 4594,
    "Ġfeet": 4595,
    "bol": 4596,
    "gal": 4597,
    "print": 4598,
    "Ġincred": 4599,
    "ĠMac": 4600,
    "asc": 4601,
    "overy": 4602,
    "Ġtask": 4603,
    "Ġentertain": 4604,
    "ications": 4605,
    "Ġcore": 4606,
    "Ġcourses": 4607,
    "Ġlaunch": 4608,
    "Ġchem": 4609,
    "Ġblue": 4610,
    "Ġdefe": 4611,
    "SE": 4612,
    "wp": 4613,
    "ĠSuper": 4614,
    "oving": 4615,
    "Ġfabric": 4616,
    "Ġimag": 4617,
    "Ġremainder": 4618,
    "Ġaccurate": 4619,
    "Ġfacilities": 4620,
    "Can": 4621,
    "public": 4622,
    "Ġmaximum": 4623,
    "Ġaudience": 4624,
    "Ġteaching": 4625,
    "ĠWord": 4626,
    "Ġahead": 4627,
    "><": 4628,
    "ĠCourt": 4629,
    "ĠJo": 4630,
    "ĠProject": 4631,
    "Ġbalance": 4632,
    "ĠBen": 4633,
    "Ġtherefore": 4634,
    "Ġexception": 4635,
    "ula": 4636,
    "Ste": 4637,
    "Ġ</": 4638,
    "look": 4639,
    "Ġreturns": 4640,
    "Ġresponsibility": 4641,
    "Ġgave": 4642,
    "Ġthank": 4643,
    "ĠLife": 4644,
    "Ġplus": 4645,
    "ðŁ": 4646,
    "Ġmaster": 4647,
    "anc": 4648,
    "Ġdecisions": 4649,
    "59": 4650,
    "Ġvict": 4651,
    "Now": 4652,
    "Ġfinding": 4653,
    "Ġvisual": 4654,
    "Ġ2009": 4655,
    "CE": 4656,
    "aught": 4657,
    "Ġregistered": 4658,
    "Ġelig": 4659,
    "yer": 4660,
    "orney": 4661,
    "Ġmotor": 4662,
    "Ġmort": 4663,
    "Ġsolid": 4664,
    "Ġdepending": 4665,
    "Ġdrop": 4666,
    "ĠSing": 4667,
    "Ġpaint": 4668,
    "Ġearlier": 4669,
    "Ġstrategies": 4670,
    "07": 4671,
    "craft": 4672,
    "Acc": 4673,
    "Ġvision": 4674,
    "Ġclimate": 4675,
    "Ġwind": 4676,
    "OM": 4677,
    "elines": 4678,
    "Ġalone": 4679,
    "04": 4680,
    "ael": 4681,
    "Ġwild": 4682,
    "iling": 4683,
    "rief": 4684,
    "Ġdetail": 4685,
    "Ġrank": 4686,
    "het": 4687,
    "Ġquarter": 4688,
    "Ġjournal": 4689,
    "Ġstring": 4690,
    "asy": 4691,
    "Ġpull": 4692,
    "ĠFrench": 4693,
    "roud": 4694,
    "ĠUSA": 4695,
    "Ġmyself": 4696,
    "ĠEngine": 4697,
    "ĠAustralia": 4698,
    "Ġbra": 4699,
    "Ġelement": 4700,
    "known": 4701,
    "Ġconnected": 4702,
    "ĠSa": 4703,
    "Ġdress": 4704,
    "Ġlots": 4705,
    "Ġupdates": 4706,
    "Ġvariable": 4707,
    "Ġmentioned": 4708,
    "Ġwelcome": 4709,
    "semb": 4710,
    "Ġlaws": 4711,
    "Ġnumerous": 4712,
    "Ġoutput": 4713,
    "ĠThanks": 4714,
    "ML": 4715,
    "Ġfeeling": 4716,
    "ĠSite": 4717,
    "ĠWashington": 4718,
    "ĠHist": 4719,
    "Ġcleaning": 4720,
    "Ġrace": 4721,
    "Ġchanging": 4722,
    "ĠPower": 4723,
    "Int": 4724,
    "Ġmeasures": 4725,
    "Ġresidents": 4726,
    "verse": 4727,
    "Ġsmooth": 4728,
    "ĠDem": 4729,
    "Ġoperation": 4730,
    "Ġbrands": 4731,
    "ĠLink": 4732,
    "rie": 4733,
    "ĠMake": 4734,
    "69": 4735,
    "Ġprepar": 4736,
    "hent": 4737,
    "Ġdecre": 4738,
    "ĠSaturday": 4739,
    "Ġcommitted": 4740,
    "ago": 4741,
    "Ġprotected": 4742,
    "Ġmap": 4743,
    "Ġposts": 4744,
    "Ġthreat": 4745,
    "Pr": 4746,
    "Ġpolice": 4747,
    "ota": 4748,
    "Warning": 4749,
    "rene": 4750,
    "Ġcomprehens": 4751,
    "Ġmarkets": 4752,
    "Ġdiscl": 4753,
    "ĠHel": 4754,
    "ĠCommission": 4755,
    "Ġvill": 4756,
    "Ġ\\": 4757,
    "Ġseparate": 4758,
    "ĠGood": 4759,
    "ustr": 4760,
    "AA": 4761,
    "icine": 4762,
    "ĠSl": 4763,
    "79": 4764,
    "54": 4765,
    "Ġid": 4766,
    "bsite": 4767,
    "Ġdyn": 4768,
    "quality": 4769,
    "Ġfocused": 4770,
    "Ġopening": 4771,
    "Ġapplied": 4772,
    "Ġtypically": 4773,
    "Ġquant": 4774,
    "Ġlocations": 4775,
    "02": 4776,
    "Id": 4777,
    "Ġapplicable": 4778,
    "Ġroof": 4779,
    "Solve": 4780,
    "Ġwedding": 4781,
    "Ġcamera": 4782,
    "Ġpeace": 4783,
    "ursday": 4784,
    "ĠScience": 4785,
    "Ġborn": 4786,
    "Ġrelax": 4787,
    "Ġforce": 4788,
    "Ġrat": 4789,
    "Ġentry": 4790,
    "Ġleadership": 4791,
    "Ġcalls": 4792,
    "Ġagency": 4793,
    "Ġthanks": 4794,
    "Ġdep": 4795,
    "Ġmemory": 4796,
    "ednes": 4797,
    "ĠIP": 4798,
    "Ġresist": 4799,
    "ĠSolve": 4800,
    "Ġconfirm": 4801,
    "Ġadapt": 4802,
    "Ġdriver": 4803,
    "Ġwhose": 4804,
    "ĠFore": 4805,
    "Ĥ¬": 4806,
    "Ġharm": 4807,
    "Ġenhance": 4808,
    "isation": 4809,
    "abled": 4810,
    "Ġshape": 4811,
    "ĠHall": 4812,
    "ĠProv": 4813,
    "ona": 4814,
    "IF": 4815,
    "clusion": 4816,
    "comp": 4817,
    "Ġseven": 4818,
    "Ġleader": 4819,
    "ĠGive": 4820,
    "ounds": 4821,
    "reed": 4822,
    "othing": 4823,
    "ception": 4824,
    "Ġcentury": 4825,
    "Ġdelivered": 4826,
    "ĠFlorida": 4827,
    "Ġson": 4828,
    "Ġplants": 4829,
    "sk": 4830,
    "etic": 4831,
    "Ġfollowed": 4832,
    "ĠClub": 4833,
    "ned": 4834,
    "this": 4835,
    "mar": 4836,
    "Ġreference": 4837,
    "ĠReal": 4838,
    "Ġdro": 4839,
    "03": 4840,
    "uesday": 4841,
    "ĠFind": 4842,
    "Ġmoved": 4843,
    "Ġdatabase": 4844,
    "essions": 4845,
    "06": 4846,
    "Ġboo": 4847,
    "Pre": 4848,
    "ĠJe": 4849,
    "Ġexpertise": 4850,
    "Ġstrug": 4851,
    "Ġguests": 4852,
    "point": 4853,
    "Ġtruck": 4854,
    "Ġeconomy": 4855,
    "Ġvirtual": 4856,
    "ems": 4857,
    "Ġlock": 4858,
    "yd": 4859,
    "ifying": 4860,
    "Ġletter": 4861,
    "atever": 4862,
    "Ġvacc": 4863,
    "Ġmilitary": 4864,
    "Ġfriendly": 4865,
    "emy": 4866,
    "fol": 4867,
    "going": 4868,
    "oms": 4869,
    "DF": 4870,
    "ying": 4871,
    "Ġsurv": 4872,
    "apers": 4873,
    "Sc": 4874,
    "Ġrepe": 4875,
    "inese": 4876,
    "ado": 4877,
    "ĠMor": 4878,
    "Ġremote": 4879,
    "ooper": 4880,
    "ĠPal": 4881,
    "Ġabsolutely": 4882,
    "Ġdescribed": 4883,
    "Ġacademic": 4884,
    "That": 4885,
    "Ġparam": 4886,
    "Ġrecommended": 4887,
    "ĠCommunity": 4888,
    "Ġdetailed": 4889,
    "ĠSocial": 4890,
    "Over": 4891,
    "Ġcombination": 4892,
    "ĠCap": 4893,
    "Ġtechniques": 4894,
    "icious": 4895,
    "ĠSum": 4896,
    "Ġrob": 4897,
    "ampions": 4898,
    "ĠProfess": 4899,
    "igital": 4900,
    "Ġholiday": 4901,
    "ĠWhite": 4902,
    "imb": 4903,
    "Ġfelt": 4904,
    "ocr": 4905,
    "Ġscale": 4906,
    "Ġrecip": 4907,
    "Ġsched": 4908,
    "ĠWater": 4909,
    "ened": 4910,
    "Ġprofile": 4911,
    "Che": 4912,
    "yp": 4913,
    "rees": 4914,
    "Dis": 4915,
    "ĠBritish": 4916,
    "Ġmenu": 4917,
    "ĠApple": 4918,
    "Which": 4919,
    "Ġdirector": 4920,
    "Ġmiddle": 4921,
    "Ġcentral": 4922,
    "men": 4923,
    "ĠYO": 4924,
    "Ġcold": 4925,
    "ĠAfrica": 4926,
    "ga": 4927,
    "friend": 4928,
    "Ġrelationships": 4929,
    "Some": 4930,
    "Ġstation": 4931,
    "ĠRiver": 4932,
    "Ġfashion": 4933,
    "Ġheavy": 4934,
    "Ġlicense": 4935,
    "Ġconsumers": 4936,
    "Ġmovement": 4937,
    "Ġcomponents": 4938,
    "Ġscen": 4939,
    "ednesday": 4940,
    "iences": 4941,
    "ĠSur": 4942,
    "Ġfunding": 4943,
    "iny": 4944,
    "Ġalbum": 4945,
    "oves": 4946,
    "Ġcolumn": 4947,
    "72": 4948,
    "Ġsatisf": 4949,
    "iber": 4950,
    "ĠFoundation": 4951,
    "ij": 4952,
    "Ġupgra": 4953,
    "rote": 4954,
    "tra": 4955,
    "Ġselling": 4956,
    "'d": 4957,
    "but": 4958,
    "ston": 4959,
    "Ġtransform": 4960,
    "Ġgoods": 4961,
    "Ġstick": 4962,
    "Ġinstalled": 4963,
    "Phone": 4964,
    "ĠChurch": 4965,
    "Ġgrand": 4966,
    "Ġresource": 4967,
    "sub": 4968,
    "91": 4969,
    "ĠTop": 4970,
    "Ġplug": 4971,
    "*(": 4972,
    "ĠRel": 4973,
    "Ġcontinued": 4974,
    "yth": 4975,
    "Ġprepared": 4976,
    "Ġkeeping": 4977,
    "estival": 4978,
    "ship": 4979,
    "Ġvehicles": 4980,
    "Ġencourage": 4981,
    "enture": 4982,
    "ĠMag": 4983,
    "Ġsole": 4984,
    "Ġbehavior": 4985,
    "53": 4986,
    "Ġsitu": 4987,
    "BA": 4988,
    "ĠChar": 4989,
    "za": 4990,
    "\")": 4991,
    "Ġmail": 4992,
    "related": 4993,
    "Sub": 4994,
    "uable": 4995,
    "Ġcharges": 4996,
    "Ġtopics": 4997,
    "ctors": 4998,
    "Ġpayments": 4999,
    "ĠProt": 5000,
    "Are": 5001,
    "ĠNOT": 5002,
    "Simplify": 5003,
    "Ġdiagn": 5004,
    "Ġnavigate": 5005,
    "Ġwinter": 5006,
    "Ġinfo": 5007,
    "First": 5008,
    "Ġpictures": 5009,
    "Ġaffordable": 5010,
    "ĠThank": 5011,
    "Ġsteel": 5012,
    "Ġaccommod": 5013,
    "Ġfields": 5014,
    "92": 5015,
    "Ġslight": 5016,
    "Ġloans": 5017,
    "Ġassets": 5018,
    "Ġmental": 5019,
    "Ġdecide": 5020,
    "].": 5021,
    "Ġcred": 5022,
    "ĠWell": 5023,
    "Ġanalyze": 5024,
    "ĠTeam": 5025,
    "Ġchurch": 5026,
    "Ġkn": 5027,
    "Ġartist": 5028,
    "Any": 5029,
    "ĠJes": 5030,
    "Ġeducational": 5031,
    "Ġwants": 5032,
    "fficient": 5033,
    "Ġapproved": 5034,
    "Ġeight": 5035,
    "Ġlik": 5036,
    "Ġcoffee": 5037,
    "Ġimpl": 5038,
    "rastructure": 5039,
    "Ġarrange": 5040,
    "Ġfacility": 5041,
    "Ġmetal": 5042,
    "Ġtree": 5043,
    "iler": 5044,
    "hol": 5045,
    "Ġingred": 5046,
    "eline": 5047,
    "Ġcontinues": 5048,
    "ownload": 5049,
    "Ġlaun": 5050,
    "Ġfold": 5051,
    "Ġmiles": 5052,
    "Ġalthough": 5053,
    "Ġfinished": 5054,
    "Ġfinally": 5055,
    "->": 5056,
    "Ġrestrict": 5057,
    "73": 5058,
    "Ġadvis": 5059,
    "ĠFran": 5060,
    "Ġdefault": 5061,
    "63": 5062,
    "Bu": 5063,
    "flow": 5064,
    "IR": 5065,
    "ĠDec": 5066,
    "Ġtrading": 5067,
    "Ġclaims": 5068,
    "Ġinstance": 5069,
    "Ġconcerns": 5070,
    "Ġfant": 5071,
    "Ġdesigns": 5072,
    "Ġenvironmental": 5073,
    "Ġweekend": 5074,
    "Ġpsych": 5075,
    "ĠÂ£": 5076,
    "Ġproud": 5077,
    "Privacy": 5078,
    ".<": 5079,
    "ĠChild": 5080,
    "Ġhop": 5081,
    "Ġstar": 5082,
    "Ġcompar": 5083,
    "usher": 5084,
    "Ġcompetition": 5085,
    "ĠUp": 5086,
    "ditionally": 5087,
    "Me": 5088,
    "ĠExper": 5089,
    "Fe": 5090,
    "Man": 5091,
    "anges": 5092,
    "Ġfeedback": 5093,
    "Ġbill": 5094,
    "ĠStand": 5095,
    "Yes": 5096,
    "Ġsuitable": 5097,
    "Ġ2007": 5098,
    "Ġfans": 5099,
    "Ġdoub": 5100,
    "Ġunless": 5101,
    "Ġactions": 5102,
    "Ġinnovative": 5103,
    "52": 5104,
    "Ġaren": 5105,
    "Ġcommand": 5106,
    "Ġbur": 5107,
    "Ġolder": 5108,
    "Ġtele": 5109,
    "ework": 5110,
    "âĦ": 5111,
    "TS": 5112,
    "Ġtopic": 5113,
    "ĠRepublic": 5114,
    "zy": 5115,
    "osing": 5116,
    "Ġsupported": 5117,
    "ros": 5118,
    "Ġpreferences": 5119,
    "Ġheard": 5120,
    "aughter": 5121,
    "ushing": 5122,
    "Ġlandsc": 5123,
    "\\\"": 5124,
    "Ġvoice": 5125,
    "ĠAnn": 5126,
    "rooms": 5127,
    "Ġmanufacturing": 5128,
    "ache": 5129,
    "Ġforeign": 5130,
    "ĠBay": 5131,
    "ĠDistrict": 5132,
    "Ġfather": 5133,
    "Ġ48": 5134,
    "rency": 5135,
    "Ġaccounts": 5136,
    "Ġmanager": 5137,
    "Ġturned": 5138,
    "ĠSpecial": 5139,
    "Ġmovie": 5140,
    "Ġpassed": 5141,
    "Ġcab": 5142,
    "Ġpremium": 5143,
    "ifts": 5144,
    "Ġeyes": 5145,
    "vention": 5146,
    "Ġcris": 5147,
    "They": 5148,
    "NA": 5149,
    "Ġemp": 5150,
    "51": 5151,
    "Ġartists": 5152,
    "Ġemployee": 5153,
    "Ġremains": 5154,
    "Ġsand": 5155,
    ")).": 5156,
    "Ġdirection": 5157,
    "Ġalternative": 5158,
    "Ġstores": 5159,
    "ĠWilliam": 5160,
    "Ġrich": 5161,
    "Ġsaying": 5162,
    "anta": 5163,
    "Ġfamous": 5164,
    "Ġbag": 5165,
    "Ġwat": 5166,
    "ĠJack": 5167,
    "uman": 5168,
    "unately": 5169,
    "MP": 5170,
    "ĠMain": 5171,
    "reak": 5172,
    "74": 5173,
    "****": 5174,
    "ĠOb": 5175,
    "vin": 5176,
    "Ġcircum": 5177,
    "iers": 5178,
    "Ġeth": 5179,
    "Ġcast": 5180,
    "Ġeditor": 5181,
    "actions": 5182,
    "Ġpreviously": 5183,
    "la": 5184,
    "Ġlux": 5185,
    "Ġbrings": 5186,
    "Ġbeauty": 5187,
    "Ġachie": 5188,
    "ĠCommit": 5189,
    "Ġcells": 5190,
    "Ġcomprehensive": 5191,
    "Ġsex": 5192,
    "Ġexercise": 5193,
    "Ġbul": 5194,
    "Ġmagn": 5195,
    "Ġinstru": 5196,
    "Ġmonthly": 5197,
    "Ġframe": 5198,
    "Ġcharacters": 5199,
    "umin": 5200,
    "Ġbattery": 5201,
    "Data": 5202,
    "asure": 5203,
    "crete": 5204,
    "Ġavailability": 5205,
    "shop": 5206,
    "Ġhttp": 5207,
    "oma": 5208,
    "Add": 5209,
    "Ġbeg": 5210,
    "ĠMal": 5211,
    "ĠRoad": 5212,
    "amin": 5213,
    "pid": 5214,
    "Ġ70": 5215,
    "Ġcaused": 5216,
    "Ġconstruct": 5217,
    "Ġdepartment": 5218,
    "ya": 5219,
    "cholars": 5220,
    "ervice": 5221,
    "ishes": 5222,
    "Ġfootball": 5223,
    "spe": 5224,
    "hi": 5225,
    "Ġtrou": 5226,
    "ĠLead": 5227,
    "Ġswitch": 5228,
    "ented": 5229,
    "rical": 5230,
    "Ġapps": 5231,
    "rd": 5232,
    "ka": 5233,
    "Ġelectronic": 5234,
    "Ġstuff": 5235,
    "Ġvolunte": 5236,
    "gment": 5237,
    "Ġregister": 5238,
    "fo": 5239,
    "rig": 5240,
    "Ġlibrary": 5241,
    "Ġlicens": 5242,
    "Ġbecoming": 5243,
    "ÂŃ": 5244,
    "vere": 5245,
    "ĠEv": 5246,
    "Ġfigure": 5247,
    "road": 5248,
    "Ġpromote": 5249,
    "ĠElect": 5250,
    "ĠMedia": 5251,
    "Ġallowing": 5252,
    "Ġunc": 5253,
    "Ġdistance": 5254,
    "Ġparticipants": 5255,
    "ĠBet": 5256,
    "Ġimportance": 5257,
    "Ġcounter": 5258,
    "Ġshoot": 5259,
    "OC": 5260,
    "quest": 5261,
    "ĠTerms": 5262,
    "no": 5263,
    "Ġdut": 5264,
    "Ġoutdoor": 5265,
    "Ġ45": 5266,
    "inct": 5267,
    "Val": 5268,
    "Ġclassic": 5269,
    "Ġfunctionalities": 5270,
    "ĠClick": 5271,
    "Ġsociety": 5272,
    "SP": 5273,
    "ĠMount": 5274,
    "log": 5275,
    "Ġsubmit": 5276,
    "ayer": 5277,
    "Ġaspects": 5278,
    "Ġpresident": 5279,
    "09": 5280,
    "ĠCamp": 5281,
    "ĠLake": 5282,
    "ĠName": 5283,
    "Don": 5284,
    "Ġexpensive": 5285,
    "Ġposted": 5286,
    "Ġads": 5287,
    "onds": 5288,
    "Ġconference": 5289,
    "Ġmode": 5290,
    "ribe": 5291,
    "lig": 5292,
    "ĠSal": 5293,
    "âĦ¢": 5294,
    "amm": 5295,
    "Ġsurvey": 5296,
    "Ġroot": 5297,
    "nel": 5298,
    "ĠBuild": 5299,
    "Ġnovel": 5300,
    "estic": 5301,
    "Ġbaby": 5302,
    "ĠToday": 5303,
    "Ġfra": 5304,
    "uries": 5305,
    "ĠAlthough": 5306,
    "Ġmedium": 5307,
    "ĠGovernment": 5308,
    "Ġbright": 5309,
    "Ġpanel": 5310,
    "unning": 5311,
    "ĠSecurity": 5312,
    "Ġbrowsing": 5313,
    "Ġinternal": 5314,
    "jag": 5315,
    "ĠAcad": 5316,
    "Ġexcept": 5317,
    "Ġwrote": 5318,
    "Ġnor": 5319,
    "Ġrooms": 5320,
    "Ġcancer": 5321,
    "Ġcars": 5322,
    "ĠON": 5323,
    "CL": 5324,
    "life": 5325,
    "Ġwife": 5326,
    "uled": 5327,
    "Ġflu": 5328,
    "base": 5329,
    "Ġrelig": 5330,
    "Ġcrypt": 5331,
    "ĠIsland": 5332,
    "Ġplenty": 5333,
    "ĠDan": 5334,
    "ĠInvest": 5335,
    "ĠDavid": 5336,
    "content": 5337,
    "ĠCode": 5338,
    "Ġserving": 5339,
    "outhern": 5340,
    "Ġpresence": 5341,
    "ideo": 5342,
    "Ġcollected": 5343,
    "Ġcorporate": 5344,
    "Ġthus": 5345,
    "Ġspring": 5346,
    "Find": 5347,
    "Ġdu": 5348,
    "Ġcities": 5349,
    "Ġeat": 5350,
    "ician": 5351,
    "Ġpurchased": 5352,
    "Ġseeing": 5353,
    "ilk": 5354,
    "ĠChinese": 5355,
    "Ġlearned": 5356,
    "86": 5357,
    "ĠSch": 5358,
    "Ġbecomes": 5359,
    "azine": 5360,
    "________": 5361,
    "However": 5362,
    "Ġcitiz": 5363,
    "Ġconsumer": 5364,
    "ĠTechnology": 5365,
    "Ġdistribution": 5366,
    "ĠPeople": 5367,
    "ĠStr": 5368,
    "Ġgarden": 5369,
    "Ġtheme": 5370,
    "Ġworry": 5371,
    "Ġemergency": 5372,
    "obe": 5373,
    "Ġclicking": 5374,
    "ĠAngel": 5375,
    "oration": 5376,
    "data": 5377,
    "Ġopened": 5378,
    "ĠContin": 5379,
    "Ġinstructions": 5380,
    "Ġsweet": 5381,
    "Ġhospital": 5382,
    "Ġfaith": 5383,
    "Ġplatforms": 5384,
    "ĠCall": 5385,
    "lication": 5386,
    "ounder": 5387,
    "Ġvari": 5388,
    "ĠLLC": 5389,
    "More": 5390,
    "oors": 5391,
    "Ġmajority": 5392,
    "Ġwine": 5393,
    "Ġwaste": 5394,
    "Ġefficiency": 5395,
    "pan": 5396,
    "adian": 5397,
    "Ġ32": 5398,
    "Ġinjury": 5399,
    "Ġbreat": 5400,
    "irgin": 5401,
    "Ġchart": 5402,
    "Ġepis": 5403,
    "Ġvolume": 5404,
    "rab": 5405,
    "dis": 5406,
    "letter": 5407,
    "ario": 5408,
    "Ġinterests": 5409,
    "ius": 5410,
    "Ġgeneration": 5411,
    "icians": 5412,
    "ĠCentral": 5413,
    "Ġspending": 5414,
    "ows": 5415,
    "ĠBlue": 5416,
    "ibilities": 5417,
    "Tra": 5418,
    "Ġhealthcare": 5419,
    "ensions": 5420,
    "reprene": 5421,
    "Ġteachers": 5422,
    "ĠMary": 5423,
    "Ġnotes": 5424,
    "Ġcommunications": 5425,
    "Ġprepare": 5426,
    "ĠVe": 5427,
    "Ġwoman": 5428,
    "allery": 5429,
    "ĠSam": 5430,
    "ĠCong": 5431,
    "Ġregistration": 5432,
    "Ġdomain": 5433,
    "ĠAtt": 5434,
    "ffect": 5435,
    "rey": 5436,
    "owl": 5437,
    "ĠUnder": 5438,
    "Ġindex": 5439,
    "Ġbrain": 5440,
    "pping": 5441,
    "Ġexciting": 5442,
    "Ġsenior": 5443,
    "ulture": 5444,
    "ĠUN": 5445,
    "ĠBecause": 5446,
    "Ġtasks": 5447,
    "arks": 5448,
    "ulated": 5449,
    "ĠEngland": 5450,
    "Ġperformed": 5451,
    "Ġdura": 5452,
    "rs": 5453,
    "ĠAndroid": 5454,
    "ĠLim": 5455,
    "ĠThursday": 5456,
    "Ġlabor": 5457,
    "ae": 5458,
    "Ġcolle": 5459,
    "west": 5460,
    "ĠFire": 5461,
    "eries": 5462,
    "Ġhappens": 5463,
    "Ġruns": 5464,
    "Ġproceed": 5465,
    "Ġsquare": 5466,
    "Ġexcited": 5467,
    "Ġir": 5468,
    "oosing": 5469,
    "Ġrevenue": 5470,
    "Ġmessages": 5471,
    "Ġsqrt": 5472,
    "fast": 5473,
    "arian": 5474,
    "idden": 5475,
    "84": 5476,
    "iliar": 5477,
    "Ġmanner": 5478,
    "Ġsets": 5479,
    "merce": 5480,
    "ĠCert": 5481,
    "ĠFund": 5482,
    "Ġ)": 5483,
    "BS": 5484,
    "win": 5485,
    "Ġappears": 5486,
    "gl": 5487,
    "ĠJesus": 5488,
    "Ġproposed": 5489,
    "Ġaccident": 5490,
    "Ġcombined": 5491,
    "Ġboy": 5492,
    "ĠPaul": 5493,
    "pack": 5494,
    "essage": 5495,
    "ĠDuring": 5496,
    "Ġinvestors": 5497,
    "ĠLou": 5498,
    "Ġclinical": 5499,
    "ĠMat": 5500,
    "otal": 5501,
    "Ġdesk": 5502,
    "ĠâĢ¢": 5503,
    "Ġchain": 5504,
    "ocket": 5505,
    "Description": 5506,
    "Ġfaster": 5507,
    "ĠUnion": 5508,
    "Ġtend": 5509,
    "Share": 5510,
    "Ġstated": 5511,
    "Ġmissing": 5512,
    "efined": 5513,
    "Ġeligible": 5514,
    "Ġcircumst": 5515,
    "Ġ500": 5516,
    "osen": 5517,
    "Product": 5518,
    "Ġcart": 5519,
    "Ġworldwide": 5520,
    "hab": 5521,
    "inder": 5522,
    "Ġmaybe": 5523,
    "Ġrare": 5524,
    "ĠSun": 5525,
    "ĠManager": 5526,
    "Ġanywhere": 5527,
    "ĠCEO": 5528,
    "Ġapproximately": 5529,
    "ĠSupport": 5530,
    "ificate": 5531,
    "Ġmanaged": 5532,
    "Ġdetect": 5533,
    "ĠColor": 5534,
    "mary": 5535,
    "ĠTuesday": 5536,
    "Ġdebt": 5537,
    "Ġwasn": 5538,
    "iest": 5539,
    "Ġpoor": 5540,
    "ript": 5541,
    "Ġcommitment": 5542,
    "ĠMex": 5543,
    "Ġdeposit": 5544,
    "ĠFood": 5545,
    "Ġindustrial": 5546,
    "Ġgather": 5547,
    "ĠMusic": 5548,
    "atin": 5549,
    "Ġreality": 5550,
    "ĠIts": 5551,
    "Click": 5552,
    "hand": 5553,
    "Ġhundreds": 5554,
    "Ġheight": 5555,
    "Ġargu": 5556,
    "ĠConst": 5557,
    "Ġonto": 5558,
    "ĠCommittee": 5559,
    "Comp": 5560,
    "Ġalign": 5561,
    "agers": 5562,
    "cknow": 5563,
    "Ġmand": 5564,
    "ĠMicrosoft": 5565,
    "Ġdefined": 5566,
    "Ġcompetitive": 5567,
    "equ": 5568,
    "reate": 5569,
    "Ġlegisl": 5570,
    "Inst": 5571,
    "Ġnegative": 5572,
    "omb": 5573,
    "Ġperhaps": 5574,
    "Ġwire": 5575,
    "alls": 5576,
    "ĠCard": 5577,
    "ii": 5578,
    "Ġspect": 5579,
    "ĠTheir": 5580,
    "icate": 5581,
    "ĠStar": 5582,
    "Ġfuel": 5583,
    "Ġsequence": 5584,
    "ette": 5585,
    "Ġreceiving": 5586,
    "mes": 5587,
    "ailable": 5588,
    "Ġleads": 5589,
    "Ġinfrastructure": 5590,
    "Ġhus": 5591,
    "avour": 5592,
    "Ġshowing": 5593,
    "inn": 5594,
    "van": 5595,
    "Ġscript": 5596,
    "ĠStart": 5597,
    "ĠDiv": 5598,
    "Ġkept": 5599,
    "ĠĠĠĠĠĠ": 5600,
    "stract": 5601,
    "CA": 5602,
    "Ġsymbol": 5603,
    "Ã¡": 5604,
    "Ġprote": 5605,
    "reek": 5606,
    "Ġsupporting": 5607,
    "Ġcompens": 5608,
    "Ġcultural": 5609,
    "Ġagent": 5610,
    "62": 5611,
    "ĠVol": 5612,
    "ixt": 5613,
    "Ġspl": 5614,
    "Ġ=>": 5615,
    "draw": 5616,
    "can": 5617,
    "Ġtracking": 5618,
    "Ġice": 5619,
    "wo": 5620,
    "Ġsolar": 5621,
    "odcast": 5622,
    "87": 5623,
    "Ġrestaurant": 5624,
    "Ġsea": 5625,
    "ulty": 5626,
    "Ġstone": 5627,
    "ĠTur": 5628,
    "orthern": 5629,
    "Reg": 5630,
    "Ġfulf": 5631,
    "ĠTwitter": 5632,
    "Ġdang": 5633,
    "host": 5634,
    "Ġrapid": 5635,
    "rian": 5636,
    "inger": 5637,
    "ĠJames": 5638,
    "ĠAdv": 5639,
    "ĠWednesday": 5640,
    "Ġreaders": 5641,
    "ĠWhether": 5642,
    "count": 5643,
    "Ġsport": 5644,
    "well": 5645,
    "Ġaccessible": 5646,
    "Ġ?": 5647,
    "Ġequal": 5648,
    "Ġmist": 5649,
    "ĠIndust": 5650,
    "Ġsupports": 5651,
    "cles": 5652,
    "Ġhighlight": 5653,
    "Ġresearc": 5654,
    "Ġreput": 5655,
    "Ġfixed": 5656,
    "ĠAward": 5657,
    "Ġuniversity": 5658,
    "Ġconfidence": 5659,
    "IA": 5660,
    "cean": 5661,
    "Ġteacher": 5662,
    "Ġexternal": 5663,
    "ĠRich": 5664,
    "Ġfem": 5665,
    "Ġvaluable": 5666,
    "OP": 5667,
    "Ġpractical": 5668,
    "ĠSen": 5669,
    "Ġsigned": 5670,
    "Ġtoward": 5671,
    "ĠOrgan": 5672,
    "Ġesc": 5673,
    "Ġauto": 5674,
    "Ġpredict": 5675,
    "Ġpair": 5676,
    "pected": 5677,
    "MA": 5678,
    "Ġfan": 5679,
    "Ġsurpr": 5680,
    "ĠFOR": 5681,
    "Ġconvenient": 5682,
    "claim": 5683,
    "Ġstarts": 5684,
    "Ġjoined": 5685,
    "ĠPri": 5686,
    "Rec": 5687,
    "ĠWebsite": 5688,
    "Ġmo": 5689,
    "Ġmeant": 5690,
    "iration": 5691,
    "Ġec": 5692,
    "ĠCookies": 5693,
    "ERS": 5694,
    "uit": 5695,
    "Ġsustainable": 5696,
    "water": 5697,
    "Ġissued": 5698,
    "Ġspons": 5699,
    "type": 5700,
    "zer": 5701,
    "Ġsnow": 5702,
    "Ġlabel": 5703,
    "Ġbound": 5704,
    "Ġhimself": 5705,
    "Ġdeals": 5706,
    "nergy": 5707,
    "ĠGlobal": 5708,
    "icks": 5709,
    "Ġtit": 5710,
    "Ġsessions": 5711,
    "etime": 5712,
    "ĠBack": 5713,
    "Ġauthent": 5714,
    "Ġboost": 5715,
    "ĠOffic": 5716,
    "ulate": 5717,
    "ĊĠĊĠ": 5718,
    "ĠBig": 5719,
    "Ġprinc": 5720,
    "ĠContact": 5721,
    "Ġhyd": 5722,
    "She": 5723,
    "coin": 5724,
    "Ġadministr": 5725,
    "Ġextensive": 5726,
    "ĠMaster": 5727,
    "illa": 5728,
    "Mod": 5729,
    "which": 5730,
    "ĠTest": 5731,
    "ĠCarol": 5732,
    "Ġlaunched": 5733,
    "Ġ%": 5734,
    "ĠFamily": 5735,
    "ĠMiss": 5736,
    "Ġwaiting": 5737,
    "Ġknew": 5738,
    "Ġchoices": 5739,
    "ĠPersonal": 5740,
    "{\"": 5741,
    "rip": 5742,
    "Ġaudio": 5743,
    "Ġrenew": 5744,
    "inst": 5745,
    "emporary": 5746,
    "Ġseeking": 5747,
    "Ġingredients": 5748,
    "gs": 5749,
    "ĠEnter": 5750,
    "antic": 5751,
    "Ġinvestig": 5752,
    "ĠNetwork": 5753,
    "Ġneighbor": 5754,
    "Ġdisp": 5755,
    "Ġfear": 5756,
    "Ġremoved": 5757,
    "ĠHead": 5758,
    "Ġtrial": 5759,
    "Ġowned": 5760,
    "Ġpassword": 5761,
    "Ġcatch": 5762,
    "date": 5763,
    "ĠView": 5764,
    "Ġinnovation": 5765,
    "ĠMart": 5766,
    "ĠLeague": 5767,
    "Ġsmallest": 5768,
    "ores": 5769,
    "ĠHol": 5770,
    "Ġcovers": 5771,
    "EST": 5772,
    "perty": 5773,
    "Ġhousing": 5774,
    "Ġwindows": 5775,
    "Ġengineering": 5776,
    "Ġsouth": 5777,
    "Ġ36": 5778,
    "SA": 5779,
    "ĠOper": 5780,
    "Ġicon": 5781,
    "/(": 5782,
    "ĠSil": 5783,
    "Ġrule": 5784,
    "Ġdiet": 5785,
    "Ġparticipate": 5786,
    "Ġplastic": 5787,
    "from": 5788,
    "Ġfat": 5789,
    "ech": 5790,
    "Ġbeach": 5791,
    "eless": 5792,
    "osis": 5793,
    "ĠGerman": 5794,
    "onym": 5795,
    "function": 5796,
    "Ġinfluence": 5797,
    "ĠÃ": 5798,
    "Ġinteg": 5799,
    "itness": 5800,
    "Ġannounce": 5801,
    "fig": 5802,
    "Ġregulations": 5803,
    "ulations": 5804,
    "lines": 5805,
    "Online": 5806,
    "Ġvs": 5807,
    "ipl": 5808,
    "Ġflat": 5809,
    "Ġconcent": 5810,
    "how": 5811,
    "rad": 5812,
    "Ġtalking": 5813,
    "Note": 5814,
    "Ġpublish": 5815,
    "Ġemployment": 5816,
    "Ġsignificantly": 5817,
    "71": 5818,
    "ograp": 5819,
    "Ġimplementation": 5820,
    "Â°": 5821,
    "Ġwrt": 5822,
    "uracy": 5823,
    "ĠConnect": 5824,
    "Ġsizes": 5825,
    "Ġtrees": 5826,
    "Ġ2006": 5827,
    "Ġeffectively": 5828,
    "Ġtests": 5829,
    "den": 5830,
    "Every": 5831,
    "isher": 5832,
    "Ġdoctor": 5833,
    "ĠCD": 5834,
    "UL": 5835,
    "Ġmachines": 5836,
    "AY": 5837,
    "PR": 5838,
    "Ġshares": 5839,
    "estyle": 5840,
    "ala": 5841,
    "Ġwest": 5842,
    "EW": 5843,
    "orough": 5844,
    "Ġjoint": 5845,
    "Ġearth": 5846,
    "Ġtow": 5847,
    "irms": 5848,
    "Ġfurniture": 5849,
    "ĠFil": 5850,
    "Ġwriter": 5851,
    "ĠMer": 5852,
    "ĠSeries": 5853,
    "ĠChristian": 5854,
    "Ġexamples": 5855,
    "weight": 5856,
    "ĠAuthor": 5857,
    "Ġlose": 5858,
    "FA": 5859,
    "Ġnecess": 5860,
    "ĠFrance": 5861,
    "bar": 5862,
    "Ġforget": 5863,
    "Ġflight": 5864,
    "Ġthoughts": 5865,
    "usion": 5866,
    "ĠAccording": 5867,
    "var": 5868,
    "Ġanti": 5869,
    "ĠSet": 5870,
    "Resp": 5871,
    "Ġdiverse": 5872,
    "Ġhusband": 5873,
    "ĠFort": 5874,
    "Ġacknow": 5875,
    "ĠAccount": 5876,
    "ĠValley": 5877,
    "rec": 5878,
    "Once": 5879,
    "product": 5880,
    "iveness": 5881,
    "Ġaccompl": 5882,
    "Ġwinning": 5883,
    "aser": 5884,
    "Ġnorth": 5885,
    "Ġintellig": 5886,
    "Ġhaven": 5887,
    "ky": 5888,
    "Ġsample": 5889,
    "Ġanc": 5890,
    "greg": 5891,
    "Ġupload": 5892,
    "Press": 5893,
    "aste": 5894,
    "Ġinstitutions": 5895,
    "Post": 5896,
    "quot": 5897,
    "},": 5898,
    "Ġmotiv": 5899,
    "ĠGrand": 5900,
    "icago": 5901,
    "ĠMark": 5902,
    "ĠRob": 5903,
    "Ġanalytics": 5904,
    "istan": 5905,
    "ĠBeach": 5906,
    "dy": 5907,
    "ĠUser": 5908,
    "OD": 5909,
    "Ġguidance": 5910,
    "Ġjew": 5911,
    "outs": 5912,
    "Ġwhatever": 5913,
    "Ġclearly": 5914,
    "leg": 5915,
    "respond": 5916,
    "night": 5917,
    "Ġyouth": 5918,
    "ĠGermany": 5919,
    "ĠPRO": 5920,
    "Ġdescription": 5921,
    "bed": 5922,
    "ĠQuality": 5923,
    "ĠTor": 5924,
    "Ġdecades": 5925,
    "Ġleaving": 5926,
    "Ġrise": 5927,
    "Ġaccepted": 5928,
    "Ġcivil": 5929,
    "Ġchat": 5930,
    "Ġcommission": 5931,
    "Ġment": 5932,
    "Ġfish": 5933,
    "Ġrain": 5934,
    "Ġspecies": 5935,
    "icit": 5936,
    "rier": 5937,
    "lor": 5938,
    "inations": 5939,
    "iled": 5940,
    "Ġfacilit": 5941,
    "ĠAccess": 5942,
    "levision": 5943,
    "Ġevening": 5944,
    "ĠLight": 5945,
    "Ġdistrict": 5946,
    "ĠEqu": 5947,
    "ĠMuseum": 5948,
    "Ġspaces": 5949,
    "Ġcandidates": 5950,
    "onom": 5951,
    "Ġrisks": 5952,
    "Ġcreation": 5953,
    "====": 5954,
    "ĠSociety": 5955,
    "FT": 5956,
    "Ġadults": 5957,
    "Ġhab": 5958,
    "Ġtaste": 5959,
    "Ġcircumstances": 5960,
    "Since": 5961,
    "inos": 5962,
    "Ġbuildings": 5963,
    "ATE": 5964,
    "ĠQue": 5965,
    "Ġtab": 5966,
    "olic": 5967,
    "Am": 5968,
    "Ġrecovery": 5969,
    "hors": 5970,
    "Ġdial": 5971,
    "Ġfilter": 5972,
    "Ġexclusive": 5973,
    "folio": 5974,
    "Ġedge": 5975,
    "file": 5976,
    "REE": 5977,
    "Ġanimals": 5978,
    "ĠDef": 5979,
    "Custom": 5980,
    "Ġcarefully": 5981,
    "Ġcompliance": 5982,
    "Ġobvious": 5983,
    "Ġobjects": 5984,
    "Ġpicking": 5985,
    "Ġwel": 5986,
    "Ġchemical": 5987,
    "61": 5988,
    "Per": 5989,
    "ĠEU": 5990,
    "Ġtaxes": 5991,
    "ĠForm": 5992,
    "Ġcorner": 5993,
    "Ġsuccessfully": 5994,
    "89": 5995,
    "Ġvisiting": 5996,
    "Ġintroduced": 5997,
    "**(": 5998,
    "See": 5999,
    "Ġidentified": 6000,
    "Ġhar": 6001,
    "ĠSign": 6002,
    "Ġlooked": 6003,
    "Ġadministration": 6004,
    "\"]": 6005,
    "custom": 6006,
    "Ġcollaboration": 6007,
    "ĠMot": 6008,
    "level": 6009,
    "Ġminor": 6010,
    "Ġensures": 6011,
    "Ġbrief": 6012,
    "Ġpoly": 6013,
    "poration": 6014,
    "Ġraised": 6015,
    "iki": 6016,
    "anged": 6017,
    "Ġreached": 6018,
    "SC": 6019,
    "ãĢ": 6020,
    "Ġimproved": 6021,
    "Ġshowed": 6022,
    "Ġshot": 6023,
    "Ġgone": 6024,
    "Ġattorney": 6025,
    "Ġtrends": 6026,
    "ĠCond": 6027,
    "Ġprocedures": 6028,
    "ĠVirgin": 6029,
    "Ð°Ð": 6030,
    "Ġopinion": 6031,
    "Ġpartnership": 6032,
    "ĠLord": 6033,
    "Ġpal": 6034,
    "sole": 6035,
    "ait": 6036,
    "ĠMedical": 6037,
    "ĠTherefore": 6038,
    "ĠAT": 6039,
    "ucky": 6040,
    "Ġdram": 6041,
    "Ġanswers": 6042,
    "Rel": 6043,
    "Ġstreet": 6044,
    "ĠAdminist": 6045,
    "Ġwilling": 6046,
    "ĠCanadian": 6047,
    "Ġliqu": 6048,
    "II": 6049,
    "sm": 6050,
    "Free": 6051,
    "plug": 6052,
    "Ġagencies": 6053,
    "Ġexpenses": 6054,
    "Ġfilled": 6055,
    "Aut": 6056,
    "alog": 6057,
    "Ġtransition": 6058,
    "Other": 6059,
    "ĠThom": 6060,
    "Ġleaves": 6061,
    "sembly": 6062,
    "Ġassessment": 6063,
    "oin": 6064,
    "Ġfol": 6065,
    "ĠScot": 6066,
    "ĠLog": 6067,
    "Exp": 6068,
    "Ġdrivers": 6069,
    "Ġdim": 6070,
    "option": 6071,
    "Ġdisapp": 6072,
    "profit": 6073,
    "Ġcop": 6074,
    "you": 6075,
    "CD": 6076,
    "ĠTom": 6077,
    "cher": 6078,
    "Ġscr": 6079,
    "Ġmostly": 6080,
    "Ġrot": 6081,
    "rition": 6082,
    "Ġguidelines": 6083,
    "ĠRock": 6084,
    "Ġslot": 6085,
    "Last": 6086,
    "Ġdetermined": 6087,
    "Ġtherapy": 6088,
    "phas": 6089,
    "cious": 6090,
    "ĠCas": 6091,
    "Ġbelong": 6092,
    "Ġtail": 6093,
    "ĠKore": 6094,
    "Ġsecret": 6095,
    "ĠPress": 6096,
    "link": 6097,
    "Ġslightly": 6098,
    "Ġbringing": 6099,
    "Ġfollows": 6100,
    "Ġquot": 6101,
    "user": 6102,
    "Ġfamiliar": 6103,
    "Ġconflic": 6104,
    "Ġtut": 6105,
    "ĠLong": 6106,
    "Ġgenerate": 6107,
    "fortunately": 6108,
    "Ġinspired": 6109,
    "orter": 6110,
    "Ġoccup": 6111,
    "Ġengage": 6112,
    "Ġaid": 6113,
    "rome": 6114,
    "Ġchannel": 6115,
    "Ġreasonable": 6116,
    "endar": 6117,
    "ĠDigital": 6118,
    "ĠTake": 6119,
    "ĠOh": 6120,
    "ĠLand": 6121,
    "Ġrand": 6122,
    "Ġunivers": 6123,
    "scribe": 6124,
    "Ġflowers": 6125,
    "Ġcoast": 6126,
    "Ġreporting": 6127,
    "Ġidentity": 6128,
    "Ġregularly": 6129,
    "Ġcontents": 6130,
    "Ġradio": 6131,
    "alian": 6132,
    "Ġinvent": 6133,
    "iate": 6134,
    "Ġlisten": 6135,
    "Ġthick": 6136,
    "ĠAD": 6137,
    "ĠMont": 6138,
    "Thank": 6139,
    "Ġwarranty": 6140,
    "Ġpaying": 6141,
    "PL": 6142,
    "Ġchosen": 6143,
    "Ġshel": 6144,
    "Ġrequests": 6145,
    "ĠSom": 6146,
    "Ġprompt": 6147,
    "ĠCA": 6148,
    "ĠArts": 6149,
    "anish": 6150,
    "Ġdiam": 6151,
    "rite": 6152,
    "Ġdied": 6153,
    "Ġdelete": 6154,
    "inci": 6155,
    "Ġhistorical": 6156,
    "According": 6157,
    "Ġcampus": 6158,
    "riage": 6159,
    "ĠPrice": 6160,
    "Book": 6161,
    "ĠLove": 6162,
    "ĠRober": 6163,
    "ĠAsia": 6164,
    "ums": 6165,
    "Ġaccuracy": 6166,
    "urban": 6167,
    "ployment": 6168,
    "ĠParty": 6169,
    "ĠTem": 6170,
    "Ġhousehold": 6171,
    "Ġsigns": 6172,
    "burg": 6173,
    "ĠNor": 6174,
    "ĠMill": 6175,
    "ini": 6176,
    "Ġdisplayed": 6177,
    "ĠLike": 6178,
    "ĠInte": 6179,
    "Ġoperate": 6180,
    "Ġminute": 6181,
    "ĠInsurance": 6182,
    "ena": 6183,
    "ãĤ": 6184,
    "Ġtag": 6185,
    "ĠPack": 6186,
    "Ġpurchasing": 6187,
    "ĠCy": 6188,
    "ĠNov": 6189,
    "parent": 6190,
    "83": 6191,
    "Ġassuming": 6192,
    "Ġtruth": 6193,
    "ĠOverview": 6194,
    "Ġkinds": 6195,
    "Ġnurs": 6196,
    "igr": 6197,
    "Ġbird": 6198,
    "ĠMass": 6199,
    "Ġperman": 6200,
    "Ġrecipe": 6201,
    "Ġinterpre": 6202,
    "aturing": 6203,
    "âĢĺ": 6204,
    "Ġdestination": 6205,
    "Ġparking": 6206,
    "Ġveget": 6207,
    "FL": 6208,
    "othes": 6209,
    "ua": 6210,
    "Check": 6211,
    "Thanks": 6212,
    "ĠWood": 6213,
    "Ġfantastic": 6214,
    "hall": 6215,
    "Ġjoy": 6216,
    "holders": 6217,
    "Email": 6218,
    "Ġconducted": 6219,
    "Work": 6220,
    "lets": 6221,
    "ĠMichael": 6222,
    "Ġphotograph": 6223,
    "Ġcategor": 6224,
    "ĠTrump": 6225,
    "Ġcrisis": 6226,
    "gn": 6227,
    "Ġride": 6228,
    "Ġaccord": 6229,
    "iders": 6230,
    "Ġtech": 6231,
    "ye": 6232,
    "Ġdaughter": 6233,
    "ĠRad": 6234,
    "ĠUk": 6235,
    "ĊĠĠĠĠĠĠĠĠĠĠĠĠĠĠĠĠĠĠĠ": 6236,
    "abel": 6237,
    "Ġsugar": 6238,
    "ads": 6239,
    "ĠFranc": 6240,
    "Ġmortgage": 6241,
    "oga": 6242,
    "irement": 6243,
    "Ġinterface": 6244,
    "Ġreduced": 6245,
    "ĠCup": 6246,
    "Ġrecognized": 6247,
    "ĠBer": 6248,
    "apes": 6249,
    "Ġur": 6250,
    "Type": 6251,
    "ĠReport": 6252,
    "ĠÂ·": 6253,
    "Ġguest": 6254,
    "RECT": 6255,
    "ĠWomen": 6256,
    "ownt": 6257,
    ">>": 6258,
    "Ġaffected": 6259,
    "ĠFederal": 6260,
    "QL": 6261,
    "Ġteach": 6262,
    "ĠHam": 6263,
    "bert": 6264,
    "Ġentreprene": 6265,
    "ikip": 6266,
    "ĠPan": 6267,
    "igan": 6268,
    "ĠLo": 6269,
    "osh": 6270,
    "iat": 6271,
    "ĠSol": 6272,
    "Ġappreciate": 6273,
    "ĠShow": 6274,
    "Ġlit": 6275,
    "Ġton": 6276,
    "berg": 6277,
    "ĠOnly": 6278,
    "hus": 6279,
    "lock": 6280,
    "Ġchallenging": 6281,
    "ĠWhy": 6282,
    "Ġinterior": 6283,
    "Ġsubscrib": 6284,
    "ca": 6285,
    "Ġbrother": 6286,
    "Ġobtained": 6287,
    "Ġregional": 6288,
    "Ġrandom": 6289,
    "TC": 6290,
    "ĠAtl": 6291,
    "ĠLook": 6292,
    "Ġcheap": 6293,
    "Ġbigger": 6294,
    "celer": 6295,
    "ĠMad": 6296,
    "Ġasking": 6297,
    "Ġscientific": 6298,
    "ĠAlex": 6299,
    "Ġseconds": 6300,
    "Ġcertified": 6301,
    "Ġfourth": 6302,
    "ĠTre": 6303,
    "Ġnetworks": 6304,
    "Ġcarbon": 6305,
    "Ġpackaging": 6306,
    "eration": 6307,
    "bour": 6308,
    "Ġcopyright": 6309,
    "Ke": 6310,
    "Ġcalling": 6311,
    "Ġstrict": 6312,
    "Ġandroid": 6313,
    "ĠFinancial": 6314,
    "Ġlogo": 6315,
    "String": 6316,
    "Ġended": 6317,
    "page": 6318,
    "omet": 6319,
    "Ġhonest": 6320,
    "rics": 6321,
    "Ġ33": 6322,
    "Ġcomponent": 6323,
    "ĠRussian": 6324,
    "ĠCON": 6325,
    "Ġcouldn": 6326,
    "ĠNon": 6327,
    "gor": 6328,
    "Ġnoted": 6329,
    ")*(-": 6330,
    "ĠCam": 6331,
    "Contact": 6332,
    "Ġongoing": 6333,
    "ĠInstagram": 6334,
    "Ġisland": 6335,
    "Ġcrucial": 6336,
    "Ġsympt": 6337,
    "Ġcoordin": 6338,
    "irmed": 6339,
    "Ġlayer": 6340,
    "Ġrequested": 6341,
    "Ġemails": 6342,
    "Ġhappened": 6343,
    "Ġclosest": 6344,
    "Ġqualified": 6345,
    "Ġextended": 6346,
    "ĠRest": 6347,
    "Ġrestaurants": 6348,
    "Ġappointment": 6349,
    "formance": 6350,
    "Ġpatterns": 6351,
    "Ac": 6352,
    "Ġdollars": 6353,
    "Ġputting": 6354,
    "ĠAfrican": 6355,
    "do": 6356,
    "Ġfif": 6357,
    "Ġcup": 6358,
    "Ġshipped": 6359,
    "Ġchair": 6360,
    "Ġhosting": 6361,
    "yers": 6362,
    "ĠPlus": 6363,
    "Ġrecorded": 6364,
    "Ġmatters": 6365,
    "Ġpositions": 6366,
    "missions": 6367,
    "Use": 6368,
    "Ġoccasion": 6369,
    "Part": 6370,
    "Ġscene": 6371,
    "Ġhearing": 6372,
    "Ġpm": 6373,
    "ĠCH": 6374,
    "ambling": 6375,
    "Ġelection": 6376,
    "Ġstatements": 6377,
    "Ġappearance": 6378,
    "Ed": 6379,
    "rivate": 6380,
    "icial": 6381,
    "2021": 6382,
    "ĠLearn": 6383,
    "ĠEconom": 6384,
    "Ġdesire": 6385,
    "ĠEarth": 6386,
    "plete": 6387,
    "Ġchoosing": 6388,
    "TA": 6389,
    "Ġfailed": 6390,
    "Ġpoll": 6391,
    "Tube": 6392,
    "ĠNav": 6393,
    "Ġconsidering": 6394,
    "PC": 6395,
    "Ġdates": 6396,
    "Ġraise": 6397,
    "Ġengagement": 6398,
    "ĠChicago": 6399,
    "ĠThrough": 6400,
    "ĠSaf": 6401,
    "ords": 6402,
    "while": 6403,
    "Most": 6404,
    "Ġcoach": 6405,
    "po": 6406,
    "Ġcategories": 6407,
    "ander": 6408,
    "tion": 6409,
    "Ġ2000": 6410,
    "Ġroute": 6411,
    "Ġusage": 6412,
    "Ġindustries": 6413,
    "Ġmonitoring": 6414,
    "ĊĠĠ": 6415,
    "}}": 6416,
    "Ġcorrespond": 6417,
    "king": 6418,
    "Ġdespite": 6419,
    "Ġforest": 6420,
    "Ġseat": 6421,
    "Ġrental": 6422,
    "Ġcream": 6423,
    "ultural": 6424,
    "erves": 6425,
    "Ġtrend": 6426,
    "Ġcooper": 6427,
    "Ġshut": 6428,
    "ĠLouis": 6429,
    "Ġdivide": 6430,
    "ĠTwo": 6431,
    "Ġbusy": 6432,
    "Ġintegrated": 6433,
    "ĠPet": 6434,
    "ĠTown": 6435,
    "Ġrating": 6436,
    "Step": 6437,
    "Ġelimin": 6438,
    "ĠNY": 6439,
    "ĠOpt": 6440,
    "ĠMinister": 6441,
    "Ġcrow": 6442,
    "under": 6443,
    "ĠKeep": 6444,
    "Ġthr": 6445,
    "Ġ2023": 6446,
    "ĠAbout": 6447,
    "Ġofficials": 6448,
    "Time": 6449,
    "Ġcitizens": 6450,
    "ĠSoft": 6451,
    "Ġneighborhood": 6452,
    "Ġcolour": 6453,
    "GB": 6454,
    "build": 6455,
    "olutions": 6456,
    "Many": 6457,
    "Ġsolve": 6458,
    "ĠMach": 6459,
    "ĊĠĠĠĠĠĠĠĠĠĠĠĠĠĠĠĠĠĠĠĠĠĠĠĠ": 6460,
    "Ġfrequently": 6461,
    "ĠAud": 6462,
    "ita": 6463,
    "RI": 6464,
    "Ġourselves": 6465,
    "Ġholds": 6466,
    "erts": 6467,
    "Ġcutting": 6468,
    "iors": 6469,
    "esome": 6470,
    "ĠControl": 6471,
    "achel": 6472,
    "Ġconver": 6473,
    "ĠJapanese": 6474,
    "Ġaffiliate": 6475,
    "81": 6476,
    "ĠCentre": 6477,
    "Ġamb": 6478,
    "Ġphil": 6479,
    "ikipedia": 6480,
    "Ġsubmitted": 6481,
    "dered": 6482,
    "creen": 6483,
    "ecutive": 6484,
    "ĠRussia": 6485,
    "Ġserves": 6486,
    "ĠEr": 6487,
    "Ġretain": 6488,
    "Ġtransportation": 6489,
    "Ġmut": 6490,
    "ĠHosp": 6491,
    "ias": 6492,
    "Ġwalking": 6493,
    "Ġperspective": 6494,
    "Ġdelay": 6495,
    "ĠHistory": 6496,
    "Ġbought": 6497,
    "Ġknows": 6498,
    "ĠPass": 6499,
    "Ġfreed": 6500,
    "Ġgrade": 6501,
    "Ġexpectations": 6502,
    "ĠCongress": 6503,
    "Ġincredible": 6504,
    "igration": 6505,
    "Ġpainting": 6506,
    "person": 6507,
    "faction": 6508,
    "Ġcooking": 6509,
    "ĠUSD": 6510,
    "Ġcontinuing": 6511,
    "Just": 6512,
    "Ġentertainment": 6513,
    "Ġflexible": 6514,
    "Ġveter": 6515,
    "LS": 6516,
    "Ġ300": 6517,
    "friendly": 6518,
    "isco": 6519,
    "Ġsongs": 6520,
    "Ġfounded": 6521,
    "iminal": 6522,
    "Ġenjoyed": 6523,
    "Ġadvoc": 6524,
    "Ġstrategic": 6525,
    "ermine": 6526,
    "ĠLos": 6527,
    "300": 6528,
    "what": 6529,
    "Ġvend": 6530,
    "inciples": 6531,
    "Ġfunctionality": 6532,
    "Ġcharged": 6533,
    "Ġven": 6534,
    "ĠWestern": 6535,
    "Ġpush": 6536,
    "ĠEnergy": 6537,
    "ĠSecret": 6538,
    "Ġcabin": 6539,
    "atible": 6540,
    "Ġrow": 6541,
    "Ġfoundation": 6542,
    "ĠBas": 6543,
    "Ġath": 6544,
    "Ġperfectly": 6545,
    "ĠIll": 6546,
    "ĠHill": 6547,
    "Ġcarried": 6548,
    "mosp": 6549,
    "Ġsuit": 6550,
    "ĠHave": 6551,
    "active": 6552,
    "Ġswim": 6553,
    "lights": 6554,
    "VE": 6555,
    "ersey": 6556,
    "ãĥ": 6557,
    "Text": 6558,
    "Ġresidential": 6559,
    "Ġfeatured": 6560,
    "Ġemphas": 6561,
    "ĠId": 6562,
    "ĠTimes": 6563,
    "iner": 6564,
    "ĠAcademy": 6565,
    "post": 6566,
    "Ġdoors": 6567,
    "[\"": 6568,
    "tered": 6569,
    "Ġsounds": 6570,
    "uction": 6571,
    "ĠJava": 6572,
    "ĠNote": 6573,
    "Ġlinked": 6574,
    "Ġprofit": 6575,
    "span": 6576,
    "ĠFurther": 6577,
    "ĠAssist": 6578,
    "Ġimprovement": 6579,
    "Ġsimpl": 6580,
    "ĠDoes": 6581,
    "made": 6582,
    "Ġimproving": 6583,
    "ython": 6584,
    "Ġ2005": 6585,
    "df": 6586,
    "Ġinformed": 6587,
    "Ġunable": 6588,
    "ipt": 6589,
    "ĠMarketing": 6590,
    "Ġproof": 6591,
    "Ġtested": 6592,
    "Ġsituations": 6593,
    "Ġ34": 6594,
    "Ġawareness": 6595,
    "Ġexpression": 6596,
    "acc": 6597,
    "Ġpresentation": 6598,
    "Ġlights": 6599,
    "Ġconsequ": 6600,
    "EE": 6601,
    "odies": 6602,
    "Ġang": 6603,
    "Ġvote": 6604,
    "Ġmanual": 6605,
    "Ġprocedure": 6606,
    "ĠUsing": 6607,
    "Ġinvolve": 6608,
    "Pe": 6609,
    "imize": 6610,
    "rc": 6611,
    "def": 6612,
    "Ġmerch": 6613,
    "Ġsan": 6614,
    "Ġgaming": 6615,
    "----------------": 6616,
    "Ġedit": 6617,
    "Ġsurg": 6618,
    "Ġknowing": 6619,
    "Ġresearchers": 6620,
    "xy": 6621,
    "ĠHotel": 6622,
    "zen": 6623,
    "82": 6624,
    "Ġtickets": 6625,
    "ially": 6626,
    "resents": 6627,
    "Ġhire": 6628,
    "Ġagents": 6629,
    "Ġfinance": 6630,
    "Ġconversation": 6631,
    "reens": 6632,
    "Ġdistinct": 6633,
    "rael": 6634,
    "riting": 6635,
    "star": 6636,
    "ĠGame": 6637,
    "ĠSy": 6638,
    "ĠTrust": 6639,
    "Ġwal": 6640,
    "atus": 6641,
    "ĠJew": 6642,
    "Ġthread": 6643,
    "Ġstrugg": 6644,
    "opped": 6645,
    "Ġconcrete": 6646,
    "Ġremaining": 6647,
    "UM": 6648,
    "Ġwithdraw": 6649,
    "Ġexecutive": 6650,
    "pet": 6651,
    "Ġillustr": 6652,
    "ĠCost": 6653,
    "hetic": 6654,
    "ĠBoth": 6655,
    "Ġtransaction": 6656,
    "Ġbike": 6657,
    "Dr": 6658,
    "pg": 6659,
    "cohol": 6660,
    "Ġdelicious": 6661,
    "rame": 6662,
    "Ġvital": 6663,
    "ucle": 6664,
    "ĠHuman": 6665,
    "Ġmeetings": 6666,
    "Ġstars": 6667,
    "Ġphase": 6668,
    "Ġtemplate": 6669,
    "java": 6670,
    "Ġhardware": 6671,
    "gers": 6672,
    "ello": 6673,
    "Ġpossibly": 6674,
    "ĠFact": 6675,
    "Ġstyles": 6676,
    "Ġnative": 6677,
    "front": 6678,
    "Ġoutstanding": 6679,
    "ĠiPhone": 6680,
    "ether": 6681,
    "olved": 6682,
    "Ġerrors": 6683,
    "Ġscholars": 6684,
    "Ġwhom": 6685,
    "Ġease": 6686,
    "Ġapproval": 6687,
    "UP": 6688,
    "ĠFull": 6689,
    "ansion": 6690,
    "een": 6691,
    "Welcome": 6692,
    "Ġwatching": 6693,
    "Ġtradem": 6694,
    "eal": 6695,
    "Ġportfolio": 6696,
    "including": 6697,
    "uce": 6698,
    "icken": 6699,
    "Ġpermission": 6700,
    "Ġlisting": 6701,
    "Ġcandidate": 6702,
    "Ġcycle": 6703,
    "Ġpricing": 6704,
    "Ġthorough": 6705,
    "Ġcontained": 6706,
    "Ġrecommendations": 6707,
    "ĠAR": 6708,
    "Ġfr": 6709,
    "Ġluxury": 6710,
    "Ġauthors": 6711,
    "Ġban": 6712,
    "Ġliability": 6713,
    "Ġjump": 6714,
    "ingu": 6715,
    "Ġlandscape": 6716,
    "quir": 6717,
    "ĠMult": 6718,
    "Ġcodes": 6719,
    "Americ": 6720,
    "Ġgenerated": 6721,
    "Fin": 6722,
    "Ġconsistent": 6723,
    "Ġdepends": 6724,
    "code": 6725,
    "Ġinteger": 6726,
    "Ġign": 6727,
    "Ġcentre": 6728,
    "Ġfalse": 6729,
    "Out": 6730,
    "Ġdinner": 6731,
    "Ġlighting": 6732,
    "chest": 6733,
    "Ġrounded": 6734,
    "ĠBill": 6735,
    "Ġer": 6736,
    "Ġcreates": 6737,
    "Ġessay": 6738,
    "')": 6739,
    "value": 6740,
    "ĠCarolina": 6741,
    "ĠTour": 6742,
    "Ġversions": 6743,
    "Ġbask": 6744,
    "osition": 6745,
    "ĠDev": 6746,
    "Ġresolution": 6747,
    "Ġlicensed": 6748,
    "Ġlifestyle": 6749,
    "Ġcontribute": 6750,
    "%.": 6751,
    "Ġestimated": 6752,
    "ĠOrder": 6753,
    "ĠChief": 6754,
    "Ġconstantly": 6755,
    "ocolate": 6756,
    "ĠGeorge": 6757,
    "ria": 6758,
    "js": 6759,
    "ĠLibrary": 6760,
    "cluded": 6761,
    "Ġholding": 6762,
    "Ġtables": 6763,
    "PE": 6764,
    "Ġpump": 6765,
    "cific": 6766,
    "Ġvirus": 6767,
    "fin": 6768,
    "width": 6769,
    "Ġaccordance": 6770,
    "Ġgirls": 6771,
    "reland": 6772,
    "Ġupcoming": 6773,
    "Ġuns": 6774,
    "Ġthrow": 6775,
    "edy": 6776,
    "erry": 6777,
    "ifies": 6778,
    "Ġcauses": 6779,
    "roy": 6780,
    "Ġring": 6781,
    "Ġmanaging": 6782,
    "ĠCat": 6783,
    "Trans": 6784,
    "Ġstake": 6785,
    "ĠTax": 6786,
    "itage": 6787,
    "duate": 6788,
    "ĠBefore": 6789,
    "Ġcomposite": 6790,
    "Ġforces": 6791,
    "Ġfirms": 6792,
    "ĠSH": 6793,
    "Ġsurf": 6794,
    "Ġrepresents": 6795,
    "Ġeventually": 6796,
    "aren": 6797,
    "ĠGuide": 6798,
    "eper": 6799,
    "Ġteeth": 6800,
    "ĠDownload": 6801,
    "Ġanimal": 6802,
    "Ġdynamic": 6803,
    "ĠWeek": 6804,
    "Ġsynt": 6805,
    "Search": 6806,
    "Ġfailure": 6807,
    "Ġplays": 6808,
    "Ġsubstant": 6809,
    "image": 6810,
    "site": 6811,
    "Ġframework": 6812,
    "Ġnegot": 6813,
    "Ġsurrounding": 6814,
    "Ġsides": 6815,
    "igned": 6816,
    "ART": 6817,
    "ĠQuest": 6818,
    "ĠPDF": 6819,
    "Ġfellow": 6820,
    "Ġdiscovered": 6821,
    "ensity": 6822,
    "Â·": 6823,
    "Ġexpressed": 6824,
    "2020": 6825,
    "ban": 6826,
    "Ġedition": 6827,
    "ĠIr": 6828,
    "Ġsupplies": 6829,
    "Ġopting": 6830,
    "ora": 6831,
    "ĠHand": 6832,
    "Ġguess": 6833,
    "Ġhouses": 6834,
    "Ġdining": 6835,
    "ĠAngeles": 6836,
    "Ġstret": 6837,
    "Ġcriteria": 6838,
    "ĠLive": 6839,
    "Ob": 6840,
    "Ġstudio": 6841,
    "ographic": 6842,
    "ĠEnd": 6843,
    "EX": 6844,
    "ample": 6845,
    "Ġgear": 6846,
    "ĠSmith": 6847,
    "ĠBit": 6848,
    "acific": 6849,
    "using": 6850,
    "izer": 6851,
    "ĠPrem": 6852,
    "han": 6853,
    "Ġeveryday": 6854,
    "vell": 6855,
    "Act": 6856,
    "Ġegg": 6857,
    "Ġprinted": 6858,
    "Ġenables": 6859,
    "gorith": 6860,
    "Ġensuring": 6861,
    "Ġtransactions": 6862,
    "ĠStudents": 6863,
    "Ġkeeps": 6864,
    "etary": 6865,
    "ĠYouTube": 6866,
    "ĠJournal": 6867,
    "Ġembed": 6868,
    "anda": 6869,
    "++": 6870,
    "ĠOld": 6871,
    "da": 6872,
    "Date": 6873,
    "alle": 6874,
    "Ġauthority": 6875,
    "ÃŃ": 6876,
    "apping": 6877,
    "Ġdental": 6878,
    "asting": 6879,
    "DIRECT": 6880,
    "Ġpu": 6881,
    "ĠPhot": 6882,
    "Ġticket": 6883,
    "Ġ;": 6884,
    "ĠDen": 6885,
    "Ġ75": 6886,
    "Where": 6887,
    "Ġvisits": 6888,
    "Ġfruit": 6889,
    "Ġassume": 6890,
    "Ġtheory": 6891,
    "Ġweekly": 6892,
    "Ġ37": 6893,
    "Ġ38": 6894,
    "elry": 6895,
    "aks": 6896,
    "Ġtrig": 6897,
    "ĠMa": 6898,
    "va": 6899,
    "Ġanx": 6900,
    "Ġdevelopers": 6901,
    "Ġepisode": 6902,
    "ĠAC": 6903,
    "ĠMexico": 6904,
    "Ġcompensation": 6905,
    "Sec": 6906,
    "à¸": 6907,
    "Ð»": 6908,
    "Ġeleg": 6909,
    "ĠVirginia": 6910,
    "case": 6911,
    "ESS": 6912,
    "Ġmanufacturers": 6913,
    "test": 6914,
    "rum": 6915,
    "Ġpersonally": 6916,
    "ĠType": 6917,
    "Ġdegrees": 6918,
    "ĠHy": 6919,
    "Ġmembership": 6920,
    "Ġdifferences": 6921,
    "otton": 6922,
    "Class": 6923,
    "VER": 6924,
    "ano": 6925,
    "ady": 6926,
    "then": 6927,
    "Ġclosely": 6928,
    "azz": 6929,
    "clusive": 6930,
    "Response": 6931,
    "Ġatmosp": 6932,
    "Ġsymptoms": 6933,
    "Ġtun": 6934,
    "Ġsavings": 6935,
    "Sm": 6936,
    "pat": 6937,
    "HT": 6938,
    "ĠCustomer": 6939,
    "ĠItalian": 6940,
    "Ġskill": 6941,
    "sl": 6942,
    "paper": 6943,
    "ĠAI": 6944,
    "Ġbegins": 6945,
    "Ġmodify": 6946,
    "Ġreb": 6947,
    "Ġdamaged": 6948,
    "Ġentered": 6949,
    "oval": 6950,
    "Spe": 6951,
    "Ñĥ": 6952,
    "arp": 6953,
    "urities": 6954,
    "Ġsyn": 6955,
    "bi": 6956,
    "ĠKey": 6957,
    "Ġwheel": 6958,
    "Ġpurchases": 6959,
    "Ġtelevision": 6960,
    "ĠSand": 6961,
    "rypt": 6962,
    "Ġmillions": 6963,
    "Ġresulting": 6964,
    "ĠRoyal": 6965,
    "ipal": 6966,
    "ĠPenn": 6967,
    "Another": 6968,
    "cling": 6969,
    "Ġstain": 6970,
    "ĠChampions": 6971,
    "error": 6972,
    "reement": 6973,
    "Collect": 6974,
    "ĠSupp": 6975,
    "asp": 6976,
    "Gu": 6977,
    "Ġcategorized": 6978,
    "Cons": 6979,
    "Ġarm": 6980,
    "ĠSales": 6981,
    "Cook": 6982,
    "afe": 6983,
    "Make": 6984,
    "Ġincreases": 6985,
    "ĠPoint": 6986,
    "\");": 6987,
    "Ġfavour": 6988,
    "Ġportion": 6989,
    "otic": 6990,
    "Ġborder": 6991,
    "ĠBi": 6992,
    "oker": 6993,
    "ĠVer": 6994,
    "Ġgraduate": 6995,
    "Ġorganic": 6996,
    "Select": 6997,
    "ĠStore": 6998,
    "Ġped": 6999,
    "Ġrelatively": 7000,
    "ĠExt": 7001,
    "Ġ!": 7002,
    "Top": 7003,
    "Ġsearching": 7004,
    "Ġtypical": 7005,
    "real": 7006,
    "Ġpure": 7007,
    "ĠKnow": 7008,
    "orders": 7009,
    "ĠWH": 7010,
    "Ġplanned": 7011,
    "Ġcapabilities": 7012,
    "Ġcrusher": 7013,
    "ĠSEO": 7014,
    "Ġcompare": 7015,
    "Ġdomestic": 7016,
    "Ġfilms": 7017,
    "Fi": 7018,
    "ĠHT": 7019,
    "ĠMax": 7020,
    "ĠGeorg": 7021,
    "ĠNumber": 7022,
    "Ġscheduled": 7023,
    "Ġprogramming": 7024,
    "ruck": 7025,
    "that": 7026,
    "Mon": 7027,
    "Ġdraft": 7028,
    "Ġhandling": 7029,
    "Ġtight": 7030,
    "ĠContinue": 7031,
    "alled": 7032,
    "pass": 7033,
    "Ġmainly": 7034,
    "ĠTim": 7035,
    "urse": 7036,
    "Ġtalent": 7037,
    "))/(": 7038,
    "ĠAff": 7039,
    "Ġenroll": 7040,
    "Ġadop": 7041,
    "ĠScott": 7042,
    "ĠMo": 7043,
    "Ġfeels": 7044,
    "Ġenforce": 7045,
    "liers": 7046,
    "Ġinsights": 7047,
    "Ġorganized": 7048,
    "lete": 7049,
    "Ġmodule": 7050,
    "rate": 7051,
    "Ġpapers": 7052,
    "Ġlowest": 7053,
    "Ġenthus": 7054,
    "Ġcommunicate": 7055,
    "Ġarts": 7056,
    "oses": 7057,
    "Ġpriority": 7058,
    "Of": 7059,
    "Ġdesired": 7060,
    "ighter": 7061,
    "Ġwidely": 7062,
    "Ġwidth": 7063,
    "Ġsevere": 7064,
    "Ġappeared": 7065,
    "ĠCreat": 7066,
    "Ġtea": 7067,
    "Key": 7068,
    "Ġmeal": 7069,
    "orse": 7070,
    "lay": 7071,
    "ĠAdditionally": 7072,
    "ims": 7073,
    "Ġconfirmed": 7074,
    "Ġfaculty": 7075,
    "Ġrecy": 7076,
    "Ġwalls": 7077,
    "ĠFollow": 7078,
    "pty": 7079,
    "Ġvillage": 7080,
    "Ġcontrolled": 7081,
    "Ġmovies": 7082,
    "race": 7083,
    "Ġfle": 7084,
    "Ġfacing": 7085,
    "Ġpublication": 7086,
    "ĠUl": 7087,
    "Ġrub": 7088,
    "ĠSpring": 7089,
    "Ġboat": 7090,
    "ĠðŁ": 7091,
    "Two": 7092,
    "Ġtrained": 7093,
    "800": 7094,
    "Ġprocessed": 7095,
    "abet": 7096,
    "à¤": 7097,
    "ola": 7098,
    "mercial": 7099,
    "ĠMel": 7100,
    "Ġarrive": 7101,
    "Ġdating": 7102,
    "ocument": 7103,
    "ĠCredit": 7104,
    "ĠExecutive": 7105,
    "Ġoutcomes": 7106,
    "RS": 7107,
    "Ġrestrictions": 7108,
    "atre": 7109,
    "Ġdepth": 7110,
    "ĠGal": 7111,
    "FF": 7112,
    "bb": 7113,
    "ĠDub": 7114,
    "Ġcontemporary": 7115,
    "Gener": 7116,
    "ken": 7117,
    "Ġvan": 7118,
    "Ġwouldn": 7119,
    "DS": 7120,
    "Ġprop": 7121,
    "import": 7122,
    "ership": 7123,
    "ev": 7124,
    "Ġrail": 7125,
    "Ġclar": 7126,
    "Ġneck": 7127,
    "ĠEnt": 7128,
    "Ġinches": 7129,
    "Eng": 7130,
    "ĠUnd": 7131,
    "Ġdance": 7132,
    "ĊĊĠĠĠĠĠĠĠ": 7133,
    "Ġconstant": 7134,
    "tes": 7135,
    "uct": 7136,
    "ĠCloud": 7137,
    "inds": 7138,
    "PT": 7139,
    "Ġlanguages": 7140,
    "color": 7141,
    "Ġquiet": 7142,
    "Ġcelebrate": 7143,
    "Ġmarried": 7144,
    "ĠIreland": 7145,
    "ĠParis": 7146,
    "Ġdiscussed": 7147,
    "gend": 7148,
    "aper": 7149,
    "Ġjack": 7150,
    "##": 7151,
    "Ġarchitecture": 7152,
    "Ġearned": 7153,
    "rim": 7154,
    "Ġquote": 7155,
    "Ġburn": 7156,
    "ĠSports": 7157,
    "Ġregions": 7158,
    "ĠSecond": 7159,
    "mitting": 7160,
    "Follow": 7161,
    "Ġgrown": 7162,
    "Ġsending": 7163,
    "eller": 7164,
    "ĠBrand": 7165,
    "Ġdoubt": 7166,
    "astern": 7167,
    "Ġadult": 7168,
    "Ġequipped": 7169,
    "osoph": 7170,
    "Ġgun": 7171,
    "Ġentirely": 7172,
    "ĠSpanish": 7173,
    "Rem": 7174,
    "kin": 7175,
    "ocated": 7176,
    "ĠLab": 7177,
    "long": 7178,
    "ĠScotland": 7179,
    "ĠYes": 7180,
    "Stud": 7181,
    "ĠLtd": 7182,
    "Ġwealth": 7183,
    "Ġurban": 7184,
    "Ġdefense": 7185,
    "ĠHaw": 7186,
    "Ġchannels": 7187,
    "aped": 7188,
    "Ġap": 7189,
    "Ġguaranteed": 7190,
    "ĠDemocr": 7191,
    "umer": 7192,
    "ushed": 7193,
    "ĠBrown": 7194,
    "ĠAPI": 7195,
    "ĠWall": 7196,
    "Ġhref": 7197,
    "ĠHelp": 7198,
    "Ġtotally": 7199,
    "Ġpip": 7200,
    "ĠSE": 7201,
    "Ġopinions": 7202,
    "ĠItaly": 7203,
    "Ġ150": 7204,
    "ĠMen": 7205,
    "Ġgambling": 7206,
    "Art": 7207,
    "ĠExpl": 7208,
    "icity": 7209,
    "check": 7210,
    "ĠWay": 7211,
    "anguage": 7212,
    "nam": 7213,
    "stone": 7214,
    "Ġdish": 7215,
    "Ġrecognize": 7216,
    "ĠLast": 7217,
    "Ġrequirement": 7218,
    "Ġfreedom": 7219,
    "Ġliquid": 7220,
    "sequent": 7221,
    "ĠVict": 7222,
    "ĠIsrael": 7223,
    "Ġbeat": 7224,
    "Ġexcess": 7225,
    "ĠDou": 7226,
    "ĠGen": 7227,
    "ITY": 7228,
    "Ġaccessories": 7229,
    "Ġreward": 7230,
    "Ġsoil": 7231,
    "Ġpharm": 7232,
    "alytics": 7233,
    "Ġelev": 7234,
    "Ġvacation": 7235,
    "Ġauthorities": 7236,
    "Ġfort": 7237,
    "Ġcontrast": 7238,
    "Ġmarked": 7239,
    "raine": 7240,
    "Ġbanks": 7241,
    "Ġpackages": 7242,
    "Ġsilver": 7243,
    "brid": 7244,
    "oding": 7245,
    "Ġpersons": 7246,
    "ĠTravel": 7247,
    "FC": 7248,
    "Ġconsists": 7249,
    "Ġbattle": 7250,
    "Ã³": 7251,
    "Best": 7252,
    "Ġbuyers": 7253,
    "ĠContent": 7254,
    "iffe": 7255,
    "Ġbroken": 7256,
    "Ġbehalf": 7257,
    "Ġgifts": 7258,
    "Ġroles": 7259,
    "State": 7260,
    "cure": 7261,
    "ĠBur": 7262,
    "ĠArea": 7263,
    "unting": 7264,
    "ĠDate": 7265,
    "Ġlived": 7266,
    "Ġexport": 7267,
    "Ġinvestments": 7268,
    "ovid": 7269,
    "such": 7270,
    "Ġprotein": 7271,
    "Ġdurable": 7272,
    "Ret": 7273,
    "vas": 7274,
    "inated": 7275,
    "ĠBlog": 7276,
    "Ġbooking": 7277,
    "cons": 7278,
    "Ġrealize": 7279,
    "ERE": 7280,
    "Ġbathroom": 7281,
    "Ġzero": 7282,
    "Ġcapture": 7283,
    "REDIRECT": 7284,
    "ifier": 7285,
    "Ġfly": 7286,
    "ĠProcess": 7287,
    "being": 7288,
    "âĤ¬": 7289,
    "May": 7290,
    "Ġpercentage": 7291,
    "Ġoffices": 7292,
    "Does": 7293,
    "Ġvul": 7294,
    "ĠWal": 7295,
    "stream": 7296,
    "Look": 7297,
    "Ġprinting": 7298,
    "Ġdenomin": 7299,
    "ials": 7300,
    "Ġreferred": 7301,
    "Ġmuseum": 7302,
    "Ġemotional": 7303,
    "Ġhidden": 7304,
    "Ġnine": 7305,
    "Ġextension": 7306,
    "Ġconcerned": 7307,
    "Ġages": 7308,
    "Ġcrew": 7309,
    "Ġmining": 7310,
    "itar": 7311,
    "isk": 7312,
    "ulum": 7313,
    "ĠFed": 7314,
    "NS": 7315,
    "Ġeating": 7316,
    "Ġlessons": 7317,
    "ĠPut": 7318,
    "Ġprinciples": 7319,
    "ĠHD": 7320,
    "ĠPlace": 7321,
    "Ġaddresses": 7322,
    "Ġiron": 7323,
    "Ġcancell": 7324,
    "Ġprogramme": 7325,
    "Ġsheet": 7326,
    "Ġlegit": 7327,
    "Ġlapt": 7328,
    "Ġpursu": 7329,
    "Ġexceed": 7330,
    "Ġroutine": 7331,
    "ĠEstate": 7332,
    "gar": 7333,
    "cers": 7334,
    "Ġequival": 7335,
    "Ġspeaking": 7336,
    "month": 7337,
    "Ġexposure": 7338,
    "Ġagreed": 7339,
    "Ġdebate": 7340,
    "ĠSqu": 7341,
    "Ġacceler": 7342,
    "ĠYOU": 7343,
    "Ġtreated": 7344,
    "ĠLED": 7345,
    "ĠDi": 7346,
    "neys": 7347,
    "Ġinvestigation": 7348,
    "Ġtough": 7349,
    "Ġconfident": 7350,
    "Ġ2004": 7351,
    "ste": 7352,
    "Ġborrow": 7353,
    "ĠDetermine": 7354,
    "ĠGames": 7355,
    "Ġcro": 7356,
    "Ġdelight": 7357,
    "Ġprimarily": 7358,
    "aning": 7359,
    "ME": 7360,
    "Ġspecified": 7361,
    "Ġenterprise": 7362,
    "Ġalgorith": 7363,
    "Ġconnections": 7364,
    "ras": 7365,
    "appy": 7366,
    "ati": 7367,
    "Ġcounty": 7368,
    "Ġfitness": 7369,
    "Ġtrail": 7370,
    "ĠConference": 7371,
    "Ġdirectory": 7372,
    "yan": 7373,
    "agues": 7374,
    "Ġpodcast": 7375,
    "Ġsatisfaction": 7376,
    "Lear": 7377,
    "bal": 7378,
    "Ġagric": 7379,
    "Ġmassive": 7380,
    "Ġexplained": 7381,
    "ĠLu": 7382,
    "Ġprecise": 7383,
    "ĠPH": 7384,
    "Ġforecast": 7385,
    "Ġcertificate": 7386,
    "''": 7387,
    "Ġpasseng": 7388,
    "Each": 7389,
    "aked": 7390,
    "ĠTraining": 7391,
    "Ġasset": 7392,
    "PM": 7393,
    "During": 7394,
    "Ġfeaturing": 7395,
    "ĠChildren": 7396,
    "Ġtechnique": 7397,
    "oral": 7398,
    "ĠNext": 7399,
    "arrow": 7400,
    "ĠEngineering": 7401,
    "secut": 7402,
    "Ġbetting": 7403,
    "Ġbedroom": 7404,
    "Today": 7405,
    "ĠBal": 7406,
    "Ġends": 7407,
    "Ġsubscription": 7408,
    "Ġtrusted": 7409,
    "Ġbutter": 7410,
    "Ġdocumentation": 7411,
    "Ġaims": 7412,
    "($": 7413,
    "Mar": 7414,
    "âĺ": 7415,
    "size": 7416,
    "Ġpossibility": 7417,
    "Ġpil": 7418,
    "Ġdesigner": 7419,
    "âĢĶâĢĶ": 7420,
    "Ġmountain": 7421,
    "Ġriver": 7422,
    "rance": 7423,
    "Ġtaught": 7424,
    "Ġinsight": 7425,
    "CR": 7426,
    "Ġacquis": 7427,
    "inar": 7428,
    "Ġstands": 7429,
    "Ġinstrument": 7430,
    "ogether": 7431,
    "udd": 7432,
    "ĠAustralian": 7433,
    "Ġ_": 7434,
    "Ġconsideration": 7435,
    "Ġreputation": 7436,
    "Ġawesome": 7437,
    "Ġnone": 7438,
    "Ġelectrical": 7439,
    "weet": 7440,
    "Ġupper": 7441,
    "enced": 7442,
    "Ġamend": 7443,
    "Ġsoul": 7444,
    "Ġdivis": 7445,
    "ANT": 7446,
    "Ġimmediate": 7447,
    "she": 7448,
    "Set": 7449,
    "ternoon": 7450,
    "Ġawarded": 7451,
    "unicip": 7452,
    "ĠFrank": 7453,
    "Ġarrived": 7454,
    "aid": 7455,
    "ading": 7456,
    "Ġconvert": 7457,
    "ĠFestival": 7458,
    "Ġattribut": 7459,
    "ĠUpd": 7460,
    "asts": 7461,
    "Ġ55": 7462,
    "Ġhospit": 7463,
    "ĠSearch": 7464,
    "High": 7465,
    "Ġcounsel": 7466,
    "Ġofficer": 7467,
    "Ġdiss": 7468,
    "Ġvast": 7469,
    "Ġtwice": 7470,
    "cm": 7471,
    "Ġmedicine": 7472,
    "Ġexceptional": 7473,
    "lymp": 7474,
    "Ġadds": 7475,
    "ĠALL": 7476,
    "ĠRobert": 7477,
    "bur": 7478,
    "pons": 7479,
    "Ġnewsletter": 7480,
    "LY": 7481,
    "Ġstructures": 7482,
    "Ġshift": 7483,
    "Ġhonor": 7484,
    "ĠAmericans": 7485,
    "ĠMS": 7486,
    "Ġextent": 7487,
    "ĠRev": 7488,
    "Ġquery": 7489,
    "Ġbasket": 7490,
    "char": 7491,
    "ns": 7492,
    "Ġorganis": 7493,
    "table": 7494,
    "Ġvoid": 7495,
    "ĠWorks": 7496,
    "making": 7497,
    "asters": 7498,
    "ĠProtection": 7499,
    "lo": 7500,
    "ĠPract": 7501,
    "Ġairport": 7502,
    "Expand": 7503,
    "Ġdecade": 7504,
    "Ġcloser": 7505,
    "Ġresistance": 7506,
    "Ġpreparation": 7507,
    "jpg": 7508,
    "ĠMA": 7509,
    "Ġevaluation": 7510,
    "Ġlunch": 7511,
    "Ġchief": 7512,
    "Ġfemale": 7513,
    "Ġcapable": 7514,
    "Ġkid": 7515,
    "?âĢĿ": 7516,
    "Ġmotion": 7517,
    "ĠDescription": 7518,
    "apore": 7519,
    "nab": 7520,
    "ĠWild": 7521,
    "Ġstunning": 7522,
    "Ġmoist": 7523,
    "Ġplate": 7524,
    "Ass": 7525,
    "Ġinjuries": 7526,
    "style": 7527,
    "Ġoriginally": 7528,
    "rm": 7529,
    "ĠFair": 7530,
    "ossible": 7531,
    "istical": 7532,
    "ĠEX": 7533,
    "oston": 7534,
    "ato": 7535,
    "ĠProfessional": 7536,
    "ĠCath": 7537,
    "Ġretirement": 7538,
    "ĠDisc": 7539,
    "ĠBE": 7540,
    "];": 7541,
    "visor": 7542,
    "biz": 7543,
    "Ġsections": 7544,
    "Ġguys": 7545,
    "Ġperforming": 7546,
    "Ġstanding": 7547,
    "Ġkm": 7548,
    "Ġexclusively": 7549,
    "Ġsufficient": 7550,
    "Ġextract": 7551,
    "Start": 7552,
    "Ġintegration": 7553,
    "Ġrough": 7554,
    "Ġincorpor": 7555,
    "ĠWordPress": 7556,
    "Ġtransmission": 7557,
    "Sign": 7558,
    "Ġbelief": 7559,
    "Ġcorrectly": 7560,
    "ĠInstead": 7561,
    "Ġcable": 7562,
    "Ġsignal": 7563,
    "umes": 7564,
    "Ġattached": 7565,
    "Ġordered": 7566,
    "inch": 7567,
    "SH": 7568,
    "uine": 7569,
    "Ġmal": 7570,
    "ĠChair": 7571,
    "path": 7572,
    "ĠMid": 7573,
    "Ġmatches": 7574,
    "Ġadvantages": 7575,
    "run": 7576,
    "ĊĊĠ": 7577,
    "Ġbroker": 7578,
    "ĠShipping": 7579,
    "Ġanticip": 7580,
    "ĠDetails": 7581,
    "Ġachieved": 7582,
    "Ġcertification": 7583,
    "Ġ==": 7584,
    "IST": 7585,
    "ĠJose": 7586,
    "ĠMichigan": 7587,
    "abling": 7588,
    "Value": 7589,
    "Ġbreakfast": 7590,
    "criptions": 7591,
    "hire": 7592,
    "Ġanonym": 7593,
    "ĠFarm": 7594,
    "ĠProducts": 7595,
    "duction": 7596,
    "150": 7597,
    "Ġformed": 7598,
    "ĠSmart": 7599,
    "RL": 7600,
    "ĠKingdom": 7601,
    "Ġju": 7602,
    "title": 7603,
    "Ġnull": 7604,
    "pection": 7605,
    "Ġsalt": 7606,
    "Also": 7607,
    "Ġran": 7608,
    "Ġ42": 7609,
    "Ġoblig": 7610,
    "ĠLine": 7611,
    "Ġ65": 7612,
    "Source": 7613,
    "Ġdogs": 7614,
    "novation": 7615,
    "Ġvit": 7616,
    "Ġ((": 7617,
    "Ġsuc": 7618,
    "Ġinvolves": 7619,
    "Like": 7620,
    "Det": 7621,
    "wing": 7622,
    "Ġhistoric": 7623,
    "Ġwriters": 7624,
    "ĠSP": 7625,
    "Ġadventure": 7626,
    "ĠAgreement": 7627,
    "Ġwitness": 7628,
    "chain": 7629,
    "Ġregardless": 7630,
    "uris": 7631,
    "ĠProm": 7632,
    "Ġrecording": 7633,
    "ĠThomas": 7634,
    "Ġlovely": 7635,
    "ĠDisney": 7636,
    "Ġrom": 7637,
    "itution": 7638,
    "Co": 7639,
    "car": 7640,
    "pression": 7641,
    "Ġsatisfied": 7642,
    "Ġnearby": 7643,
    "120": 7644,
    "Ġmanagers": 7645,
    "Ġpreferred": 7646,
    "Ġequity": 7647,
    "Ġgolf": 7648,
    "Ġok": 7649,
    "limited": 7650,
    "Ġembedded": 7651,
    "Ġancient": 7652,
    "IB": 7653,
    "born": 7654,
    "Ġ39": 7655,
    "ĠCur": 7656,
    "Ġmaintaining": 7657,
    "CS": 7658,
    "Ġbowl": 7659,
    "Ġdent": 7660,
    "Ġodd": 7661,
    "owntown": 7662,
    "Ġprotocol": 7663,
    "rich": 7664,
    "400": 7665,
    "Ġdeck": 7666,
    "ĠCB": 7667,
    "oken": 7668,
    "ĠWhere": 7669,
    "esides": 7670,
    "Ġconcepts": 7671,
    "Ġrevealed": 7672,
    "ellect": 7673,
    "Ġdelet": 7674,
    "Ġinspiration": 7675,
    "Ġfoods": 7676,
    "ĠSett": 7677,
    "ints": 7678,
    "xx": 7679,
    "Ġpubl": 7680,
    "ĠMiddle": 7681,
    "Ġapplying": 7682,
    "></": 7683,
    "Hi": 7684,
    "Ġfocuses": 7685,
    "acks": 7686,
    "ĠVideo": 7687,
    "Ġrespective": 7688,
    "Ġproven": 7689,
    "Ġrely": 7690,
    "Ġgender": 7691,
    "umps": 7692,
    "Ġscope": 7693,
    "ani": 7694,
    "ĠArab": 7695,
    "away": 7696,
    "roller": 7697,
    "ĠEnvironment": 7698,
    "Ġpleased": 7699,
    "Ġmel": 7700,
    "Ġflood": 7701,
    "Ġpersonalized": 7702,
    "gas": 7703,
    "Ġofficers": 7704,
    "Ġdiscipl": 7705,
    "web": 7706,
    "ĠOl": 7707,
    "ĠLic": 7708,
    "ĠLin": 7709,
    "Ġcharacteristics": 7710,
    "Ġmoments": 7711,
    "AND": 7712,
    "ĠStep": 7713,
    "Ġarr": 7714,
    "ĠColumb": 7715,
    "Ġformal": 7716,
    "ĠMil": 7717,
    "Ġathlet": 7718,
    "Ġsetup": 7719,
    "Although": 7720,
    "riz": 7721,
    "LA": 7722,
    "urrently": 7723,
    "ĊĠĠĠĠĠĠĠĠĠ": 7724,
    "Ġdenominator": 7725,
    "Ġreducing": 7726,
    "Ġpermanent": 7727,
    "Ġfo": 7728,
    "Ġhappening": 7729,
    "Ġengaged": 7730,
    "Ġlists": 7731,
    "Ġadvertise": 7732,
    "ansas": 7733,
    "obby": 7734,
    "ĠJersey": 7735,
    "Ġvisible": 7736,
    "ĠOhio": 7737,
    "Ã¢": 7738,
    "Ġnormally": 7739,
    "Ġlimits": 7740,
    "Ġ((-": 7741,
    "Ġmarriage": 7742,
    "ĠPeter": 7743,
    "Ġsucceed": 7744,
    "ĠHospital": 7745,
    "osit": 7746,
    "Ġvulner": 7747,
    "email": 7748,
    "trans": 7749,
    "Ġapproaches": 7750,
    "Ġdescribe": 7751,
    "ools": 7752,
    "ĠRoman": 7753,
    "Ġmusical": 7754,
    "uling": 7755,
    "ĠCe": 7756,
    "ĠCross": 7757,
    "onav": 7758,
    "Ġast": 7759,
    "Ġarrest": 7760,
    "ĠWatch": 7761,
    "():": 7762,
    "Ġreplaced": 7763,
    "Ġrelief": 7764,
    "ĠEmail": 7765,
    "worth": 7766,
    "Ġresort": 7767,
    "cut": 7768,
    "Ġchecking": 7769,
    "Ġleather": 7770,
    "rence": 7771,
    "iking": 7772,
    "intage": 7773,
    "Ġslots": 7774,
    "Ġcommittee": 7775,
    "ĠJul": 7776,
    "iser": 7777,
    "Ġnavigation": 7778,
    "Ġimpressive": 7779,
    "Ġcriminal": 7780,
    "cending": 7781,
    "Ġbond": 7782,
    "Ġrecognition": 7783,
    "Ġmandatory": 7784,
    "HS": 7785,
    "ifferent": 7786,
    "Ġwinner": 7787,
    "Ġarg": 7788,
    "Ġforg": 7789,
    "Ġbirthday": 7790,
    "Ã¼": 7791,
    "ĠCir": 7792,
    "Ġawards": 7793,
    "Ġgro": 7794,
    "law": 7795,
    "ta": 7796,
    "ĠCoast": 7797,
    "Link": 7798,
    "Ġcrack": 7799,
    "ĠGram": 7800,
    "Ġindicate": 7801,
    "ĠNig": 7802,
    "Ġintelligence": 7803,
    "ĠBre": 7804,
    "Ġmini": 7805,
    "ï¼": 7806,
    "\";": 7807,
    "Ġstable": 7808,
    "Ġclosing": 7809,
    "iana": 7810,
    "includes": 7811,
    "Ġinventory": 7812,
    "Ġforth": 7813,
    "ĠWorth": 7814,
    "Who": 7815,
    "iary": 7816,
    "Ġpassing": 7817,
    "ĠSpace": 7818,
    "ĠJun": 7819,
    "Ġreceipt": 7820,
    "ĠRef": 7821,
    "Ġinvesting": 7822,
    "ĠRound": 7823,
    "ĠShop": 7824,
    "Ġfinancing": 7825,
    "athe": 7826,
    "riculum": 7827,
    "Ġcommonly": 7828,
    "Ġkick": 7829,
    "necessary": 7830,
    "Ġmixed": 7831,
    "Ġlawyer": 7832,
    "Ġprospect": 7833,
    "Ġvisited": 7834,
    "ĠUndefined": 7835,
    "othe": 7836,
    "Ġtourn": 7837,
    "2019": 7838,
    "Ġreduction": 7839,
    "Ġflexibility": 7840,
    "Ġwhenever": 7841,
    "Ġafternoon": 7842,
    "Before": 7843,
    "Ġ},": 7844,
    "customers": 7845,
    "rat": 7846,
    "Ġupgrade": 7847,
    "utch": 7848,
    "ikes": 7849,
    "Ġsitting": 7850,
    "olit": 7851,
    "terior": 7852,
    "rowse": 7853,
    "Have": 7854,
    "ĠPR": 7855,
    "Ġrepresentative": 7856,
    "Ġ44": 7857,
    "Ġboxes": 7858,
    "Ġtrouble": 7859,
    "Ġmatt": 7860,
    "Ġsaving": 7861,
    "Ġmilk": 7862,
    "Ġsamples": 7863,
    "Ġphotograp": 7864,
    "Ġatmosphere": 7865,
    "cerning": 7866,
    "uate": 7867,
    "ĠFREE": 7868,
    "Ġnutrition": 7869,
    "Ġunlike": 7870,
    "Ġraw": 7871,
    "Ġyield": 7872,
    "Ġemployer": 7873,
    "Ġappeal": 7874,
    "Ġyellow": 7875,
    "Ġspr": 7876,
    "Ġfishing": 7877,
    "ĠBox": 7878,
    "Def": 7879,
    "alysis": 7880,
    "ĠFA": 7881,
    "Em": 7882,
    "Ġalcohol": 7883,
    "cd": 7884,
    "Ġratio": 7885,
    "Ġamounts": 7886,
    "Ġindicated": 7887,
    "Ġbroadcast": 7888,
    "\\\\\\\\": 7889,
    "Image": 7890,
    "Ġcra": 7891,
    "Ġrele": 7892,
    "Ġterrit": 7893,
    "ĨĴ": 7894,
    "ĠAirport": 7895,
    "inent": 7896,
    "ĠKen": 7897,
    "ĠAnother": 7898,
    "Ġmine": 7899,
    "uster": 7900,
    "ocs": 7901,
    "Ġloop": 7902,
    "urns": 7903,
    "yard": 7904,
    "lements": 7905,
    "Ġparticipation": 7906,
    "hem": 7907,
    "Ġcontrols": 7908,
    "riers": 7909,
    "igen": 7910,
    "Ġcalendar": 7911,
    "Ġestimate": 7912,
    "TER": 7913,
    "ĠGeorgia": 7914,
    "string": 7915,
    "httpd": 7916,
    "Ġreader": 7917,
    "ĠDu": 7918,
    "Ġsuggestions": 7919,
    "Ġdealing": 7920,
    "Ġphotography": 7921,
    "ĠMobile": 7922,
    "Ġreligious": 7923,
    "Ġord": 7924,
    "ounter": 7925,
    "ĠSystems": 7926,
    "ĠRoom": 7927,
    "ql": 7928,
    "ĠAdministration": 7929,
    "Ġpray": 7930,
    "Ġdisability": 7931,
    "Ġcenters": 7932,
    "Ġcompr": 7933,
    "onavirus": 7934,
    "Ġweak": 7935,
    "ds": 7936,
    "Ġalongside": 7937,
    "ĠDivision": 7938,
    "ĠWho": 7939,
    "ĠLearning": 7940,
    "Ġbread": 7941,
    "Ġdeploy": 7942,
    "Fact": 7943,
    "Ġdiversity": 7944,
    "irty": 7945,
    "Ġconsumption": 7946,
    "Ġenabled": 7947,
    "Ġ~": 7948,
    "ĠSouthern": 7949,
    "Ġfigures": 7950,
    "%)": 7951,
    "py": 7952,
    "ĠOlymp": 7953,
    "Ġevaluate": 7954,
    "Ġconflict": 7955,
    "Ġdivisor": 7956,
    "ĠFile": 7957,
    "Ġcovering": 7958,
    "Ġcomplain": 7959,
    "Ġ400": 7960,
    "bles": 7961,
    "Ġshoes": 7962,
    "Ġconvenience": 7963,
    "Ġinfect": 7964,
    "ĠWil": 7965,
    "ja": 7966,
    "ears": 7967,
    "ITH": 7968,
    "Ġglad": 7969,
    "fs": 7970,
    "Ġusual": 7971,
    "Ġoverw": 7972,
    "kes": 7973,
    "claimer": 7974,
    "Ġwash": 7975,
    "otive": 7976,
    "ĠTable": 7977,
    "Ġclothing": 7978,
    "iche": 7979,
    "Ġloves": 7980,
    "Ġpenal": 7981,
    "ĠLocal": 7982,
    "Ġobjective": 7983,
    "Ġdie": 7984,
    "Ġ($": 7985,
    "Ġcurrency": 7986,
    "ba": 7987,
    "Ġapplies": 7988,
    "Ġbless": 7989,
    "Ġmagazine": 7990,
    "Ġsuggested": 7991,
    "Ġnecessarily": 7992,
    "ĠColorado": 7993,
    "Ġconv": 7994,
    "ĠPolice": 7995,
    "Ġbrown": 7996,
    "Ġdelivering": 7997,
    "Tag": 7998,
    "Ġapartment": 7999,
    "Ġcontributions": 8000,
    "Ġvibr": 8001,
    "ĠDO": 8002,
    "ĠConsult": 8003,
    "Ġempty": 8004,
    "Ġequivalent": 8005,
    "Ġsac": 8006,
    "Dep": 8007,
    "Ġgrew": 8008,
    "Ġinsert": 8009,
    "BO": 8010,
    "Ġzone": 8011,
    "ĠVill": 8012,
    "ĠSelect": 8013,
    "ression": 8014,
    "FO": 8015,
    "iece": 8016,
    "Ġdirected": 8017,
    "BI": 8018,
    "ensus": 8019,
    "Ġscan": 8020,
    "Ġhiring": 8021,
    "ĠPacific": 8022,
    "Go": 8023,
    "Ġimplemented": 8024,
    "market": 8025,
    "annel": 8026,
    "Ġgarage": 8027,
    "Ġfits": 8028,
    "Ġexpansion": 8029,
    "ican": 8030,
    ")**": 8031,
    "Ġassigned": 8032,
    "ĠSoftware": 8033,
    "ROM": 8034,
    "Ġholidays": 8035,
    "ĠRight": 8036,
    "ĠWin": 8037,
    "Ġinstitution": 8038,
    "Ġ120": 8039,
    "Ġblank": 8040,
    "Ġkit": 8041,
    "Ġjoining": 8042,
    "Ġfacts": 8043,
    "['": 8044,
    "Ġcasinos": 8045,
    "plates": 8046,
    "pense": 8047,
    "Ġunf": 8048,
    "Ġdeletion": 8049,
    "ĠCR": 8050,
    "roduction": 8051,
    "Ġguard": 8052,
    "ĠJud": 8053,
    "ĠMember": 8054,
    "Ġillness": 8055,
    "proof": 8056,
    "lib": 8057,
    "Ġfiled": 8058,
    "inte": 8059,
    "erver": 8060,
    "Ġpun": 8061,
    "Ġmeat": 8062,
    "Ġdefinition": 8063,
    "Ġspeech": 8064,
    "zil": 8065,
    "Ġtack": 8066,
    "Ġworkshop": 8067,
    "Ġcomparison": 8068,
    "Ġnucle": 8069,
    "ĠSafety": 8070,
    "ogue": 8071,
    "Ġnoise": 8072,
    "iginal": 8073,
    "Ġsaved": 8074,
    "Ġelectricity": 8075,
    "ĠLimited": 8076,
    "ĠMO": 8077,
    "Ġking": 8078,
    "Ġrecipes": 8079,
    "Ġfont": 8080,
    "Ġjustice": 8081,
    "cope": 8082,
    "Ġparameters": 8083,
    "Ġdefect": 8084,
    "Ġundert": 8085,
    "Ġjewelry": 8086,
    "Ġexperim": 8087,
    "aven": 8088,
    "ĠSar": 8089,
    "Ġincreasingly": 8090,
    "Ġrelating": 8091,
    "ĠMatt": 8092,
    "Ġbelieved": 8093,
    "Ġpresents": 8094,
    "Gl": 8095,
    "sem": 8096,
    "ĠWi": 8097,
    "Ġfindings": 8098,
    "Ġweap": 8099,
    "ocur": 8100,
    "ĠArmy": 8101,
    "Ġturns": 8102,
    "esterday": 8103,
    "PU": 8104,
    "âĢĻ.": 8105,
    "110": 8106,
    "Ġassociation": 8107,
    "ĠStrateg": 8108,
    "ĠOk": 8109,
    "oria": 8110,
    "mond": 8111,
    "rix": 8112,
    "Ġpotentially": 8113,
    "Ġmattress": 8114,
    "iano": 8115,
    "Ġfro": 8116,
    "Ġengaging": 8117,
    "Ġdefine": 8118,
    "Ġviolence": 8119,
    "Script": 8120,
    "Ġhosted": 8121,
    "aturally": 8122,
    "UST": 8123,
    "Ġsensitive": 8124,
    "Ġwearing": 8125,
    "Ġ398": 8126,
    "Ġaccounting": 8127,
    "ĠAgency": 8128,
    "Ġinteraction": 8129,
    "ĊĠĠĠĠ": 8130,
    "SL": 8131,
    "Ġ64": 8132,
    "Ġinteractive": 8133,
    "MM": 8134,
    "ĠHen": 8135,
    "Car": 8136,
    "Ġvert": 8137,
    "gener": 8138,
    "PO": 8139,
    "arters": 8140,
    "Ġoperated": 8141,
    "amental": 8142,
    "Ġyes": 8143,
    "Ġbid": 8144,
    "Ġsuppliers": 8145,
    "Ġaircraft": 8146,
    "ella": 8147,
    "nabis": 8148,
    "Ġlayout": 8149,
    "Ġmac": 8150,
    "ĠThose": 8151,
    "och": 8152,
    "roph": 8153,
    "Ġconsultation": 8154,
    "Under": 8155,
    "Ġdeveloper": 8156,
    "ixture": 8157,
    "Ġdebut": 8158,
    "eping": 8159,
    "mun": 8160,
    "User": 8161,
    "ĠRegist": 8162,
    "ĠBoston": 8163,
    "Ġmarks": 8164,
    "Ġcompletion": 8165,
    "books": 8166,
    "reets": 8167,
    "ICE": 8168,
    "Ġlistening": 8169,
    "Ġstim": 8170,
    "Ġlets": 8171,
    "ĠFac": 8172,
    "Item": 8173,
    "Ġhyp": 8174,
    "anger": 8175,
    "step": 8176,
    "Ġconfiguration": 8177,
    "Ġfactory": 8178,
    "Er": 8179,
    "ĠDC": 8180,
    "Ġspiritual": 8181,
    "Ġprohib": 8182,
    "Ġreject": 8183,
    "ĠCookie": 8184,
    "ĠSmall": 8185,
    "Ġforced": 8186,
    "Ġsubjects": 8187,
    "Ġmeals": 8188,
    "akistan": 8189,
    "ificial": 8190,
    "uing": 8191,
    "ls": 8192,
    "Ġbear": 8193,
    "Ġtraveling": 8194,
    "Ġinstruction": 8195,
    "Ġdrawing": 8196,
    "ĠSingapore": 8197,
    "Ġcos": 8198,
    "kins": 8199,
    "Ġminimal": 8200,
    "ĠHom": 8201,
    "vision": 8202,
    "Ġcontainer": 8203,
    "Ġbuyer": 8204,
    "olving": 8205,
    "Build": 8206,
    "Med": 8207,
    "Ġheating": 8208,
    "inem": 8209,
    "lessly": 8210,
    "GA": 8211,
    "Ġrig": 8212,
    "Ġcarrying": 8213,
    "!)": 8214,
    "Ġlegislation": 8215,
    "Ġinitiative": 8216,
    "ĠAuto": 8217,
    "Ġchocolate": 8218,
    "ĠString": 8219,
    "Ġ`": 8220,
    "ĠBang": 8221,
    "ĠCast": 8222,
    "ĠAwards": 8223,
    "onto": 8224,
    "ĠPub": 8225,
    "Ġkilled": 8226,
    "QU": 8227,
    "zing": 8228,
    "File": 8229,
    "ĠWalk": 8230,
    "Ðº": 8231,
    "ylvan": 8232,
    "ĠMinistry": 8233,
    "atile": 8234,
    "Pay": 8235,
    "Ġ43": 8236,
    "Ġduty": 8237,
    "Ġauthorized": 8238,
    "Ġrein": 8239,
    "Ġnewly": 8240,
    "ĠPage": 8241,
    "urisd": 8242,
    "Ġutilize": 8243,
    "ki": 8244,
    "Ġproducing": 8245,
    "sear": 8246,
    "Ġthousand": 8247,
    "Ġ->": 8248,
    "Ġgenuine": 8249,
    "Ġexperiment": 8250,
    "Ġsurgery": 8251,
    "ocial": 8252,
    "ĠOfficer": 8253,
    "Ġabsor": 8254,
    "etch": 8255,
    "Ġaccomplish": 8256,
    "Ġverify": 8257,
    "%,": 8258,
    "Ġclassroom": 8259,
    "Ġobjectives": 8260,
    "iversary": 8261,
    "tical": 8262,
    "vironments": 8263,
    "ĠSection": 8264,
    "Ġrid": 8265,
    "Fl": 8266,
    "ĠStudies": 8267,
    "ĠLib": 8268,
    "Back": 8269,
    "Ġmouth": 8270,
    "ĠLevel": 8271,
    "okes": 8272,
    "ĠEp": 8273,
    "Ġ2003": 8274,
    "phones": 8275,
    "Ġsignature": 8276,
    "ĠSecretary": 8277,
    "ĠMembers": 8278,
    "Ġrepeat": 8279,
    "Market": 8280,
    "Ġultimately": 8281,
    "Ġlosing": 8282,
    "Ġlib": 8283,
    "Ġinstant": 8284,
    "OK": 8285,
    "ĠCharl": 8286,
    "Ġfraud": 8287,
    "Ġintent": 8288,
    "Ġattractive": 8289,
    "Ġregulatory": 8290,
    "Ġconcerning": 8291,
    "ĠSea": 8292,
    "ĠShould": 8293,
    "ellectual": 8294,
    "Ġflavor": 8295,
    "Ġentering": 8296,
    "Ġwet": 8297,
    "Ġpurs": 8298,
    "Ġcake": 8299,
    "Ġmeets": 8300,
    "position": 8301,
    "products": 8302,
    "Ġattended": 8303,
    "ĠCapital": 8304,
    "itled": 8305,
    "Ġultimate": 8306,
    "ĠFar": 8307,
    "Ġcontaining": 8308,
    "nders": 8309,
    "iti": 8310,
    "Ġplanet": 8311,
    "Ġisol": 8312,
    "clude": 8313,
    "Ġcm": 8314,
    "ulf": 8315,
    "Ġtells": 8316,
    "Ġexch": 8317,
    "ĠPartners": 8318,
    "esh": 8319,
    "eling": 8320,
    "Ġdust": 8321,
    "irtual": 8322,
    "Ġtransformation": 8323,
    "ker": 8324,
    "ĠMeet": 8325,
    "TP": 8326,
    "osystem": 8327,
    "uma": 8328,
    "Ġreturning": 8329,
    "ĠText": 8330,
    "Open": 8331,
    "Ġturning": 8332,
    "Ġwra": 8333,
    "ĠProfessor": 8334,
    "âĺħ": 8335,
    "Ġ49": 8336,
    "Ġhorse": 8337,
    "Ġobserved": 8338,
    "Ġintroduction": 8339,
    "Ġanxiety": 8340,
    "iances": 8341,
    "Related": 8342,
    "Ġspecialist": 8343,
    "ventional": 8344,
    "MC": 8345,
    "Review": 8346,
    "ĠSenior": 8347,
    "Ġimprovements": 8348,
    "dep": 8349,
    "ĠRequ": 8350,
    "ĠSale": 8351,
    "Ġpassionate": 8352,
    "ĠPrime": 8353,
    "ĠBuilding": 8354,
    "ĠEst": 8355,
    "Ġgraphics": 8356,
    "Ġsplit": 8357,
    "Ġuncertain": 8358,
    "TE": 8359,
    "ĠThus": 8360,
    "erate": 8361,
    "cho": 8362,
    "Vis": 8363,
    "ĠFrancisco": 8364,
    "Ġprovision": 8365,
    "Ġoutcome": 8366,
    "ĠSolutions": 8367,
    "Ġrelative": 8368,
    "map": 8369,
    "achelor": 8370,
    "hemat": 8371,
    "Ġpromise": 8372,
    "Ġorg": 8373,
    "Ġparticipating": 8374,
    "Ġstatistics": 8375,
    "aping": 8376,
    "ffective": 8377,
    "iament": 8378,
    "Ġimagine": 8379,
    "Ġmob": 8380,
    "ĠHon": 8381,
    "Ġtank": 8382,
    "Then": 8383,
    "Ġtou": 8384,
    "Ġrecon": 8385,
    "Ġmold": 8386,
    "xhall": 8387,
    "ĠJohnson": 8388,
    "Home": 8389,
    "Hel": 8390,
    "Ġsecondary": 8391,
    "Ġalle": 8392,
    "ĠStock": 8393,
    "ĠUkraine": 8394,
    "Ġsurprise": 8395,
    "Ġsegment": 8396,
    "Ġliterature": 8397,
    "ĠYoung": 8398,
    "vy": 8399,
    "Ġtelephone": 8400,
    "aska": 8401,
    "ĠNC": 8402,
    "orry": 8403,
    "Ġflo": 8404,
    "Net": 8405,
    "zes": 8406,
    "Ġscheme": 8407,
    "ÑĮ": 8408,
    "asant": 8409,
    "Log": 8410,
    "Ġ1000": 8411,
    "Ġshops": 8412,
    "ĠDie": 8413,
    "ĠAnalytics": 8414,
    "Ġhotels": 8415,
    "tery": 8416,
    "Ġtur": 8417,
    "ĠâĤ¬": 8418,
    "Ġmissed": 8419,
    "ĠChoose": 8420,
    "Ġinitiatives": 8421,
    "Off": 8422,
    "Ġdesigners": 8423,
    "pay": 8424,
    "ĠLow": 8425,
    "Ġrear": 8426,
    "berry": 8427,
    "Ġphen": 8428,
    "ĠDelivery": 8429,
    "]]": 8430,
    "Ġdiscussions": 8431,
    "ĠTry": 8432,
    "emed": 8433,
    "News": 8434,
    "stal": 8435,
    "Ġtherap": 8436,
    "Ġproposal": 8437,
    "Av": 8438,
    "Ġnoticed": 8439,
    "Ġimpossible": 8440,
    "ĠPhys": 8441,
    "icket": 8442,
    "UD": 8443,
    "ĠSanta": 8444,
    "Ġinterpret": 8445,
    "ogen": 8446,
    "Ã¶": 8447,
    "John": 8448,
    "bre": 8449,
    "ĠField": 8450,
    "ĠStandard": 8451,
    "Ġblow": 8452,
    "ĠColl": 8453,
    "Ġinner": 8454,
    "Main": 8455,
    "Ġbridge": 8456,
    "ĠAutom": 8457,
    "ĠExam": 8458,
    "Ġclothes": 8459,
    "Even": 8460,
    "etry": 8461,
    "Ġseemed": 8462,
    "âĢ³": 8463,
    "Ġrug": 8464,
    "Ġownership": 8465,
    "Ġsuperior": 8466,
    "Ġincident": 8467,
    "ĠLeg": 8468,
    "was": 8469,
    "ĠWithout": 8470,
    "Ġdiscounts": 8471,
    "Ġautomatic": 8472,
    "Red": 8473,
    "ĠEN": 8474,
    "Ñĭ": 8475,
    "wan": 8476,
    "bration": 8477,
    "ylvania": 8478,
    "Ġfrequency": 8479,
    "Ġbags": 8480,
    "Ġtravell": 8481,
    "References": 8482,
    "Up": 8483,
    "ĠNorthern": 8484,
    "Ġcombine": 8485,
    "Ġrising": 8486,
    "Ġspin": 8487,
    "Ġremoval": 8488,
    "oven": 8489,
    "Service": 8490,
    "Ġblocks": 8491,
    "ĠNeed": 8492,
    "Ġentity": 8493,
    "American": 8494,
    "600": 8495,
    "Ġfolder": 8496,
    "Ġrespectively": 8497,
    "250": 8498,
    "Ñı": 8499,
    "Ġfell": 8500,
    "Ġrural": 8501,
    "remony": 8502,
    "Ġdriven": 8503,
    "inois": 8504,
    "Ġcheese": 8505,
    "jagjag": 8506,
    "OnlineResponse": 8507,
    "2018": 8508,
    "searxhall": 8509,
    "Ġpanels": 8510,
    "ĠSpain": 8511,
    "Ġdispl": 8512,
    "ecute": 8513,
    "Ġrecover": 8514,
    "Ġcancel": 8515,
    "idget": 8516,
    "Ġjudge": 8517,
    "Ġsolely": 8518,
    "Ġrepairs": 8519,
    "ĠSon": 8520,
    "ĠTech": 8521,
    "Ġscores": 8522,
    "Ġattacks": 8523,
    "Ġcontribution": 8524,
    "Ġaggreg": 8525,
    "LO": 8526,
    "Ġestimates": 8527,
    "cor": 8528,
    "Ġstreaming": 8529,
    "Ġorient": 8530,
    "ilst": 8531,
    "Ġrepresentation": 8532,
    "Ġcalculated": 8533,
    "ĠMartin": 8534,
    "Ġgranted": 8535,
    "Request": 8536,
    "open": 8537,
    "riving": 8538,
    "author": 8539,
    "Ġcoal": 8540,
    "ĠJim": 8541,
    "Ġelectron": 8542,
    "Ġdrag": 8543,
    "ĠSn": 8544,
    "true": 8545,
    "Ġcrime": 8546,
    "ealand": 8547,
    "Ġenvironments": 8548,
    "Ġdealer": 8549,
    "Ġchapter": 8550,
    "Ġinvited": 8551,
    "Ġhomeown": 8552,
    "index": 8553,
    "ali": 8554,
    "Ġhur": 8555,
    "Ġsuggests": 8556,
    "Ġprove": 8557,
    "Ġsister": 8558,
    "itz": 8559,
    ")*-": 8560,
    "Ġsubsid": 8561,
    "KE": 8562,
    "Ġstretch": 8563,
    "Ġvent": 8564,
    "Ġdamages": 8565,
    "ĠFoot": 8566,
    "Ġreserve": 8567,
    "agon": 8568,
    "ĠWikipedia": 8569,
    "Ġfounder": 8570,
    "Ġunex": 8571,
    "Ġphilosoph": 8572,
    "ĠFriend": 8573,
    "Ġtitles": 8574,
    "ĠManufact": 8575,
    "='": 8576,
    "Ġincredibly": 8577,
    "ulous": 8578,
    "adium": 8579,
    "oster": 8580,
    ")(": 8581,
    "uls": 8582,
    "Ġpleasure": 8583,
    "Ġcoaching": 8584,
    "Ġsky": 8585,
    "ĠApplication": 8586,
    "Ġediting": 8587,
    "Ġmm": 8588,
    "Web": 8589,
    "ennis": 8590,
    "Ġdangerous": 8591,
    "Join": 8592,
    "Ġmir": 8593,
    "ĠMonth": 8594,
    "Ġlifetime": 8595,
    "Ġcomplicated": 8596,
    "heast": 8597,
    "uty": 8598,
    "GE": 8599,
    "Day": 8600,
    "ĠMP": 8601,
    "Ġattach": 8602,
    "Ġeast": 8603,
    "Ġmur": 8604,
    "hour": 8605,
    "Ġstations": 8606,
    "Ġsupplement": 8607,
    "Ġ47": 8608,
    "erman": 8609,
    "Ġdivision": 8610,
    "TV": 8611,
    "rane": 8612,
    "{{": 8613,
    "Ġrapidly": 8614,
    "Ġpromotion": 8615,
    "ĠMade": 8616,
    "ĠPrint": 8617,
    "Ġpowder": 8618,
    "Ġdiseases": 8619,
    "orable": 8620,
    "riter": 8621,
    "Ð²": 8622,
    "ĠCorporation": 8623,
    "Ġbeneficial": 8624,
    "Ġhook": 8625,
    "Ġservers": 8626,
    "Ġclimb": 8627,
    "ĠMedicine": 8628,
    "Ġcampaigns": 8629,
    "Ġcontracts": 8630,
    "Ġpersonnel": 8631,
    "ĠForce": 8632,
    "Whether": 8633,
    "Ġpill": 8634,
    "Ġspecifications": 8635,
    "oir": 8636,
    "Ġremind": 8637,
    "ĠComput": 8638,
    "Ġ41": 8639,
    "Ġtreatments": 8640,
    "Ġkil": 8641,
    "Ġleague": 8642,
    "ibraries": 8643,
    "files": 8644,
    "IVE": 8645,
    "Ġfairly": 8646,
    "ĠZealand": 8647,
    "!âĢĿ": 8648,
    "ĠNight": 8649,
    "Ġcompatible": 8650,
    "ĠOwn": 8651,
    "eras": 8652,
    "isms": 8653,
    "Ġware": 8654,
    "Ġtom": 8655,
    "Ġdistributed": 8656,
    "Ġchances": 8657,
    "Ġstrongly": 8658,
    "ĠUSB": 8659,
    "Ġ46": 8660,
    "Ġstatic": 8661,
    "Ġjurisd": 8662,
    "cular": 8663,
    "Ġacquisition": 8664,
    "item": 8665,
    "Ġexhibition": 8666,
    "Ġdrugs": 8667,
    "Ġexplains": 8668,
    "Ġhealing": 8669,
    "cycle": 8670,
    "Ġenthusi": 8671,
    "nic": 8672,
    "ORT": 8673,
    "Ġmemories": 8674,
    "ĠGar": 8675,
    "ĠRights": 8676,
    "Ġtradition": 8677,
    "words": 8678,
    "Form": 8679,
    "ĠSettings": 8680,
    "tle": 8681,
    "Ġgrass": 8682,
    "rizona": 8683,
    "Ġlosses": 8684,
    "days": 8685,
    "ĠTri": 8686,
    "PN": 8687,
    "Ġguitar": 8688,
    "Ġoverwhel": 8689,
    "amber": 8690,
    "ateful": 8691,
    "Ġsoph": 8692,
    ".[": 8693,
    "Ġprocure": 8694,
    "Ġsafely": 8695,
    "Ġfocusing": 8696,
    "Ġspeaker": 8697,
    "ĠSU": 8698,
    "Count": 8699,
    "Ġtens": 8700,
    "Ġrecruit": 8701,
    "Ġfundamental": 8702,
    "ologist": 8703,
    "Ġpossess": 8704,
    "click": 8705,
    "Ġlect": 8706,
    "ĠCountry": 8707,
    "ĠÎ": 8708,
    "Ġseam": 8709,
    "rated": 8710,
    "ĠExpress": 8711,
    "pending": 8712,
    "Ġ00": 8713,
    "null": 8714,
    "sylvania": 8715,
    "ĠBuy": 8716,
    "ĠPop": 8717,
    "Ġinspect": 8718,
    "Ġsurve": 8719,
    "Ġkeys": 8720,
    "Ġexploring": 8721,
    "Ġstages": 8722,
    "Ġlogin": 8723,
    "Ġsupposed": 8724,
    "ĠLittle": 8725,
    "Ġcaught": 8726,
    "Ġrepresented": 8727,
    "ALL": 8728,
    "struct": 8729,
    "ĠEs": 8730,
    "charge": 8731,
    "Ġstability": 8732,
    "Ġtast": 8733,
    "}.": 8734,
    "raction": 8735,
    "Ġcontinuous": 8736,
    "IES": 8737,
    "Ġworkplace": 8738,
    "Ġabuse": 8739,
    "ĠJones": 8740,
    "SD": 8741,
    "Will": 8742,
    "Ġbodies": 8743,
    "ĠEss": 8744,
    "iden": 8745,
    "Ġcotton": 8746,
    "Ġtutorial": 8747,
    "Ġskilled": 8748,
    "Ġoperational": 8749,
    "ĠMur": 8750,
    "Ġremark": 8751,
    "ĠEvent": 8752,
    "ĠMethod": 8753,
    "jo": 8754,
    "ï¿": 8755,
    "pace": 8756,
    "ĠDE": 8757,
    "Ġnom": 8758,
    "Par": 8759,
    "Ġlegitimate": 8760,
    "Ġduties": 8761,
    "ĠCovid": 8762,
    "cat": 8763,
    "ione": 8764,
    "arsh": 8765,
    "Ġcontest": 8766,
    "Test": 8767,
    "ĠStudent": 8768,
    "ĠTer": 8769,
    "Ġgreatly": 8770,
    "Ġalt": 8771,
    "Ġque": 8772,
    "Ġresidence": 8773,
    "Create": 8774,
    "Ġmoves": 8775,
    "core": 8776,
    "iral": 8777,
    "Ġfasc": 8778,
    "Ġdemands": 8779,
    "Ġchose": 8780,
    "Ġblend": 8781,
    "Ġhall": 8782,
    "ĠCollection": 8783,
    "Ġgram": 8784,
    "Ġchicken": 8785,
    "Ġglobe": 8786,
    "erving": 8787,
    "ĠStory": 8788,
    "........": 8789,
    "ĠMaterial": 8790,
    "Ġmere": 8791,
    "ĠJoe": 8792,
    "Ġoven": 8793,
    "igin": 8794,
    "Ġconversion": 8795,
    "Ġadvent": 8796,
    "dden": 8797,
    "Ġseller": 8798,
    "Ġlaptop": 8799,
    "Ġquantity": 8800,
    "Connect": 8801,
    "una": 8802,
    "ifting": 8803,
    "Ġstack": 8804,
    "input": 8805,
    "Ġnarrow": 8806,
    "Ġacquired": 8807,
    "Ġapparent": 8808,
    "Ġunw": 8809,
    "Ġargument": 8810,
    "Ġ2002": 8811,
    "ĠCasino": 8812,
    "ĠVan": 8813,
    "Ġmaintained": 8814,
    "Ġreform": 8815,
    "Ġarrival": 8816,
    "ĠWE": 8817,
    "Ġviewing": 8818,
    "ĠMike": 8819,
    "Ġbelieves": 8820,
    "Great": 8821,
    "Ġ(âĢľ": 8822,
    "Ġcolleagues": 8823,
    "atistics": 8824,
    "Well": 8825,
    "Ġelegant": 8826,
    "Ġphr": 8827,
    "uminum": 8828,
    "abetes": 8829,
    "Ġsight": 8830,
    "Ġtemporary": 8831,
    "ĠChris": 8832,
    "ĠLee": 8833,
    "start": 8834,
    "isters": 8835,
    "Ġstatistical": 8836,
    "ĠHard": 8837,
    "Ġgrid": 8838,
    "ĠPA": 8839,
    "Ġbranch": 8840,
    "ĠJeff": 8841,
    "Ġcustomized": 8842,
    "Ġencouraged": 8843,
    "Ġemployers": 8844,
    "ĠExchange": 8845,
    "ĠRen": 8846,
    "fall": 8847,
    "Ġoccurs": 8848,
    "ĠSilver": 8849,
    "ĠSummer": 8850,
    "Ġadequ": 8851,
    "Ġprofiles": 8852,
    "Ġ/>": 8853,
    "Ġproductivity": 8854,
    "Ġbuck": 8855,
    "Ġdreams": 8856,
    "Ġintroduce": 8857,
    "eding": 8858,
    "Object": 8859,
    "Ref": 8860,
    "Ġposting": 8861,
    "Ġtall": 8862,
    "ĠMoreover": 8863,
    "ĠStudio": 8864,
    "Ġperiods": 8865,
    "Ġsectors": 8866,
    "ĠExperience": 8867,
    "nce": 8868,
    "Ġunderst": 8869,
    "MO": 8870,
    "Ġshower": 8871,
    "ĠKn": 8872,
    "ĠPakistan": 8873,
    "Ġocean": 8874,
    "Ġemerging": 8875,
    "Ġfestival": 8876,
    "WH": 8877,
    "ĠâĨĴ": 8878,
    "Ġstudying": 8879,
    "Ġtemperatures": 8880,
    "Ġresponses": 8881,
    "RC": 8882,
    "ĠÐ²": 8883,
    "ĠOS": 8884,
    "Ġneut": 8885,
    "Ge": 8886,
    "ĠConditions": 8887,
    "Ġconsole": 8888,
    "Ġera": 8889,
    "URE": 8890,
    "Ġbills": 8891,
    "Ġgard": 8892,
    "TO": 8893,
    "gypt": 8894,
    "Ġfavourite": 8895,
    "Ġchildhood": 8896,
    "ĠBase": 8897,
    "orgeous": 8898,
    "DP": 8899,
    "ĠCatholic": 8900,
    "child": 8901,
    "ĠAsian": 8902,
    "Ġ2001": 8903,
    "select": 8904,
    "adow": 8905,
    "Ġcausing": 8906,
    "oys": 8907,
    "Ġhang": 8908,
    "Ġfulfill": 8909,
    "Ġsudden": 8910,
    "Ġqualify": 8911,
    "Ġexplan": 8912,
    "lyn": 8913,
    "ersion": 8914,
    "Ġtub": 8915,
    "Ġwireless": 8916,
    "Ġscientists": 8917,
    "ĠRun": 8918,
    "Ġtracks": 8919,
    "ĠSpirit": 8920,
    "Ġkill": 8921,
    "ingly": 8922,
    "roke": 8923,
    "ĠNO": 8924,
    "inity": 8925,
    "Ġtip": 8926,
    "Ġoperator": 8927,
    "ĠBul": 8928,
    "ounded": 8929,
    "ĠSenate": 8930,
    "GO": 8931,
    "People": 8932,
    "Ġvariables": 8933,
    "Ġille": 8934,
    "Ġalter": 8935,
    "cs": 8936,
    "Ġyounger": 8937,
    "Ġfault": 8938,
    "ï¿½": 8939,
    "graduate": 8940,
    "Ġdemonstrate": 8941,
    "amps": 8942,
    "Ġhero": 8943,
    "Ġexists": 8944,
    "Ġrobust": 8945,
    "ASE": 8946,
    "Intern": 8947,
    "Abstract": 8948,
    "ĠYOUR": 8949,
    "']": 8950,
    "Ġcryptocur": 8951,
    "ILL": 8952,
    "ĠCharles": 8953,
    "Ġsmile": 8954,
    "Ġtrick": 8955,
    "Ġecosystem": 8956,
    "??": 8957,
    "Ġpreparing": 8958,
    "Ġoccurred": 8959,
    "amsung": 8960,
    "Ġstopped": 8961,
    "ĊĠĊ": 8962,
    "ĠFun": 8963,
    "ĠSwed": 8964,
    "Ġmale": 8965,
    "Ġacts": 8966,
    "Ġreviewed": 8967,
    "Ġinspection": 8968,
    "Ġshooting": 8969,
    "ĠKorea": 8970,
    "lers": 8971,
    "ĠJustice": 8972,
    "tons": 8973,
    "ailing": 8974,
    "lywood": 8975,
    "rick": 8976,
    "Ġentrepreneurs": 8977,
    "Ġnursing": 8978,
    "ĠFord": 8979,
    "sit": 8980,
    "ĠTR": 8981,
    "Ġcritic": 8982,
    "ĠLabor": 8983,
    "ĠPot": 8984,
    "Ġpad": 8985,
    "ĠBrazil": 8986,
    "ĠBitcoin": 8987,
    "ruption": 8988,
    "Ġspeakers": 8989,
    "plan": 8990,
    "Ġsigning": 8991,
    "ĠPhilipp": 8992,
    "Ġunknown": 8993,
    "Min": 8994,
    "aul": 8995,
    "Ġstorm": 8996,
    "Ġfolks": 8997,
    "!!!": 8998,
    "ĠWhe": 8999,
    "looking": 9000,
    "Ġfilling": 9001,
    "Ġmask": 9002,
    "acter": 9003,
    "ĠSO": 9004,
    "Ġenabling": 9005,
    "itative": 9006,
    "aka": 9007,
    "Ġexperiencing": 9008,
    "ĠPu": 9009,
    "gent": 9010,
    "closure": 9011,
    "Ġrose": 9012,
    "ĠSpr": 9013,
    "Ġemissions": 9014,
    "Ġpromoting": 9015,
    "Del": 9016,
    "Ġsauce": 9017,
    "ĠiOS": 9018,
    "Ġbench": 9019,
    "Ġtooth": 9020,
    "Ġtiss": 9021,
    "Ġbottle": 9022,
    "Ġinvolving": 9023,
    "Take": 9024,
    "ĠHeart": 9025,
    "Ġfifth": 9026,
    "Call": 9027,
    "ĠDrive": 9028,
    "Ġstudied": 9029,
    "Ġhabit": 9030,
    "mits": 9031,
    "Ġresident": 9032,
    "Ġpregn": 9033,
    "Ġuniversities": 9034,
    "organ": 9035,
    "makers": 9036,
    "Prov": 9037,
    "ĠWITH": 9038,
    "Ġtargeted": 9039,
    "Ġacknowledge": 9040,
    "ĠSup": 9041,
    "ouston": 9042,
    "FOR": 9043,
    "Point": 9044,
    "ĠFour": 9045,
    "agraph": 9046,
    "Ġcreativity": 9047,
    "Ġsusp": 9048,
    "ĠÐ¿": 9049,
    "Ġprincipal": 9050,
    "teen": 9051,
    "ĠCommon": 9052,
    "Ġtherm": 9053,
    "Ġsustainability": 9054,
    "Ġmagic": 9055,
    "ĠMountain": 9056,
    "ĠIllinois": 9057,
    "Ġchecked": 9058,
    "Ġpride": 9059,
    "ĠMachine": 9060,
    "Ġtiny": 9061,
    "Using": 9062,
    "Ġguides": 9063,
    "Ġnarr": 9064,
    "Ġfranch": 9065,
    "Ġprofessor": 9066,
    "Ġenforcement": 9067,
    "elly": 9068,
    "âĢĻ,": 9069,
    "Ġscreens": 9070,
    "iour": 9071,
    "Ġchecks": 9072,
    "through": 9073,
    "ji": 9074,
    "Ġautomated": 9075,
    "Ġpace": 9076,
    "ĠSem": 9077,
    "uous": 9078,
    "Ġvolunteers": 9079,
    "service": 9080,
    "Ġparameter": 9081,
    "Ġhighlights": 9082,
    "grade": 9083,
    "connect": 9084,
    "Ġhoriz": 9085,
    "Ġenjoying": 9086,
    "Ġauthentic": 9087,
    "ĠEmer": 9088,
    "ĠHaving": 9089,
    "ĠLA": 9090,
    "Ġprison": 9091,
    "Ġmole": 9092,
    "Ġflights": 9093,
    "amics": 9094,
    "ĠPhoto": 9095,
    "],[": 9096,
    "ĠFinance": 9097,
    "left": 9098,
    "Ġthin": 9099,
    "Ġacid": 9100,
    "pact": 9101,
    "ĠPennsylvania": 9102,
    "2017": 9103,
    "Ġgained": 9104,
    "ĠBible": 9105,
    "lined": 9106,
    "Ġinitially": 9107,
    "mo": 9108,
    "Ġsmartphone": 9109,
    "Ġexplicit": 9110,
    "ervations": 9111,
    "Ġspark": 9112,
    "lder": 9113,
    "Ġalert": 9114,
    "Ġflag": 9115,
    "Ġdesktop": 9116,
    "Ġbasically": 9117,
    "ieties": 9118,
    "ĠSuch": 9119,
    "Ġplugin": 9120,
    "ĠGarden": 9121,
    "Ġindeed": 9122,
    "arry": 9123,
    "Ġbreath": 9124,
    "ĠModel": 9125,
    "ador": 9126,
    "Ġmile": 9127,
    "Ġdisappoint": 9128,
    "ĠIran": 9129,
    "ĠOil": 9130,
    "ĠKong": 9131,
    "Ġwave": 9132,
    "Ġphones": 9133,
    "aud": 9134,
    "ĠRam": 9135,
    "selling": 9136,
    "Ġindicates": 9137,
    "ĠBall": 9138,
    "Ġadministrative": 9139,
    "Rep": 9140,
    "ĠProperty": 9141,
    "odge": 9142,
    "miss": 9143,
    "Ġtimely": 9144,
    "foot": 9145,
    "ĠDI": 9146,
    "Ġindoor": 9147,
    "adel": 9148,
    "LECT": 9149,
    "Ġ95": 9150,
    "Ġloyal": 9151,
    "Ġvaccine": 9152,
    "Ġsalary": 9153,
    "ĠDue": 9154,
    "ĠLiving": 9155,
    "Ġstrengthen": 9156,
    "Ġdefend": 9157,
    "group": 9158,
    "Ġbars": 9159,
    "utter": 9160,
    "Ġshell": 9161,
    "efits": 9162,
    "cludes": 9163,
    "Color": 9164,
    "ĠOnt": 9165,
    "Ġforum": 9166,
    "Ġflour": 9167,
    "Ġbanking": 9168,
    "\").": 9169,
    "Ġsexual": 9170,
    "ĠAsk": 9171,
    "ĠMoney": 9172,
    "Ġseats": 9173,
    "Ġshock": 9174,
    "Ġresolve": 9175,
    "Ġresid": 9176,
    "Ġclock": 9177,
    "Ġfest": 9178,
    "entle": 9179,
    "Ġincent": 9180,
    "ĠAction": 9181,
    "Ġceremony": 9182,
    "Ġcareful": 9183,
    "Ġimpacts": 9184,
    "ĠGirl": 9185,
    "irts": 9186,
    "Ġcomply": 9187,
    "bsp": 9188,
    "Ġtap": 9189,
    "edge": 9190,
    "ypes": 9191,
    "Ġseasons": 9192,
    "tem": 9193,
    "ampion": 9194,
    "imon": 9195,
    "Ġadopted": 9196,
    "oking": 9197,
    "ĠLatin": 9198,
    "âĢĿ)": 9199,
    "Ġentitled": 9200,
    "ricted": 9201,
    "ĠEmploy": 9202,
    "aze": 9203,
    "har": 9204,
    "Ġchampions": 9205,
    "ĠArizona": 9206,
    "Ġresume": 9207,
    "Ġstreets": 9208,
    "Ġremained": 9209,
    "Ġefficiently": 9210,
    "Ġvictory": 9211,
    "ells": 9212,
    "scale": 9213,
    "ĠRo": 9214,
    "Ġrelation": 9215,
    "Ġexpanded": 9216,
    "ĠTrack": 9217,
    "Ġyours": 9218,
    "Accept": 9219,
    "ĠUr": 9220,
    "izza": 9221,
    "Ġformula": 9222,
    "Ġ52": 9223,
    "ĠStation": 9224,
    "ĠIde": 9225,
    "Ġinterviews": 9226,
    "ĠClin": 9227,
    "Ġteen": 9228,
    "Ġfacilitate": 9229,
    "Ġutility": 9230,
    "Ġpermit": 9231,
    "price": 9232,
    "Good": 9233,
    "ĉĉ": 9234,
    "ĠiP": 9235,
    "angle": 9236,
    "ila": 9237,
    "ĠHope": 9238,
    "ĠDaily": 9239,
    "Ġtalks": 9240,
    "Sum": 9241,
    "ĠInf": 9242,
    "ĠViet": 9243,
    "ĠMah": 9244,
    "Inter": 9245,
    "Ġmas": 9246,
    "ername": 9247,
    "world": 9248,
    "Ġmeaningful": 9249,
    "ĠBY": 9250,
    "commerce": 9251,
    "orce": 9252,
    "Ġdestroy": 9253,
    "Ġda": 9254,
    "DE": 9255,
    "Ġreact": 9256,
    "Ġluck": 9257,
    "2016": 9258,
    "Ġtrips": 9259,
    "Ġnaturally": 9260,
    "Ġrh": 9261,
    "Ġoverview": 9262,
    "ĠCS": 9263,
    "Ġvess": 9264,
    "ĠToronto": 9265,
    "Ġlens": 9266,
    "ĠThree": 9267,
    "ĠConf": 9268,
    "Ġmatching": 9269,
    "anned": 9270,
    "Ġinvite": 9271,
    "Ġcheckout": 9272,
    "Ġassignment": 9273,
    "Ġtwenty": 9274,
    "Ġrealized": 9275,
    "Ġreaching": 9276,
    "Ġneighb": 9277,
    "ounce": 9278,
    "ĠPen": 9279,
    "Ġ1990": 9280,
    "ĠMic": 9281,
    "Event": 9282,
    "ĠEnjoy": 9283,
    "Ġworse": 9284,
    "after": 9285,
    "Ġappointed": 9286,
    "Ġfeelings": 9287,
    "ĠLat": 9288,
    "commun": 9289,
    "bro": 9290,
    "Ġhyper": 9291,
    "Ġaest": 9292,
    "Ġhel": 9293,
    "gov": 9294,
    "awa": 9295,
    "ĠSC": 9296,
    "Ġlargely": 9297,
    "Ġgap": 9298,
    "ĠInstall": 9299,
    "Ġregulation": 9300,
    "Ġpermitted": 9301,
    "ĠANY": 9302,
    "orneys": 9303,
    "Ġcharging": 9304,
    "height": 9305,
    "ĠWilliams": 9306,
    "Ġinflation": 9307,
    "Ġorganisation": 9308,
    "vant": 9309,
    "ormal": 9310,
    "Ġhaz": 9311,
    "'.": 9312,
    "covery": 9313,
    "Ġpeak": 9314,
    "Ġenhanced": 9315,
    "Ġinstruments": 9316,
    "Ġwarning": 9317,
    "Ġdecrease": 9318,
    "ĠKent": 9319,
    "ĠFurthermore": 9320,
    "Ġdollar": 9321,
    "Ġcrypto": 9322,
    "Ġ250": 9323,
    "Ġstruggle": 9324,
    "power": 9325,
    "there": 9326,
    "break": 9327,
    "().": 9328,
    "Ġstrictly": 9329,
    "tech": 9330,
    "ĠIndustry": 9331,
    "Next": 9332,
    "Ġexamine": 9333,
    "Ġreferences": 9334,
    "ĠUt": 9335,
    "ourse": 9336,
    "Ġconnecting": 9337,
    "ĠCab": 9338,
    "Ġstakeholders": 9339,
    "thumb": 9340,
    "bel": 9341,
    "Ġstaying": 9342,
    "Ġexposed": 9343,
    "Ġseriously": 9344,
    "Ġspots": 9345,
    "Ġretrie": 9346,
    "Ġunexpected": 9347,
    "rell": 9348,
    "oted": 9349,
    "Ġstronger": 9350,
    "Keep": 9351,
    "ĠPur": 9352,
    "Ġthemes": 9353,
    "ĠFinally": 9354,
    "Ġdevelopments": 9355,
    "Ġmic": 9356,
    "swe": 9357,
    "iami": 9358,
    "Ġprize": 9359,
    "Ġrefresh": 9360,
    "ĠRichard": 9361,
    "ĠVisit": 9362,
    "Ġgrateful": 9363,
    "illy": 9364,
    "ĠWP": 9365,
    "Ġpersonality": 9366,
    "main": 9367,
    "holder": 9368,
    "Ġhumans": 9369,
    "enities": 9370,
    "Ġsubstantial": 9371,
    "osc": 9372,
    "ĠTransport": 9373,
    "VD": 9374,
    "shops": 9375,
    "ĠResources": 9376,
    "Ġsear": 9377,
    "ĠTreat": 9378,
    "ĠFL": 9379,
    "Ġempower": 9380,
    "Ġcompleting": 9381,
    "Ġhack": 9382,
    "Ġvenue": 9383,
    "ĠURL": 9384,
    "Ġhydro": 9385,
    "Ġseed": 9386,
    "ĠJackson": 9387,
    "Ġpolitics": 9388,
    "Ġmit": 9389,
    "Ġ54": 9390,
    "Ġsour": 9391,
    "Ġacting": 9392,
    "Ġnotify": 9393,
    "Ġpra": 9394,
    "Ġsummary": 9395,
    "regon": 9396,
    "Ġfarmers": 9397,
    "Advert": 9398,
    "ouses": 9399,
    "olis": 9400,
    "apped": 9401,
    "Ġintellectual": 9402,
    "Ã¤": 9403,
    "Ġtexture": 9404,
    "Ġprovisions": 9405,
    "Ġplot": 9406,
    "ĠSometimes": 9407,
    "Ġstead": 9408,
    "unicipal": 9409,
    "ĠNever": 9410,
    "Ġarbit": 9411,
    "ĠFilm": 9412,
    "fa": 9413,
    "ĠCivil": 9414,
    "Ġforever": 9415,
    "Ġcollections": 9416,
    "Because": 9417,
    "ĠLE": 9418,
    "ĠSav": 9419,
    "haust": 9420,
    "Ġhybrid": 9421,
    "Ġflav": 9422,
    "Ġnomin": 9423,
    "ATA": 9424,
    ".âĢĻ": 9425,
    "ĠEll": 9426,
    "Direct": 9427,
    "Ġgorgeous": 9428,
    "lean": 9429,
    "Ġaffiliated": 9430,
    "Ġcooperation": 9431,
    "Support": 9432,
    "ĠChange": 9433,
    "Ġgate": 9434,
    "ĠAz": 9435,
    "uan": 9436,
    "ĠReviews": 9437,
    "Ġinquir": 9438,
    "Ġscored": 9439,
    "Ġspecialized": 9440,
    "ritten": 9441,
    "war": 9442,
    "ĠStan": 9443,
    "Ġbuff": 9444,
    "ĠQueen": 9445,
    "Ġdomin": 9446,
    "Ġyard": 9447,
    "Ġpin": 9448,
    "ĠHong": 9449,
    "Ġduration": 9450,
    "Ġconfirmation": 9451,
    "Ġax": 9452,
    "Ġlikes": 9453,
    "ĠHTML": 9454,
    "Ġpublishing": 9455,
    "WS": 9456,
    "Ġflash": 9457,
    "Ġlayers": 9458,
    "ĠMD": 9459,
    "ĠShare": 9460,
    "oured": 9461,
    "Ġwarn": 9462,
    "river": 9463,
    "strong": 9464,
    "ĠForest": 9465,
    "MI": 9466,
    "ĠAddress": 9467,
    "ĠSat": 9468,
    "Ġdiffer": 9469,
    "earing": 9470,
    "Ġsubmitting": 9471,
    "ERV": 9472,
    "Pal": 9473,
    "ĠCore": 9474,
    "only": 9475,
    "Ġadmin": 9476,
    "ĠServer": 9477,
    "Ġdeeper": 9478,
    "Ġearnings": 9479,
    "ĠAp": 9480,
    "store": 9481,
    "Hand": 9482,
    "Ġobl": 9483,
    "ĠRa": 9484,
    "*(-": 9485,
    "ĠEgypt": 9486,
    "ilter": 9487,
    "orship": 9488,
    "ĠCL": 9489,
    "acious": 9490,
    "Ġdelivers": 9491,
    "Ġyesterday": 9492,
    "isa": 9493,
    "ĠEastern": 9494,
    "IAL": 9495,
    "Ġvendors": 9496,
    "Ġranging": 9497,
    "Ġsemi": 9498,
    "ceived": 9499,
    "ĠFeatures": 9500,
    "Ġacquire": 9501,
    "Upd": 9502,
    "Ġintegrity": 9503,
    "fers": 9504,
    "Ġvolunteer": 9505,
    "Ġguy": 9506,
    "Ġfaced": 9507,
    "ĠIrish": 9508,
    "Ġlistings": 9509,
    "':": 9510,
    "[]": 9511,
    "query": 9512,
    "Ġovers": 9513,
    "Ġtranslation": 9514,
    "');": 9515,
    "valuate": 9516,
    "Ġdishes": 9517,
    "Ġconvey": 9518,
    "Ġcopies": 9519,
    "rape": 9520,
    "ĠHold": 9521,
    "VA": 9522,
    "igure": 9523,
    "Ġ72": 9524,
    "Ġexpense": 9525,
    "Ġrender": 9526,
    "Ġbrid": 9527,
    "Put": 9528,
    "ĠThough": 9529,
    "Ġacknowled": 9530,
    "ĠChall": 9531,
    "Ġcomputers": 9532,
    "Ġpossibilities": 9533,
    "Ġsought": 9534,
    "Ġrepeated": 9535,
    "istent": 9536,
    "Ġprev": 9537,
    "ĠSD": 9538,
    "Ġswimming": 9539,
    "Ð¼": 9540,
    "estone": 9541,
    "Three": 9542,
    "Enter": 9543,
    "Ġconfidential": 9544,
    "Ġdisplays": 9545,
    "Ġstrive": 9546,
    "nesota": 9547,
    "Ġrevolution": 9548,
    "ĠAL": 9549,
    "Ġcelebration": 9550,
    "ĠAvailable": 9551,
    "aya": 9552,
    "enth": 9553,
    "ĠRadio": 9554,
    "ĊĠĠĠĠĠĠĠĠĠĠĠĠĠĠĠĠĠĠĠĠĠĠĠ": 9555,
    "ĠRepair": 9556,
    "Ġnegoti": 9557,
    "Ġparticipant": 9558,
    "ĠVery": 9559,
    "Ġappreciated": 9560,
    "Ġtermin": 9561,
    "Ġbreaking": 9562,
    "ĠSeason": 9563,
    "ĠRh": 9564,
    "Ġdecent": 9565,
    "Ġrepresentatives": 9566,
    "aver": 9567,
    "acher": 9568,
    "ĠSche": 9569,
    "Att": 9570,
    "agen": 9571,
    "ABLE": 9572,
    "Ġtournament": 9573,
    "illiant": 9574,
    "mers": 9575,
    "Ġbeer": 9576,
    "Ġmaps": 9577,
    "Ġoperators": 9578,
    "cue": 9579,
    "Ġ56": 9580,
    "rolog": 9581,
    "itutes": 9582,
    "inking": 9583,
    "atching": 9584,
    "giving": 9585,
    "Ġactively": 9586,
    "1000": 9587,
    "owned": 9588,
    "Ġdrawn": 9589,
    "ĠArchives": 9590,
    "Ġinn": 9591,
    "MENT": 9592,
    "Ġwaters": 9593,
    "aa": 9594,
    "Ġdescribes": 9595,
    "orous": 9596,
    "Ġcurriculum": 9597,
    "card": 9598,
    "cretion": 9599,
    "Ġentrance": 9600,
    "next": 9601,
    "Ġselecting": 9602,
    "Ġengines": 9603,
    "gree": 9604,
    "Ġaccommodation": 9605,
    "Ġanalyst": 9606,
    "Ġplacing": 9607,
    "Ġelected": 9608,
    "Ġmechanism": 9609,
    "ĠColumbia": 9610,
    "Ġcoronavirus": 9611,
    "Ġabilities": 9612,
    "ĠDaniel": 9613,
    "Ġtelling": 9614,
    "HA": 9615,
    "Ġcorresponding": 9616,
    "Ġdispos": 9617,
    "Ġeverywhere": 9618,
    "Ġyards": 9619,
    "Ġnuclear": 9620,
    "Ġdropped": 9621,
    "Learn": 9622,
    "ĠRs": 9623,
    "ĠFall": 9624,
    "onic": 9625,
    "forward": 9626,
    "Ġworkshops": 9627,
    "Ġbirds": 9628,
    "Size": 9629,
    "Ġfewer": 9630,
    "Ġspecialists": 9631,
    "NC": 9632,
    "Ġinch": 9633,
    "Ġrice": 9634,
    "Ġrefers": 9635,
    "ĠTitle": 9636,
    "oper": 9637,
    "ĠStone": 9638,
    "Ġclaimed": 9639,
    "Ġofficially": 9640,
    "Ġabroad": 9641,
    "Ġbold": 9642,
    "ĠSciences": 9643,
    "Ġflower": 9644,
    "Customer": 9645,
    "Ġdistingu": 9646,
    "zzle": 9647,
    "anted": 9648,
    "ĠEasy": 9649,
    "ĠFlow": 9650,
    "Ġfinds": 9651,
    "********": 9652,
    "Ġphotographs": 9653,
    "Ġcatalog": 9654,
    "Ġ53": 9655,
    "Ġcontroller": 9656,
    "Ġsupplier": 9657,
    "Inte": 9658,
    "Ġdoctors": 9659,
    "Ġsuffering": 9660,
    "|-": 9661,
    "opyright": 9662,
    "ĠGreek": 9663,
    "Ġgrab": 9664,
    "Ġ99": 9665,
    "Ġdowntown": 9666,
    "Ġcarrier": 9667,
    "Ġlatter": 9668,
    "PD": 9669,
    "const": 9670,
    "ĠDom": 9671,
    "Ġvoc": 9672,
    "Ġtargets": 9673,
    "Ġlimitations": 9674,
    "Ġtransferred": 9675,
    "Ġstocks": 9676,
    "Ġcredits": 9677,
    "ĠBooks": 9678,
    "Ġcomplement": 9679,
    "ĠCollect": 9680,
    "ĠAsh": 9681,
    "Ġroads": 9682,
    "Ġconscious": 9683,
    "XX": 9684,
    "Ġpursue": 9685,
    "Ġtum": 9686,
    "Ġpublications": 9687,
    "Ġboys": 9688,
    "INE": 9689,
    "Ġsomewhere": 9690,
    "Ġcameras": 9691,
    "Ġgam": 9692,
    "Ġtill": 9693,
    "sequently": 9694,
    "ĠAndrew": 9695,
    "Ġfib": 9696,
    "script": 9697,
    "ĠBased": 9698,
    "burgh": 9699,
    "Ġaside": 9700,
    "uses": 9701,
    "ĠRose": 9702,
    "ĠGrow": 9703,
    "first": 9704,
    "yo": 9705,
    "ĠĊĊ": 9706,
    "ĠJon": 9707,
    "TR": 9708,
    "ĠOntario": 9709,
    "ĠTrade": 9710,
    "ĠVen": 9711,
    "Ġtrim": 9712,
    "Ġportal": 9713,
    "Ġgovernments": 9714,
    "Ġsomewhat": 9715,
    "Disclaimer": 9716,
    "Ġadditionally": 9717,
    "Ġrecre": 9718,
    "ĠHR": 9719,
    "Ġmixture": 9720,
    "Ġopens": 9721,
    "Project": 9722,
    "Ġstuck": 9723,
    "BM": 9724,
    "Hello": 9725,
    "2015": 9726,
    "ĠHistor": 9727,
    "Ġlesson": 9728,
    "zed": 9729,
    "Ġsick": 9730,
    "ĠDream": 9731,
    "Ġsurprised": 9732,
    "~~": 9733,
    "BL": 9734,
    "winning": 9735,
    "Ġassembly": 9736,
    "Ġlift": 9737,
    "nda": 9738,
    "Ġpocket": 9739,
    "ĠContract": 9740,
    "info": 9741,
    "ĠDays": 9742,
    "inery": 9743,
    "Ben": 9744,
    "high": 9745,
    "Business": 9746,
    "ordinary": 9747,
    "ĠDog": 9748,
    "Ġasp": 9749,
    "Ġdecline": 9750,
    "assion": 9751,
    "Ġfrag": 9752,
    "Ġcouncil": 9753,
    "ilation": 9754,
    "elled": 9755,
    "Ġdesigning": 9756,
    "Ġcompact": 9757,
    "Ġdeleted": 9758,
    "izations": 9759,
    "riger": 9760,
    "Ġintention": 9761,
    "ĠHouston": 9762,
    "urious": 9763,
    "Ġsettlement": 9764,
    "ĠCro": 9765,
    "Ġattending": 9766,
    "Ġmeasured": 9767,
    "ĠBroad": 9768,
    "Ġconsequences": 9769,
    "ĠBeaut": 9770,
    "La": 9771,
    "message": 9772,
    "IO": 9773,
    "Prof": 9774,
    "Ġtomorrow": 9775,
    "Ġsad": 9776,
    "Table": 9777,
    "ĠAssistant": 9778,
    "ĠSher": 9779,
    "Ġunion": 9780,
    "ĠShort": 9781,
    "Ġconsistently": 9782,
    "Ġtone": 9783,
    "Ġcrushing": 9784,
    "Google": 9785,
    "ĠNatural": 9786,
    "Ġmodified": 9787,
    "bin": 9788,
    "Ġhub": 9789,
    "Ġoptimal": 9790,
    "Ġautomation": 9791,
    "Ġslowly": 9792,
    "ĠMaybe": 9793,
    "db": 9794,
    "Ġvertical": 9795,
    "Ġorganisations": 9796,
    "Ġunus": 9797,
    "Ġconsulting": 9798,
    "bra": 9799,
    "Ġspray": 9800,
    "Ġtemplates": 9801,
    "Ġscul": 9802,
    "Ġsubmission": 9803,
    "Ġfighting": 9804,
    "Ġsentence": 9805,
    "Ġarms": 9806,
    "ĠKh": 9807,
    "ĠVice": 9808,
    "Ġnotification": 9809,
    "Ġpollut": 9810,
    "ĠPL": 9811,
    "athered": 9812,
    "ĠValue": 9813,
    "Ġunderstood": 9814,
    "Ġcustomize": 9815,
    "Ġheads": 9816,
    "ĠCru": 9817,
    "Ġmath": 9818,
    "Ġexistence": 9819,
    "CTION": 9820,
    "ĠMedic": 9821,
    "Ġmerchand": 9822,
    "ĠPlant": 9823,
    "osa": 9824,
    "Ġpounds": 9825,
    "Ġsculpt": 9826,
    "ĠRO": 9827,
    "Ġarrangement": 9828,
    "ĠMap": 9829,
    "imary": 9830,
    "ĠPrivate": 9831,
    "Ġdonation": 9832,
    "Ġmeasurement": 9833,
    "ĠAvenue": 9834,
    "ĠHa": 9835,
    "Ġassistant": 9836,
    "uis": 9837,
    "HL": 9838,
    "Ġmargin": 9839,
    "url": 9840,
    "Ġinteractions": 9841,
    "alo": 9842,
    "Ġsensor": 9843,
    "leep": 9844,
    "Ġlad": 9845,
    "Mr": 9846,
    "Ġconversations": 9847,
    "Ġ01": 9848,
    "iscons": 9849,
    "Did": 9850,
    "ĠHoly": 9851,
    "Ġpoker": 9852,
    "Ġsubsequent": 9853,
    "Ġinjured": 9854,
    "Ġemployed": 9855,
    "pot": 9856,
    "Ġcrowd": 9857,
    "Sort": 9858,
    "riven": 9859,
    "inet": 9860,
    "Ġmeters": 9861,
    "Ġlocally": 9862,
    "Ġinject": 9863,
    "theless": 9864,
    "anna": 9865,
    "Ġfru": 9866,
    "General": 9867,
    "isconsin": 9868,
    "Ġpink": 9869,
    "enter": 9870,
    "El": 9871,
    "Total": 9872,
    "ĠPS": 9873,
    "Looking": 9874,
    "ĠIsl": 9875,
    "Ġlake": 9876,
    "ĠGuard": 9877,
    "osite": 9878,
    "Ġimplementing": 9879,
    "Ġphenomen": 9880,
    "Model": 9881,
    "Ġartwork": 9882,
    "inyl": 9883,
    "ĠAnnual": 9884,
    "Ġexamination": 9885,
    "ĠWorking": 9886,
    "iform": 9887,
    "Ġglob": 9888,
    "ĠHost": 9889,
    "ĠModern": 9890,
    "Ġaimed": 9891,
    "Ġyoga": 9892,
    "ousing": 9893,
    "uts": 9894,
    "etts": 9895,
    "Ġevolution": 9896,
    "ĠDam": 9897,
    "Ġcontractors": 9898,
    "Ġboards": 9899,
    "MT": 9900,
    "Ġtact": 9901,
    "ĠQuestions": 9902,
    "Download": 9903,
    "Ġmechanical": 9904,
    "ĠCreate": 9905,
    "Ġspoke": 9906,
    "Ġmood": 9907,
    "Ġjun": 9908,
    "bility": 9909,
    "Ġdil": 9910,
    "ACK": 9911,
    "plugin": 9912,
    "ĠIce": 9913,
    "Ġfinest": 9914,
    "UI": 9915,
    "Ġmerg": 9916,
    "ĠCase": 9917,
    "Ġconcert": 9918,
    "Ġlease": 9919,
    "ĠIndepend": 9920,
    "Ġdeeply": 9921,
    "Ġprivile": 9922,
    "Ġ1999": 9923,
    "Ġtags": 9924,
    "Ġengineers": 9925,
    "Ġsouthern": 9926,
    "Ġanniversary": 9927,
    "Ġpacked": 9928,
    "ĠCand": 9929,
    "Ġgraphic": 9930,
    "Ġoverse": 9931,
    "axy": 9932,
    "ptions": 9933,
    "Ġshapes": 9934,
    "Ġcompetitors": 9935,
    "Access": 9936,
    "Ġresponsibilities": 9937,
    "Ġlegend": 9938,
    "everal": 9939,
    "abeth": 9940,
    "aylor": 9941,
    "avas": 9942,
    "Disc": 9943,
    "ĠPers": 9944,
    "Ġconventional": 9945,
    "achus": 9946,
    "ĠTalk": 9947,
    "Ġencounter": 9948,
    "ULL": 9949,
    "otion": 9950,
    "athan": 9951,
    "Ġgym": 9952,
    ";&#": 9953,
    "ixed": 9954,
    "wear": 9955,
    "Ġsurprising": 9956,
    "Ġrepresenting": 9957,
    "ĠSort": 9958,
    "ĠReading": 9959,
    "Ġ51": 9960,
    "Cor": 9961,
    "Ġalleged": 9962,
    "Ġstainless": 9963,
    "Ġidentification": 9964,
    "ĠAssociates": 9965,
    "Ġsurfaces": 9966,
    "ĠStudy": 9967,
    "ĠHawai": 9968,
    "Ġworkforce": 9969,
    "Ġcircuit": 9970,
    "ĠQuick": 9971,
    "ĠJoseph": 9972,
    "Ġworst": 9973,
    "Ġwondering": 9974,
    "ĠJob": 9975,
    "Ġarrangements": 9976,
    "Ġquotes": 9977,
    "Ġdisable": 9978,
    "Exper": 9979,
    "Ġcontractor": 9980,
    "week": 9981,
    "ĠĠĠĠĠĠĠĠĠĠĠĠĠĠĠĠĠĠĠĠĠĠĠĠĠĠĠĠĠĠĠĠ": 9982,
    "Shipping": 9983,
    "Ġdiagnosis": 9984,
    "ĠAdvis": 9985,
    "ĠFROM": 9986,
    "ĠClean": 9987,
    "ĠOregon": 9988,
    "Ġadoption": 9989,
    "Ġvisitor": 9990,
    "ĠMagazine": 9991,
    "Ġtons": 9992,
    "Ġshouldn": 9993,
    "Ġvirtually": 9994,
    "sen": 9995,
    "wa": 9996,
    "ĠDiego": 9997,
    "prises": 9998,
    "ĠUnivers": 9999,
    "Necessary": 10000,
    "Ġreliability": 10001,
    "Ġ85": 10002,
    "RP": 10003,
    "________________": 10004,
    "Box": 10005,
    "Ġfaces": 10006,
    "Ġsen": 10007,
    "iac": 10008,
    "eness": 10009,
    "ĠEV": 10010,
    "ĠJoin": 10011,
    "Bel": 10012,
    "Ġending": 10013,
    "urers": 10014,
    "ĠBob": 10015,
    "CP": 10016,
    "cal": 10017,
    "Ġaer": 10018,
    "Ġdual": 10019,
    "ĠCash": 10020,
    "Ġinfection": 10021,
    "yal": 10022,
    "ih": 10023,
    "Ġlightweight": 10024,
    "ĠUsers": 10025,
    "ĠSource": 10026,
    "ĠSQL": 10027,
    "vity": 10028,
    "ĠArchitect": 10029,
    "ync": 10030,
    "blog": 10031,
    "Ġcooling": 10032,
    "Ġbaking": 10033,
    "gate": 10034,
    "Ver": 10035,
    "owered": 10036,
    "Ġaccommodate": 10037,
    "Ġtrademarks": 10038,
    "ĠÑģ": 10039,
    "Ġhospitals": 10040,
    "Ġamenities": 10041,
    "Ġcasual": 10042,
    "Ġexecution": 10043,
    "Ġviewed": 10044,
    "ima": 10045,
    "ĠAuthority": 10046,
    "Ġbehaviour": 10047,
    "Ġnetworking": 10048,
    "wall": 10049,
    "hop": 10050,
    "ultane": 10051,
    "bet": 10052,
    "Save": 10053,
    "ĠRepresent": 10054,
    "ĠCamb": 10055,
    "itches": 10056,
    "owa": 10057,
    "Ġexpanding": 10058,
    "Ġsharp": 10059,
    "Ġstruggling": 10060,
    "Ġaggress": 10061,
    "ained": 10062,
    "Ġdeaths": 10063,
    "ĠAgain": 10064,
    "achusetts": 10065,
    "ĠBed": 10066,
    "Ġproport": 10067,
    "subscribe": 10068,
    "bury": 10069,
    "Ġlucky": 10070,
    "cluding": 10071,
    "ITE": 10072,
    "ilton": 10073,
    "Ġcomprom": 10074,
    "pes": 10075,
    "Ġedits": 10076,
    "Error": 10077,
    "Ġproducer": 10078,
    "],[-": 10079,
    "rage": 10080,
    "Ġdecreasing": 10081,
    "ĠMotor": 10082,
    "ĠSaint": 10083,
    "ĠLinux": 10084,
    "swered": 10085,
    "Ġcourts": 10086,
    "ĠSupreme": 10087,
    "Ġ57": 10088,
    "Ġprotecting": 10089,
    "Ġ(\"": 10090,
    "inson": 10091,
    "specific": 10092,
    "ĠVillage": 10093,
    "Ġreveal": 10094,
    "Ġinval": 10095,
    "Ġ1980": 10096,
    "Jan": 10097,
    "Ġvisa": 10098,
    "END": 10099,
    "Ġdepre": 10100,
    "ĠPsych": 10101,
    "exp": 10102,
    "ĠSize": 10103,
    "ationally": 10104,
    "ĠCou": 10105,
    "iscal": 10106,
    "ĠTal": 10107,
    "akh": 10108,
    "tage": 10109,
    "ĠMinnesota": 10110,
    "Ġpitch": 10111,
    "Cal": 10112,
    "ĠUnfortunately": 10113,
    "ĠBeing": 10114,
    "ĠLO": 10115,
    "Ġhesit": 10116,
    "ramework": 10117,
    "Ġstylish": 10118,
    "Ġgene": 10119,
    "Ġillegal": 10120,
    "ureau": 10121,
    "ĠRail": 10122,
    "iatric": 10123,
    "ko": 10124,
    "ognitive": 10125,
    "Ġvintage": 10126,
    "Ġrestore": 10127,
    "Ġreligion": 10128,
    "ĠPrior": 10129,
    "Ġaddressed": 10130,
    "ĠSym": 10131,
    "ĠAnalysis": 10132,
    "ĠMiami": 10133,
    "allas": 10134,
    "Ġtrigger": 10135,
    "ĠSquare": 10136,
    "ĠOcean": 10137,
    "Ġvegetables": 10138,
    "ellite": 10139,
    "Ġentities": 10140,
    "uition": 10141,
    "Ġlies": 10142,
    "Ġemotions": 10143,
    "ĠCreek": 10144,
    "adelph": 10145,
    "Ġrewards": 10146,
    "aters": 10147,
    "Ġformation": 10148,
    "DC": 10149,
    "Ġwooden": 10150,
    "Ġinspire": 10151,
    "========": 10152,
    "Ġadmission": 10153,
    "Ġperformances": 10154,
    "Ġdrinks": 10155,
    "Health": 10156,
    "Ġconstructed": 10157,
    "ĠIII": 10158,
    "Ġhole": 10159,
    "ride": 10160,
    "isdom": 10161,
    "Ġresil": 10162,
    "Ġimper": 10163,
    "ĠJac": 10164,
    "Ġfiling": 10165,
    "abil": 10166,
    "Ġgrants": 10167,
    "Ġdecimal": 10168,
    "Ġreleases": 10169,
    ",,": 10170,
    "Ġpul": 10171,
    "Ġhoping": 10172,
    "Ġfalls": 10173,
    "Ġmoisture": 10174,
    "Care": 10175,
    "Ġ58": 10176,
    "ĠLas": 10177,
    "Exception": 10178,
    "Ġobligations": 10179,
    "ĠSteel": 10180,
    "Oct": 10181,
    "Ġexhaust": 10182,
    "live": 10183,
    "WE": 10184,
    "iy": 10185,
    "Ġtor": 10186,
    "Ġtalented": 10187,
    "Bar": 10188,
    "Ġbuttons": 10189,
    "Ġlawyers": 10190,
    "Ġdirections": 10191,
    "Ġsuite": 10192,
    "Ġadm": 10193,
    "AF": 10194,
    "Ġwellness": 10195,
    "Ġgentle": 10196,
    "Ġdesignated": 10197,
    "pur": 10198,
    "Ġvibrant": 10199,
    "ĠLy": 10200,
    "Ġunlimited": 10201,
    "Ġphilosophy": 10202,
    "PRO": 10203,
    "Ġwider": 10204,
    "Ġproduces": 10205,
    "BE": 10206,
    "ĠEth": 10207,
    "ĠConsider": 10208,
    "rer": 10209,
    "ennes": 10210,
    "Ġdiscovery": 10211,
    "Ġeffectiveness": 10212,
    "Ġram": 10213,
    "ĠYet": 10214,
    "ĠNations": 10215,
    "Ġscreening": 10216,
    "Ġtours": 10217,
    "Ġratings": 10218,
    "Ġoral": 10219,
    "Ġheritage": 10220,
    "ĠPo": 10221,
    "Ġherself": 10222,
    "Ġopposite": 10223,
    "Child": 10224,
    "Ġbrush": 10225,
    "Photo": 10226,
    "ervices": 10227,
    "screen": 10228,
    "Ġbasketball": 10229,
    "ĠSteve": 10230,
    "Ġlinking": 10231,
    "adelphia": 10232,
    "Ġneither": 10233,
    "sis": 10234,
    "Ġdifficulty": 10235,
    "Ġmountains": 10236,
    "Company": 10237,
    "Ġintense": 10238,
    "ĠOak": 10239,
    "Ġdiscretion": 10240,
    "ĠVegas": 10241,
    "ĠTurn": 10242,
    "Ġsuspect": 10243,
    "Express": 10244,
    "ĠInvestment": 10245,
    "Ġdash": 10246,
    "Ġdisrupt": 10247,
    "Ent": 10248,
    "umbing": 10249,
    "ĠDespite": 10250,
    "Ġdiabetes": 10251,
    "ĠKim": 10252,
    "cipl": 10253,
    "UE": 10254,
    "Ġdeemed": 10255,
    "Ġartificial": 10256,
    "Ġversatile": 10257,
    "Ð´": 10258,
    "Ġinclusion": 10259,
    "Location": 10260,
    "Ġmeasurements": 10261,
    "iology": 10262,
    "Ġfalling": 10263,
    "ĠPerformance": 10264,
    "ĠRay": 10265,
    "Ġscenario": 10266,
    "ĠAG": 10267,
[...]
